#version: 0.2
Ġ \
Ġ Ċ
t h
Ġ\ (
\ )
i n
_ {
t i
Ġ a
ä ¸
o n
a l
Ġ th
t e
m a
ç ļ
r a
çļ Ħ
^ {
r e
Ġth e
t a
Ġ s
l e
Ġ o
ã Ģ
e r
e n
a r
Ġ c
ãĢ Ĥ
i g
Ġ f
ä º
o r
ä »
Ġ p
} \
Ġo f
d e
ï ¼
i s
ï¼ Į
ti on
ra c
l a
} {
Ġ =
å ı
m e
Ġ\ [
Ġ\ ]
ma th
r o
f rac
å ħ
n d
( \
Ġ\( \
s i
h a
Ġ t
te x
Ġ in
Ġ w
b f
Ġ &
Ġ b
Ġ e
å Ī
Ġ d
æ ľ
{ \
e s
å ľ
è ¿
h i
in g
f t
æ ĺ
c al
ä ½
e ta
ç Ķ
, \
s u
= \
} \)
å ¤
æ Ī
t s
e d
} (
ç »
å ®
ig h
r i
Ġa nd
å Ĳ
Ġ (
e l
m b
g a
Ġ n
. \)
} ^{
ä¸ Ģ
æ ĸ
_{ \
æ ķ
o l
é ĩ
) \
r igh
å °
m u
åľ ¨
Ġt o
å Ń
Ġ re
tex t
d o
å Ĭ
a n
å ¹
Ġ +
å Ĵ
åĴ Į
righ t
p ha
le ft
Ġ T
d a
} )
Ġ u
Ġ g
- \
å Ľ
al pha
h o
v e
æĺ ¯
l i
è ®
å ¯
Ġ m
q u
å º
text bf
ti t
Ġ is
ä¸ Ń
a t
tex tit
ä ¹
mb da
m p
c t
s e
} }
v er
su m
å ¼
Ġ i
h e
è ¯
l o
ä¸ º
) =
c e
å į
æ Ģ
æ Ĺ
Ġ\( -
p hi
Ġf or
math bf
ä¸ ª
Ġ -
l y
s t
ç §
å ĩ
o u
ç º
å ¾
p si
ä» ¬
Ġ\ \
Ġ W
g e
la mbda
ti al
te r
i c
æľ ī
Ġc on
, \)
c h
math cal
æķ °
m ma
è ¡
ç ī
æ Ŀ
en t
} _{
i th
ä ¼
+ \
å Į
tion s
Ġ de
é Ģ
ç Ľ
æĪ ĳ
æ ŀ
in t
de l
^{ -
æ ³
Ġp ro
} ^
äº Ĩ
ä» ¥
Ġ A
^{ \
t ri
Ġ x
i t
Ġ ma
Ġ v
p ar
å Ĩ
éĩ ı
p i
è §
) }
å ¸
æĪĳ ä»¬
Ġc o
äº İ
å ½
åĪ Ĩ
n g
çĶ ¨
x i
Ġb e
Ġth at
me ga
Ġw ith
Ġ on
Ġ 0
æ ł
Ġe x
te d
ç İ
å¯ ¹
æ ī
par tial
Ġ S
æ µ
ti c
u r
è¿ Ļ
è Ģ
é Ĺ
in e
_ \
Ġa n
Ġ I
ig ma
t o
en d
ĥ ½
Ġm o
åı ¯
p e
Ġ\ )
ĠW e
do ts
å¹ ´
a b
åŃ Ĳ
ft y
in fty
æĢ §
re s
Ġ h
b eta
å¤ §
}{ \
do t
Ġ C
} =
p er
} ,
d i
m i
Ġ 1
) \)
l on
åº ¦
r m
b e
ãĢ ģ
ga mma
) ,
é Ŀ
s s
th eta
æ Ń
Ġ M
å ·
ĠT he
æ ĭ
ti me
b ig
ä¸ į
p p
s igma
n u
ti l
Ġ F
ng le
Ġw e
a s
Ġ H
æĸ ¹
Ġa re
c i
Ġa l
| \
ç Ĳ
t u
l ine
è ´
Ġ B
Ġ L
l u
æĪ Ĳ
v ar
til de
Ġs u
g in
a tion
ta u
psi lon
f f
r ho
é Ļ
åĬ ¨
del ta
æĹ ¶
) =\
} _
n e
å® ļ
be gin
åĽ ½
o ver
Ġ ,
éĹ ´
äº º
å ±
Ġb y
Ġ me
è ĥ½
el l
è ¾
ä¸ İ
çļĦ æ
Ġ G
b b
d s
c u
ä½ ľ
æ³ ķ
Ġa s
ä¸Ģ ä¸ª
le q
é ĺ
Ġ k
Ġ P
å Ł
è ĩ
ä¸ Ĭ
ç ³
çĽ ¸
) .
Ġ D
åľ °
åĪ °
o mega
c dot
} (\
Ġ æ
Ġs ta
ç³ »
l ar
ç ©
Ġ R
d u
math bb
ha t
åŃ ¦
Ġd is
n t
åħ ¶
^ \
t r
ä½ ĵ
Ġd i
ä» ĸ
Ġ 2
b ar
time s
t y
tri x
c o
é ¢
si on
åĩ º
çĲ Ĩ
å İ
æĿ ¥
ç§ į
ç ®
Ġs e
è¡ Į
) ^
æ Ķ
æ İ
Ġ r
åĲ İ
a d
v i
y s
Ġ N
Ġ X
æ ¯
Ġ E
Ġ y
å¼ ı
ma trix
ç» ĵ
c tion
Ġ ç
Ġco mp
åı ĳ
Ġp o
æĸ ¯
Ġ ra
è ½
r t
var phi
è ¦
Ġ .
Ġn e
çĶ Ł
te m
}^{ \
¦ Ĥ
å ŀ
el ta
çļĦ ç
çī ©
Ġf i
ra y
m en
s q
b le
æ ²
s ta
Ġa t
é ĥ
D elta
å ī
æľ Ģ
åĮ ĸ
çī ¹
a re
it y
è¦ ģ
Ġ z
çĶ µ
è¡ ¨
sq rt
c es
} .
å¤ ļ
éĥ ¨
Ġo r
f or
è¿ ĩ
¨ ¡
åı ĺ
æ °
çº ¿
ä ¾
ro m
åŀ ĭ
\ ,
æ į
n i
Ġw hi
Ġo b
^ *
åĲ Į
ç ¨
èĢ Į
^{ (
å ¥
p a
åĬ Ľ
è µ
Ġ ha
çİ °
Ġ\ ,
ç Ł
Ġ çļĦ
n ab
} =\
Ġth is
ho w
nab la
: =
Ġ qu
å ĵ
å¹ ¶
å½ ¢
c a
m in
æµ ĭ
m ent
çĶ ±
åĲ Ī
Ġp a
lo w
å Ģ
Ġ V
} +
Ġ |
é Ľ
æ Į
ra ngle
Ġ K
æŀ ľ
) .\)
æ ´
en er
è °
Ġf rom
ti ve
å¾ Ĺ
å ĳ
æī Ģ
æ Ľ
ff e
} }\
ä¸ ĭ
æ Ĭ
ç ½
éĢ ļ
å ¿
ä ¿
c k
ä½ ¿
è® º
ä¹ ĭ
G a
è¿ Ľ
\ \
ç ±
Ġ ãĢĤ
éĿ ¢
Ġwhi ch
i de
äº Ľ
ra n
ç» Ł
Ġmo del
å ¦Ĥ
O mega
ar ray
re d
æĺ İ
c hi
u n
åı¯ ä»¥
åħ ³
i v
åħ ī
è´ ¨
) )
ç Ĥ
ç ¾
ç ¬
æ ¨¡
æľ ¬
Ga mma
æ ı
} ,\
e psilon
å° Ķ
\ |
Ġ U
P hi
i z
ä¸ »
m al
ä¸ ¤
è ¶
) ^{
ç Ń
o t
ä» £
lo g
ç «
te n
è ¢
o d
B ig
ä¼ ļ
ç ¤
ĠI n
åĪ ¶
ro u
é ¡
è® ¡
Ġ {\
é ķ
æĺ Ł
Ġs how
ç¨ ĭ
¥ ¿
è§ £
è ¥¿
Ġ (\
} -
l dots
b u
å Ŀ
åĬ ł
Ġ O
Ġc an
} .\)
u m
èĩ ª
) (
çĤ ¹
æĪ ĸ
åĽ ł
i r
éĩ į
o p
è¢ «
å® ŀ
Ġ {
s er
ti cal
w ide
su l
åŁ º
u s
le s
ro w
p ro
li m
ĠT h
d er
å¸ ¸
Ġa pp
te s
å° ı
ç® Ĺ
ç» Ħ
ç© º
å¹ ³
t ing
Ġre sul
æĸ ĩ
é «
p ri
éĩ Į
m s
Ġ q
math rm
é« ĺ
æĢ ģ
ä¸ ĸ
qu ad
i l
c on
) +
Ġ j
}) \)
é ģ
åĪ ©
åĢ ¼
ä» İ
ç§ °
å® ¶
å »
ç ł
o s
Ġ le
o g
åħ ¬
åº Ķ
o x
æ Ł
Ġ l
åı Ĭ
i j
n a
åĲ ĳ
over line
ä¹ ī
ou s
Ġs i
en ce
ge q
ä½ į
åĨ ħ
Ġ J
Ġu s
è ĭ
ç± »
are psilon
pri me
v arepsilon
t w
æ ¬
Ġ }
Ġp ar
æŃ ¤
ç¤ º
Ġ Q
[ \
L a
ol u
è ī
Ġp res
å® ĥ
æ¯ Ķ
ç ¡
å° Ĩ
u l
ç ķ
Ġs tr
éĿ ŀ
åī į
a pp
c dots
Ġs pe
ti es
ä¹ Ł
u re
Ġt w
la ngle
o m
å½ ĵ
éķ ¿
d y
r c
åį ķ
Ġ æĪĳä»¬
ç ´
Ġ te
æ Ħ
| ^
ig n
å ģ
u t
å¤ ĸ
æ³ ¢
å¯ ¼
on s
a tions
è ·
ta r
) -
t or
é ļ
ta in
; \
åİ Ł
th er
æĭ ī
æĹ ł
as es
ä» »
æ ¸
Ġf in
i li
Ġt ran
æľ Ł
c ol
é ĥ½
çŃ ī
la tion
äº ļ
Ġs ys
ser v
v el
åħ ĭ
æŃ £
å° Ħ
åĩ ½
æ Ļ
) }{
åħ ĥ
s o
he re
Ġ\( {\
äº Į
\ {
} }{
æį ®
Ġ la
Ġ& =
åı Ĥ
La mbda
ä» ¶
z eta
Ġfi el
ç» ´
Ġ\( (
Ġex p
o times
æľ º
åĮ º
Ġp er
se t
äº §
æĸ °
ar i
Ġs tu
ci rc
Ġe qu
è¯ ¥
e ra
æŀ Ħ
nd er
Ġtw o
Ġc a
Ġn on
é ©
æµ ģ
p matrix
å° ±
ct or
ç ¦
o re
åħ ¥
æķ Ļ
ç¬ ¬
Ġa c
e x
å¸ ĥ
ç ¼
o w
& \
Ġ [
p m
Ġin te
o me
re e
ç Ĭ
è¯ ģ
è ģ
å Ļ
p h
åĮ ħ
æı Ĳ
£ ģ
Ġsys tem
app a
Ħ ¶
Ġf un
å¼ Ģ
th e
ç ²
èĢ ħ
ä½ Ĩ
) }\
Ġc or
éĻ Ĳ
åĩ½ æķ°
g ne
çİ ĩ
ç¾ İ
i tem
1 2
é Ĥ
lu s
ct r
: =\
å» º
k appa
3 3
d ing
ou nd
Ġ )
è İ
s si
ç» ı
æł ¼
& =
i te
åľ º
çº ¦
ta tion
å¾ ·
æ ģ
åĽ ¾
è½ ¬
} _{\
) ,\)
Ġc ha
} +\
è® ¾
mb ox
åĲ į
i cal
ol ds
æ ĥ
Ġ Y
m ic
v es
ra me
ç« ĭ
P si
Ġob serv
åı į
Ġ en
ä½¿ çĶ¨
è¿ ĳ
æł ĩ
ener g
u ct
mp le
ç© ¶
Ġe le
' (
Ġan al
åĻ ¨
ç Ħ¶
Ġs pa
i d
Ġn u
pro d
Ġ Z
ä¸ ī
Ġqu an
ĠTh is
å §
åŃ ĺ
tri bu
ç³» ç»Ł
å ¢
æİ ¥
Ġresul ts
è¿Ļ äºĽ
è§ Ĥ
~ ~
Ġha ve
è¿ Ĳ
Ġal so
or y
n ce
æ ®
Ġ :=
Ġre s
tar row
Ġe v
Ġd a
ç»ĵ æŀľ
an t
u lar
ç Ŀ
åħ ·
åĪ Ļ
é ĵ
p o
éĽ Ĩ
a ch
è Ī
f i
æ ±
æĺ ¾
ma tion
} |
a st
è¿Ľ è¡Į
ra te
çĬ ¶
ç©º éĹ´
åį ³
ç¡ ®
ou r
Ķ ç©¶
Ġh igh
a nd
Ġs p
åĪ Ĺ
ar y
éĢ Ł
Ġ Ġ
e en
}\ ,
æŀ ģ
é© ¬
f ra
)\ ,
æĦ ı
p end
tw een
( -
å¯ Ĩ
la tions
æ¬ ¡
c ases
Ġ mu
è Ĭ
men ts
Ġ lo
Ġ -\
y mb
} ,\)
Ġg ra
energ y
si ty
ymb ol
al l
è¯ ´
çķ Į
Ġ= \
ffe re
èµ ·
u e
or k
æ º
è ĥ
åħ ¨
righ tarrow
å· ¥
t on
Ġbe tween
è Ļ
Ġfiel d
Ġs a
du c
ç¦ »
wide tilde
æĿ ¡
c re
çĽ ´
Ġe ffe
Ġi t
a su
ili ty
y m
olds ymbol
b oldsymbol
g er
è¶ ħ
ç ĥ
è¿ ĺ
li mi
ç ľ
èī ²
al a
éģ ĵ
men sion
Ġapp ro
Ġre g
j e
åı ĸ
s f
Ġ ga
åº ı
Ġma ss
åĪ «
Ġi mp
é ª
col or
æ¨¡ åŀĭ
a k
åŃ Ĺ
éĢļ è¿ĩ
Ġthe se
ä¸Ń çļĦ
Ġa r
Ġa b
é ħ
tu m
} )\
ca p
å¾ ®
c ted
è¯ Ń
å± ķ
. .
Ġg ener
f ic
Ġf a
h line
å ²
al ly
å £
text color
Ġdi ffere
olu tion
Ġn o
Ġv ari
å¼ ķ
d x
ol og
æĭ ¬
é »
Ġ ï¼Į
ç½ Ĺ
é¢ ĺ
Ġme asu
Ġpar tic
Ġ åľ¨
Ġda ta
c tions
Ġin ter
c ri
æĸ¹ æ³ķ
m o
gne tic
ç £ģ
de d
Ġ _{
ç§ ¯
ä¾ ĭ
çĲĨ è®º
è Ħ
è¾ ¾
è° ĥ
å½ ±
Ġ\ {
de s
st r
ä½ ķ
Ġstu dy
Ġ 4
çł Ķç©¶
æ ¶
è§ Ĵ
Ġha s
è į
ve c
Ġp re
Ġc la
g es
æ ¡
e qu
Ġ energy
tu re
æł ·
è Ĥ
é ¦
å¿ ĥ
h en
è®¡ ç®Ĺ
}^{ (
æĪ ĺ
åĩ ł
tri c
Ġ 3
s in
g ra
Ġc ou
Ġp la
mb er
éĤ £
Ġsu per
Ġn ot
limi ts
ar d
ces s
fra k
é ľ
Ġ lar
su b
é £
å¤ į
åı¯ èĥ½
çĿ Ģ
k e
Ġde s
pe ra
o f
f in
ex p
èĩ ´
ym me
) |
å¼ º
åħ ±
m on
Ġ\ ;
æķ Ī
) ,\
ä¼ ł
o th
Ġc al
Ġon e
Ġsta r
} -\
åı Ĺ
{ (
}^ \
Ġquan tum
g h
sta r
é Ķ
d t
ä¸Ģ ç§į
Ġo p
w ed
math frak
cu p
ver t
le d
Ġw a
Ġthe ory
c ha
åĨ ³
Ġob tain
as ed
Ġd y
Ġstr uct
Ġ time
Ġsu b
) }(
Ġfun ction
co s
Ġd en
çĲ ĥ
èģ Ķ
ter s
per i
çº ª
ti v
b ra
ç§ ĳ
å¤ Ħ
æµ ·
ä¸¤ ä¸ª
Ġ ho
c c
Ġpa rame
åŁ Ł
éĹ ®
Ġgener al
åħ °
Ġme th
z e
åıĳ çİ°
ign ed
Ġg rou
Ġsu ch
äº ¤
Ġus ing
æŀ Ĳ
æĮ ĩ
å ¡
Ġc ol
Ġpro per
i on
li c
Ġ low
ä¹ĭ éĹ´
ç Ļ
Ġ\( |
å° ¼
big g
a ted
r y
i es
è £
Ġdis tribu
Ġ åĴĮ
Ġs cal
c ts
èĢ ĥ
Ġpres ent
è Ĳ
Ġre p
wide hat
çİ ¯
Ġre la
Ġal l
) ^{-
d en
) +\
ä¿ ¡
æº Ĳ
wed ge
æĸ¹ ç¨ĭ
åĮħ æĭ¬
ar k
äº ĭ
ç ¥
è¿ ŀ
åı ª
ç´ ł
Ġs c
f a
Ġv al
Ġa d
ä½ İ
Ġne w
S igma
Ġp ha
è¿ °
è¿Ļ ä¸ª
ä»¥ åıĬ
ä¸į åĲĮ
ä¼ ¼
Ġu n
Ġ .\)
èĭ ±
er t
åĵ ģ
igh t
c ent
' '
Ġspa ce
Ġpa per
æ² ³
Ġra di
å¼ Ĥ
åĩ Ĩ
å§ ĭ
Ġ ver
i an
Ġ\ |
æĹ¶ éĹ´
Ġor der
æĢ »
éĥ¨ åĪĨ
^{ -\
Ġd o
è¯ģ æĺİ
a te
Ġtran s
Ġc ur
æ® µ
6 7
æł ¹
èİ ·
ç¾İ åĽ½
c lu
& =\
Ġcon t
Ġi ts
æķ £
line ar
l l
ta g
æĶ ¿
éĢ ī
Ġg ala
æį ¢
Ġs ur
^ +
e t
Ġcor re
Ġ li
Ġnu mber
al igned
ä¸ ļ
Ġo ur
å· ´
å¦Ĥ æŀľ
b matrix
æ »
æĽ ´
æ ·
æľ ¯
p s
Ġw here
ç Ī
_{ -
p on
} }(
æµĭ éĩı
éª Į
è° ±
æĹ ĭ
é Ł
m is
å¯¹ äºİ
éĺ ¿
Ġ ro
åĬ Ł
è Į
Ġth an
å· ²
è¾ ĥ
ff ic
æ° Ķ
tr y
_{ (
åı ·
æ° ´
ç¾ ¤
1 1
å± ŀ
ç»ĵ æŀĦ
åį Ĺ
Ġex peri
åŃĺ åľ¨
}) =
ç ĭ
} ]
Ġfin d
å® Į
Ġu ni
å¤ ©
ä¹ Ī
Ġte mp
æĽ ²
Ġcon si
æķ° æį®
çĽ ®
Ġcomp le
åĨ Ľ
equ iv
åĨ µ
åį ģ
Ġp ol
å± Ĥ
æķ ´
éĺ µ
æ ¼
éļ ı
ä¸» è¦ģ
ä¸ĸ çºª
pera tor
æŁ ¥
x y
çº §
éĩ ĳ
Ġu nder
on g
è¿Ļ ç§į
åĮ Ĺ
si tion
ä¿ Ŀ
b it
åĪĨ æŀĲ
è· ¯
h ar
Ġdy na
Ġdes cri
al s
ç» Ļ
å¸ ¦
b in
åı £
_ +
è§ Ħ
su p
è¾ ¹
p la
Ġo ver
,\ ,
ma n
Ġw ell
Ġsp in
è ±
ma x
Ġex a
Ġ <
æĶ ¾
te ri
Ġsta te
\ }
åħ· æľī
Ġpro ble
é¦ ĸ
åĲ Ħ
c y
iz ation
or t
en ts
ab le
çº¿ æĢ§
ç® Ģ
äº Ĵ
åį Ĭ
éĢ ł
è® ¸
Ġs ome
åħ Ī
l n
Ġ he
}^{ -
â Ģ
æł ¸
Ġmodel s
st ra
Ġ+ \
h y
^{ *
æĺ¾ ç¤º
åĵ į
è® ®
ä¸ Ķ
çº ³
Ġe s
Ġdis cu
Ġinte rac
Ġcal cu
éĹ® é¢ĺ
o se
ne q
Ġma gnetic
l ti
Ġmeasu re
å· ®
Ġthe ir
)\ \
æĪĲ ä¸º
ä¾ Ľ
æĻ ®
çĥ Ń
1 0
è´¨ éĩı
Ġ ter
å®ļ ä¹ī
Ġd er
' s
l ing
Ġtemp era
æ £
Ġf lu
r on
n ge
ä½ľ çĶ¨
ç½ ®
Ġpha se
ħ åĨµ
æ° ĳ
ç ģ
ç² Ĵ
mension al
Ġfi r
å¾ ģ
æĬ Ĭ
Ġbe en
duc ed
Ġpro vi
èĩ ³
ç¬ ¦
is e
\ {\
æīĢ æľī
) ]
é Ĵ
lon g
es s
Ġi f
t ter
Ġ& \
Ġs ing
is tic
è® ¤
ffic i
Ġfir st
å¾ Ī
ou t
æ² »
bin om
op lus
Ġlar ge
å® ī
i e
Ġspe ctr
Ġdiffere nt
äº§ çĶŁ
i ve
åı ¤
éľ Ģ
åıĤ æķ°
åħ¶ ä»ĸ
Ġb oth
Ġca se
åĽ Ľ
Ġdiscu ss
åĳ ĺ
ra tion
c le
ge bra
s is
éĺ ¶
mi d
,\ \
é¢ Ĩ
c tive
åį ¡
æī ©
ç Ĺ
æĶ ¹
Ġproper ties
é¡ ¹
æ Ĵ
çĶ¨ äºİ
di tion
çİ ĭ
) ^{\
Ġt y
Ġg iv
d is
/ \
Ġden sity
æ¯ ı
æ¸ ©
b ility
Ġo ut
T h
Ġb ound
ï¼ Ľ
in s
Ġsi mu
Ġde pend
) -\
| _{
r al
} [
Ġ |\
Ġmeth od
çĶ »
è¿Ĳ åĬ¨
è± ¡
P i
èĥ½ éĩı
æĹ ¥
o v
ti ga
ç» Ń
t al
Ġde te
å¯¹ ç§°
ç® ¡
ç¥ ŀ
çŁ ¥
åĪĨ å¸ĥ
çļĦ ä¸Ģ
æ± Ĥ
q quad
ç§ »
åħ ¸
Ġstruct ure
} }{\
çŁ ©
ves tiga
v ed
s ing
f e
Ġ ta
Ġsystem s
) }{\
math sf
æ¼ Ķ
æ² ¡
Ġde ter
Ġo ther
éŁ ³
2 5
Ġg en
) _
Ġs t
u nder
er s
ç± ³
å¢ ŀ
Ġpro cess
é¢ Ħ
V ert
å½± åĵį
iz ed
å° ĳ
ten tial
e V
for all
ĠI t
ç» Ĩ
Ġu se
qu en
Ġsta tes
ow n
Ġus ed
çĬ¶ æĢģ
Ġobserv ed
å¤ ª
l d
ä¸ ľ
éĩı åŃĲ
mis sion
æı ı
Ġmu lti
çĶ± äºİ
æĮ ģ
] \
Ġin vestiga
}{ (
. \
å ĥ
] =
is h
Ġon ly
Ġf e
åħ¶ ä¸Ń
åĽ ´
åħ³ ç³»
a ck
Ġanal ys
< \
Ġcou p
Ġ 6
åĨ Ļ
Ġanal y
Ġele ctr
åı Į
Ġdistribu tion
y n
æ¡ Ī
u res
åĲ «
Ġin to
å· ŀ
ng th
- (
Ġ }\
åİ ĭ
Ġb ased
è® °
Ġs ol
Ġ æĺ¯
è® ¨
æ´ ²
è ħ
Ġ 5
Ġse t
Ġs mal
Ġu p
åĽł æŃ¤
ol d
æģ Ĵ
i o
Ġc lo
æĿ ĥ
åģ ĩ
Ġobtain ed
ĠF or
çĶµ åŃĲ
éĢŁ åº¦
Ġlo cal
\| _{
si c
æĮ ¯
åĽ ŀ
Ġcomp u
Ġcha rac
å ĭ
u tr
Ġpo ssi
åĳ ¨
o ci
è§Ĥ æµĭ
Ġ 8
Ġh y
da g
Ġw hen
Ġappro ach
Ġb ut
å ĸ
Ġ\( [
èĻ ĳ
è¡¨ æĺİ
ro p
æĭ Ł
Ġf ound
Ġ ä¸Ń
åĳ ½
Ġtempera ture
Ġp ho
1 6
Ġmo re
Ġstr ong
åĪ Ŀ
Ġd x
la ted
å¯Ĩ åº¦
ti s
il l
é¢ ĳ
èĮ ĥ
ä¸Ĭ çļĦ
Ġes ti
éħ į
Ġpo tential
¨ Ģ
ment al
è Ĵ
æĿ¡ ä»¶
åĥ ı
v ing
Ġs ymme
èĬ Ĥ
g or
å½¢ å¼ı
ä½ľ ä¸º
æĶ ¶
Th eta
è¶ ³
éĩį è¦ģ
) _{
å® ¹
= (
Ġproble m
æ´ »
Ġs our
Ġfor m
! \
' _
at ter
( {\
å°± æĺ¯
tiv ity
å± ±
ä¼ ¦
è¡¨ ç¤º
olog ical
me d
è ¨Ģ
ä» ¤
Ġc lus
an g
) :=
Ġin clu
Ġthe ore
er ical
is m
è¿ĩ ç¨ĭ
rou nd
é¡ ¿
åī §
Ġthe re
}\ \
éĻ ¤
res pon
te nt
Ġex is
Ġs te
Ġ _
å¥ ¥
for mation
. ,
æŁ Ĳ
a u
Ġal gebra
mic s
Ġa ss
Ġ ,\)
å ł
æ²¡ æľī
æī ĭ
Ġanalys is
= -
er mi
å¸ Ĥ
g re
å®ŀ éªĮ
n el
å² Ľ
æ³ ¨
åĿ ĩ
si m
éĤ£ ä¹Ī
çŁ© éĺµ
éĻ ħ
vel y
æıĲ ä¾Ľ
å®ĥ ä»¬
Ġcon str
Ġg e
sub set
æİ Ĵ
è¿Ļ ä¸Ģ
Ġfin ite
äº ¦
èĢĥ èĻĳ
Ġma y
é» ĳ
æĺ ĵ
å½¢ æĪĲ
de t
Ġresul t
Ġp hy
fa ce
åŁ İ
;\ ;\
çŁ ³
ç ¢
è§ ģ
w a
æŃ ¥
Ġcla ssi
èİ· å¾Ĺ
g en
Ġpartic ular
èĪ ¬
1 3
ĠO ur
mi cal
åį °
Ġdi re
Ġ "
å ¨
å£ «
Ġ 7
xi es
ç½ ĳ
| ^{
ä¹ Ĳ
Ġ :
çī© çĲĨ
an ce
b i
p le
+ (
Ġk n
Ġan y
å¹ ¿
æĶ ¯
z ed
ç²Ĵ åŃĲ
) :=\
è£ ħ
Ġs o
å¸ Į
å¾ ĭ
ç´ ¢
de pend
Ġ >
éĩ Ĭ
es e
Ġequ ation
è®¨ è®º
Ġspe ct
è º
Ġcor respon
åħī è°±
Ġ 9
Ġne utr
çĭ ¬
å¾Ĺ åĪ°
åľ Ĩ
çĽ¸ åħ³
è¾ ĵ
\ ,\
) /
Ġ er
Ġre al
ç Į
äº ī
or mal
Ġstu di
é ²
for m
Ġgen era
Ġgrou p
å° º
Ġesti ma
^ -
t ro
çľ ĭ
fi ed
æĸ Ń
éľĢ è¦ģ
u es
çº ¢
Ġstar s
Ġd u
Ġre cent
s or
ç¡® å®ļ
)= (
ä¸ĸ çķĮ
è· Ŀ
i x
rou gh
Ġ ä»¬
Ġsing le
ä¼ Ĭ
ä¸Ģ äºĽ
æ ĳ
Ġgala xies
æŀ Ĺ
å¼ ł
gor ith
æıı è¿°
Ġw as
dag ger
Ġ linear
mi ze
æĹ ı
lim it
Ġcla ss
éĻ ¢
åĪ Ľ
Ġal low
æ ¢
è§£ åĨ³
] \)
Ġwa ve
å¾ Ħ
éĢ Ĥ
Ġpro du
ä¾ Ŀ
Ġconsi der
Ġgiv en
_ *
ti vely
d frac
èĭ± åĽ½
Ġ ^{
Ġrep res
æĺŁ ç³»
di m
èº «
æĥ ³
Ġe mission
ä¸» ä¹ī
g ree
le r
åĪ ĩ
æĿ Ĥ
æł¹ æį®
t ra
Ġthe n
c ed
Ġspe ci
åĨ į
s ed
Ġ( -
è®¸ å¤ļ
tical ly
} }\)
ç² ¾
Ġelectr on
æĹĭ è½¬
ver se
en u
ab ility
æİ ¨
Ġfun ctions
i a
w er
Ġbe ha
at ure
Ġter ms
c ity
in ts
åĵ Ī
Ġ how
ro ss
Ġpo int
Ġcon sis
èĭ ¥
s on
åĩ ı
è¥¿ åħĥ
é£ İ
v al
åľ £
Ġ limit
tw ork
Ġf re
Ġshow n
Ġpro p
æ ļ
con d
t ur
Ġ ä¸º
Ġparame ters
å¼Ģ å§ĭ
éĺ Ł
ä¼ °
åı ¸
çł ģ
å¿ ħ
Ġal gorith
p tion
Ġreg i
_ -
åħĥ ç´ł
Ġev olution
Ġappro xi
Ġder iv
Ġm in
ä¼ ¯
å¥ ½
v en
æ ¹
Ġ ä¸ª
ta nce
Ġco s
æ ¤
l lar
} _\
ç ĵ
os ed
olu tions
å¤ «
æ ĵ
çĽ¸ å¯¹
e ver
ä¹ĭéĹ´ çļĦ
éĽ ¶
åı ²
åı ¦
è§ Ĩ
å¤ ±
vel op
Ġequ ations
per p
æĦ Ł
åĽ º
pla y
Ġw ork
re nt
me rate
Ġc har
çī¹ æĢ§
Ġs ign
z ation
åıĺ åĮĸ
}} ,
Ġsi mple
big r
vi ous
Ġco m
a si
ffici ent
in u
Ġele ct
big l
æľ ª
å¯ Ł
enu merate
æĸ Ļ
çĽ¸ äºĴ
a c
2 2
}) ,
è¯ ķ
ç ĸ
Ġ æľī
la ck
çŁ ¢
Ġsmal l
' ,
Ġ\\ &
æİ ¢
Ġme an
Ġver y
mp li
æ¬ §
Ġth ree
åİŁ åŃĲ
ç¬¬ ä¸Ģ
éĺ ħ
red ic
å ķ
a g
depend ent
= -\
min us
olog y
Ġpro b
Ġdeter min
Ġc ri
çĻ ½
ä» ĭ
Ġin cre
Ġw ill
çļĦ æĺ¯
Ġde ca
me s
æ´ Ľ
åĬ ¿
C D
Ġtran sition
Ġ ä»¥
ite mize
c ou
Ġapp li
Ġs h
}) =\
Ġme cha
Ġbeha vi
Ġgra ph
I I
: \
ti ce
å® ĩ
åº ľ
,\ ,\
Ġi den
ti o
Ġo perator
å® Ļ
Ġ\\ \
Ġcomple x
è¯ º
çī ĩ
æĸĩ ä»¶
ä»ĸ çļĦ
ĠH e
åĽ½ å®¶
Ġne twork
Ġeffe ct
Ġmo st
ä»» ä½ķ
en e
ig ni
en ted
Ġ\(\ {
] ,
åĭ Ĵ
ç¼ ĸ
1 4
æ´ ¾
èį ·
p re
æĹ ©
Ġobserv ations
Ġ ä¸Ģ
Ġ ve
Ġb i
i ant
åĽł ä¸º
ĠR e
åĬŁ èĥ½
ar s
ä»£ æķ°
éĩ ĩ
set minus
um erical
éĢļ å¸¸
) }\)
}} .
)} ,
Ġass oci
}) .
ĠTh ese
Ġd ue
è¿ ľ
Ġfiel ds
Ġne ar
æ ¦Ĥ
le ss
Ġin tro
sta nt
æĽ ¾
iz e
co mp
n ot
æĽ ¼
in f
er o
Ġnu cle
g ges
' )
åİ »
éĩı çļĦ
Ġpro ve
Ġra nge
åĲİ æĿ¥
å¹ ²
æĿ Ł
åľ° åĮº
Ġte ch
Ġp redic
ctor s
Ġeffe cts
mb in
igni fic
åĬ¨ æĢģ
åģ ļ
ç®Ģ åįķ
Ġde fin
la s
Ġde velop
a m
ç§° ä¸º
n s
y le
è ı
ä½ĵ çļĦ
ä¿ ®
ç±» åŀĭ
r u
Ġla t
Ġcoup ling
Ġs olutions
di tions
2 0
v ity
Ġdyna mics
Ġex ten
je ct
Ġpossi ble
co p
Ġpo wer
ç ı
) )\
Ġe ach
æ³ķ åĽ½
Ġsu gges
Ġcon stra
æĥ ħåĨµ
çĽ ĺ
ro s
å¡ ŀ
qu e
å¤ ´
sta ck
å Ķ
or s
åĽ ¢
åľ Ł
Ġfor mu
} |\
åĿ Ĳ
mi lar
a ct
f y
ç¬¬ äºĮ
å¤§ çļĦ
æłĩ åĩĨ
nd ard
text rm
æĸ¹ åĲĳ
Ġwith in
t frac
å¿ µ
Ġga s
Ġma tter
si cal
Ġdi mension
å± ħ
Ġsur face
ä»» æĦı
çļĦæ ĥ
ĠA s
å¨ ģ
çĹ ħ
åİ Ĩ
f er
Ġge ome
å¤ Ł
Ġs ignific
éĻĲ åĪ¶
Ġcomp are
åĩº çİ°
Ġra te
Ġg ive
åĩ »
åĪĨ åŃĲ
è´ Ŀ
Ġt ra
Ġcon ditions
æģĴ æĺŁ
e w
æ» ¡
7 5
Ġ äºĨ
{ -
åıĤ éĺħ
èĲ ¨
\ ;
n y
Ġpre vious
å¯¼ èĩ´
( (
å¥ ³
ä¸Ģ èĪ¬
Ġ ~
le cu
æĺ¯ ä¸Ģä¸ª
åģĩ è®¾
ä» ħ
Ġty pe
æģ ¯
Ġspectr um
Ġ æķ°
å£ °
Ġn umerical
ä¹ ¦
åº ķ
d ic
åĿ Ĺ
^* (
Ġres pe
tation al
³ å®ļ
Ġf u
Ġm ic
è®¤ ä¸º
ä¾ĭ å¦Ĥ
Ġsa me
hi ft
qu i
2 4
\ }.
Ġth rough
è½ ¨
Ġparame ter
èĩª çĶ±
å®ĩ å®Ļ
åĲ ¸
çī¹ åĪ«
âĢ ľ
Ġthe rm
c or
R e
âĢ Ŀ
åį ł
ç ª
è°ĥ æŁ¥
1 5
t rac
Ġfor mation
la te
tur b
åĩº äºĨ
èĭ ı
Ġp ri
tion al
el d
o perator
æł ĳ
åķ Ĩ
2 3
' \
Ġv el
6 6
åıĳ çĶŁ
éĹ ¨
w ar
, -
ç¼ ©
f lo
åŁº æľ¬
ver s
å¡ Ķ
Ġcomp on
ta n
åĬĽ åŃ¦
åĨ ²
Ġs olution
under line
äº Ķ
)} =
åĬ ¡
ro ma
åı ¶
i k
lu e
åĵ ¥
p u
Ġcur rent
b rac
n ess
èĬ ±
åį ı
ç« ¯
Ġcon f
ä¸Ń å¿ĥ
æĵ į
Ġl ight
é º
p t
Ġ ,\
çī© è´¨
ta tions
ä» ·
Ġop tical
ta nt
n ing
¬ ¬
æľĢ åĲİ
na me
çľ Ł
dis play
Ġse cond
Ġa to
S S
ct ing
od y
åĬ ©
ct u
æİ §
å»º ç«ĭ
ç» ĩ
éĺ¶ æ®µ
ç»Ħ æĪĲ
st yle
æĻ ¯
Ġtech ni
flo or
de red
å® Ĺ
1 7
è¿ŀ ç»Ń
éĻ Ħ
çī Ļ
Ġab out
Ġmecha n
nd om
éĵ ģ
) )=
pa ce
Ġsu pp
åģ ı
è¿Ļ éĩĮ
çī Ī
Ġde mon
display style
al ity
si ve
operator name
Ġ ä¸İ
é£ Ł
Ġs en
ä½ľ åĵģ
k s
æľ į
Ġprovi de
}) ^{
å·¥ ä½ľ
Ġreg ion
èī º
åº¦ çļĦ
n er
æīĢ ä»¥
åĮº åŁŁ
Ġkn own
åħ¬ éĩĮ
ä»ĸ ä»¬
Ġb lack
åŁ ĥ
Ġinterac tion
å¥ ĩ
) (\
s p
Ġpa ir
el y
a se
Ġsignific ant
el f
å¾ Ģ
it u
Ġle vel
èµ ĸ
Ġpla ne
æ¨¡ æĭŁ
Ġval ues
}} =
è¯ Ĺ
ç» ľ
æľī éĻĲ
Ġto p
ri c
Ġd t
åºĶ çĶ¨
to p
åħ ļ
{ |
æĸ° çļĦ
Ġpol ar
ĠX ray
å®Į åħ¨
æī ĺ
æĬ ¥
at ing
Ġ ^
Ġdescri b
Ġmin i
åĿĲ æłĩ
\ }\)
æľ Ī
Ġma in
çĪ ±
åĪ° çļĦ
Ġmeasure ments
éĿŀ å¸¸
å¢ ĥ
1 8
èĦ ī
Ġval ue
| =
Ġcont inu
Ġf ol
å¸ Ŀ
ve e
åħ³ äºİ
æ ½
Ġmo du
on e
Ġ\( (\
Ġwe ak
u p
ä¹ İ
æŃ »
es t
Ġ å¹¶
Ġwe re
du ce
è§£ éĩĬ
er tain
big cup
Ġfre quen
è¡¨ éĿ¢
éĵ ¶
ur ther
æĺ ł
ni f
è½ ´
èĮĥ åĽ´
Ġimp or
b ri
atter ing
ĠL a
Ġassoci ated
si tive
Ġ long
lu min
Ġcon stant
Ġl in
fic ation
ä¸Ģ èĩ´
Ġinvestiga te
_{ +
Ġma xi
Ġsimu lations
æĬ Ģ
æ¶ Ī
0 0
st rate
Ġclassi cal
æĢ§ çļĦ
ç¤ ¾
) }_{
åħ¬ åı¸
çī¹ å¾ģ
a tive
)} .
Ġsuper con
åħ ħ
è¾ Ĳ
u ge
o city
ç®Ĺ æ³ķ
si an
k ing
æ¨¡ å¼ı
Ġra ndom
o mi
ca tions
mu m
æľ ¨
Ġ $
tic s
n nel
Ġmo lecu
Ġthe y
éĻ į
ci l
b er
Ġ äºİ
Ġ line
çĽ´ æİ¥
Ġlat tice
}) ^
Ġs ho
çļĦ ç»ĵæŀľ
ou gh
ç ¿
æĸ¹ éĿ¢
}^{ *
è¡Į ä¸º
) !
ur al
Ġin i
' }
ar ch
c tic
W e
Ġiden ti
åĿ ¦
ĠC o
x x
e le
Ġin formation
Ġi ma
Ġf rame
Ġexperi mental
å± Ģ
^{ (\
è¡ °
è§Ĥ å¯Ł
Ġcorrespon ding
sion s
a y
) &=
e v
åı Ī
p pe
éĶ ®
Ġclus ter
æ· ·
in ci
ver al
éĵ ¾
st o
Ġc ross
b ox
Ġco mbin
ç§¯ åĪĨ
éĥ½ æĺ¯
Ġf la
b y
äºº åı£
åıĳ å±ķ
Ġspectr al
è Ĩ
ros cop
Ġscal e
Ġf low
Ġad dition
¿ Ģ
Ġstudi ed
Ġd ark
Ġeffe ctive
}{ |
æ¯ı ä¸ª
è·Ŀ ç¦»
Ġb in
;\ ;
Ġe m
var iant
n al
Ġ éĩı
ä» į
k i
te in
çĻ ¾
æľĢ å¤§
Ġf rac
i f
Ġb ack
Ġsi milar
é² ģ
Ġ çĶ¨
A s
Ġma ny
Ġalgorith m
è´ Ł
åĩł ä½ķ
çĵ ¦
o ds
è¯ ·
}} _{
Ġper for
b l
æľ¬ æĸĩ
Ġ å¯¹
}^{ +
è¶ Ĭ
m ine
åĪ© çĶ¨
åĲĳ éĩı
ç» §
1 9
æĸ¹ å¼ı
n tial
Ġprop osed
åº ĵ
Ġse veral
æŃ ¢
{ {\
å ³
Ġg o
h bar
Ġb u
æĿ Ĳ
Ġsymme try
Ġmo ment
æµ İ
æĸ¹ æ¡Ī
ig in
å® ½
Ġcri tical
Ġcon ne
å¥ ¹
é¡ º
li ke
æ´ ŀ
çķ ¥
Ġconstr u
d z
è¡ ¡
F e
}\ |
Ġcharac ter
}\ ,\
Ġres on
é¡ ¶
å¸ Ī
ç¨ ³å®ļ
le t
u se
Ġexp la
Ġin dic
çŁ Ń
æ¸© åº¦
sic s
Ġ åŃĲ
åıĺ éĩı
Ġma trix
åıĺ æį¢
mp les
Ġcon tribu
Ġquan ti
ä¹ ĺ
å¿ «
ä¸į æĺ¯
æĽ² çº¿
é¢Ħ æµĭ
Ġpres ented
io ta
å® ĺ
ä»£ è¡¨
Ġfa ctor
éĽ ·
é ¥
æĥ ħ
å¤§ åŃ¦
çļ ®
å ¦
ä¸¤ ç§į
Ġre qui
Ġsc attering
] }
Ġo s
æ¯Ķ è¾ĥ
Ġrepres en
Ġop ti
Ġ è¿Ļ
Ġflu x
Ġbehavi or
æī °
ç» Ŀ
or d
çŁ¢ éĩı
}} (\
Ġc ent
on al
Ġste llar
æ· ±
g ed
( -\
åŁº äºİ
Ġa u
æĭ ©
d ence
Ġev en
2 1
po se
å¹³ åĿĩ
ĠG a
in o
Ġwhi le
Ġsa mple
ä¼ ĺ
Ġas su
çĽ¸ åĲĮ
éķ ľ
å¹´ ä»£
Ġf ul
ing s
ten ce
å¤į æĿĤ
è¥¿åħĥ åīį
Ġper i
Ġhigh er
æ¶ ²
èµ Ħ
} })
æł ¡
rop y
æľī æķĪ
b lue
è¯ Ĩ
ab les
)} _
è¯Ń è¨Ģ
Ġ times
k er
Ġpartic le
æŃ Į
v a
is i
Ġex pe
Ġfol low
col on
}^ *
t t
l li
Ġth ose
Ġper turb
Ġin f
Ġsta tis
Ġgala xy
æĸ ½
å¼ ±
Ġ æĢ§
e p
Ġor igin
j k
Ġvel ocity
ç»ĵ åĲĪ
} /
Ġga uge
å Ħ
gre en
el low
ä¹ĭ ä¸Ģ
ma in
å½ Ĵ
ç» Ī
] .
å½ ķ
èİ ±
s es
èģ ļ
Ġæ ¨¡
l in
è¾Ĳ å°Ħ
å¼ ¹
éļı æľº
çļĦæĥ ħåĨµ
c he
ve ra
Ġspect ra
éĺ ³
en tial
Ġma nif
} }^{
g n
Ġsta ndard
Ġw ho
éĩĳ å±ŀ
çĽ¸äºĴ ä½ľçĶ¨
}\ }\)
ä½į ç½®
æ¤ į
å·² ç»ı
çı Ń
ĠH a
å¢ŀ åĬł
çļĦ å¤§
æķĪ åºĶ
æī ¾
Ġ [\
y ellow
\ |\
i i
Ġconsis tent
bl ish
Ġh al
ä¿ Ħ
_{ [
èĩª çĦ¶
Ġsour ces
åħ¬ å¼ı
Ġs ize
æī į
å°Ħ çº¿
æĵį ä½ľ
i m
éĿ ©
æķ° åŃĹ
å¹³ éĿ¢
Ġdire ct
f ul
fin ite
Ġdeca y
Ġos cil
åĳ Ĭ
Ġphy sical
Ġpho to
Ġma gne
å®ļ çļĦ
Ġsour ce
Ġini tial
g round
g s
Ġpartic les
Ġ ãĢģ
Ġm ix
Ġdiscuss ed
}= -
å§ Ĩ
åı ³
y mp
S O
ä¾ ¿
Ġt ri
lic it
brac e
tic le
åŃ¦ å®¶
Ġdi ff
di mensional
è£ Ĥ
Ġ åº¦
æ³ Ľ
Ġve ctor
ä¾Ŀ èµĸ
Ġderiv ed
ç³» æķ°
Ġsc he
èĥ Į
éĢī æĭ©
ç ħ
w ork
ç ĳ
^{ +
I R
è¿ŀ æİ¥
. )
çĭ¬ ç«ĭ
Ġcha nnel
æĻ ¶
v ol
Ġb and
è ĳ
Ġ lumin
æ ¿Ģ
Ġ åĪĨ
Ġle ad
ä½į äºİ
Ġa ppe
åĲĮ æĹ¶
Ġs er
æľĢ è¿ĳ
± »
m og
ta ble
Ġc ar
)= -
Ġperi od
è¯ ¯
ä¼° è®¡
åħ ¹
}} }
) })
ç£ģ åľº
~~ ~~
ç½Ĺ é©¬
ang le
Ġimpor tant
~ \
Ġ _{\
or ph
é ¸
Ġt ur
æī© å±ķ
å¤Ħ çĲĨ
å° ģ
åĳ ³
m n
or der
å Ĥ
æĢ§ è´¨
å· ¦
re st
ĠM o
\ }\
æ³¨ æĦı
Ġqu ark
} &
Ġcharac teri
Ġmo de
c ho
å» ¶
Ġcont ro
çĤ¹ çļĦ
è®¾ è®¡
Ġa mpli
Ġt r
Ġ log
Ġf ree
Ġnon linear
æī ĵ
Ġi on
çļĦæ Ķ
a tes
f ore
æĶ¿ åºľ
s la
çļĦæ ¨¡
ç¡ Ģ
Ġinterac tions
d ro
è½¨ éģĵ
æİ§ åĪ¶
åħ ´
ä¸ ¥
éĹ Ń
åĢ Ļ
è´ ¹
èĻ ½
qu ence
Ġde ta
\ },
( |
æľ Ľ
åĩº çļĦ
is ion
ä¿¡ æģ¯
at ures
æĸ¹ç¨ĭ å¼ı
ç±» ä¼¼
a x
æĪĲ çļĦ
Ġpres ence
k y
Ġcos m
åĲ ¦
t in
Ġ å¤§
åĲĦ ç§į
ä» Ģ
8 3
è ŀ
ä¸ ´
æŀ ¶
ĠH ow
åºı åĪĹ
æľī åħ³
ä¸º äºĨ
Ġdepend ence
n k
Ġz ero
Ġmeth ods
èĲ ½
è¯ Ħ
Ġp r
Ġdyna mical
Ġme tal
Ġexa ct
åŁº ç¡Ģ
å¤ ĩ
ç»Ħ åĲĪ
A B
ĠU sing
Ń ī
æ£ ®
åĮħ åĲ«
yn omi
Ġp e
åįķ ä½į
Ġcomple te
ä» ª
ĠA n
äºĨ ä¸Ģä¸ª
) }}
å¼ķ åĬĽ
Ġse pa
ig u
å¯ Į
å¯¹ åºĶ
åĳ¨ æľŁ
al le
ymp to
Ġe ar
Ġflu ctu
Ġbound ary
åĨ ·
Ġho le
S T
Ġdis k
ä¸ ĩ
Ġlow er
f ter
Ġm on
ou n
Ġp ul
è® ©
Ġb el
Ġc ertain
æĪĺ äºī
åĬ¨ çī©
Ġexp res
éĢ ı
Ġ ten
var theta
a ds
ĠA l
ta ngle
çĮ ®
è¡ Ģ
èģ Į
ä¹Ł æĺ¯
Ġle ngth
\ }.\)
T he
} ;
ĠS u
nd ing
b o
çļĦç ¬¬
Ġ ent
Ġf o
roma gnetic
è¿Ļ æł·
ç»ı æµİ
Ġdi a
æĬ ¤
re nce
åĲ ī
de g
æ½ ľ
ä¹ ł
Ġ\ }
b ack
Ġp i
ç»Ħ ç»ĩ
èĥ½ å¤Ł
æ£ Ģ
Ġdescri be
æŃ¤ å¤ĸ
g u
33 3
Ġrela ted
å¤§ åĪ©
è Ĺ
su re
w e
æ¸ ¸
\, .\)
æ»¡ è¶³
åĪĨ åĪ«
ur ing
e mp
\\ \
åĮĸ åŃ¦
ä¸įåĲĮ çļĦ
o men
è¡¨ è¾¾
éĩĩ çĶ¨
Ġcon dition
æĹ¶ æľŁ
Ġexperi ments
å· ¨
Ġra tio
}} =\
æ» ĳ
Ġcon tain
Ġa gree
è¯ į
Ġæ İ
Ġder ive
èµ Ľ
| _
è ĸ
çĶµ èį·
é¡ »
Ġst re
ymme tric
sla nt
a v
éĿ Ļ
æķ° éĩı
Ġe d
Ġt re
o int
}= (
æĭ ¿
Ġer r
_{ -\
åĪ »
Ġre lation
Ġcorre lation
Ġ\(\ |
æĬĢ æľ¯
Ġf our
åı °
Ġac cu
åĦ ¿
Ġinclu ding
æĢ Ŀ
Ġexp lo
ĠHow ever
3 4
Ġ }{
çŃ ĳ
Ġpar t
qu are
èĪ ŀ
Ġco e
äºİ å¹´
\| _
sub stack
on ic
èĴ Ļ
çļĦ å½±åĵį
éº ¦
Ġexis tence
ä» Ĭ
æĬ Ĺ
Ġd s
app ro
åľ¨ å¹´
å±ķ ç¤º
æľŁ éĹ´
Ġtheore tical
æĳ ©
Ġprocess es
ly ing
o ve
h box
å¦Ĥ ä½ķ
Big r
æ Ĥ
Ġme di
Ġexp on
{ {
Ġac cou
n ormal
æĪĳä»¬ çļĦ
Ġfrequen cy
v matrix
åĨ ľ
å° ½
ç¦» åŃĲ
äºº çļĦ
gra m
Ġsupercon du
x ed
Ġexp licit
Ġdi mensional
( [
Ġcol l
Ġcontro l
Ġi de
)} =\
ä½ Ľ
Ġn at
Ġframe work
éĻ Ĩ
w ith
åıª æľī
Ġallow s
^* \
æķ ħ
)= -\
æĿ ¿
çĽ ĸ
Ġe mp
æĺł å°Ħ
\| ^
Ġgrou ps
Ġpol ynomi
ry st
Ġg row
g ing
Ġconsi dered
Ġgra vi
Ġcompare d
Ġob je
Ġex ci
ç½ĳ ç»ľ
Ġp hen
}( -
åį İ
ta tive
cc ur
ä¸ī ä¸ª
Ġvari ous
Ġe t
Ġn an
ssi ve
Ġan o
çļĦæ İ
è Ľ
æĿ¥ è¯´
Ġor bit
åĪ ¤
ds hift
c ur
Ġimp ro
Ġ ä¸Ģä¸ª
çļĦç Ł
è¾¹ çķĮ
la tor
æĴ ŀ
( )
Ġapproxi mation
2 7
Ġas ympto
çļĦ ä¸Ģä¸ª
æĭ ħ
çº ½
ma tic
åł ¡
Ġc ir
ton ian
éĽĨ åĲĪ
å®ļ çĲĨ
Ġcharacter istic
du ction
ï¼ ļ
Ġshow s
¯ Ķ
çİ° åľ¨
Ġmass es
Ġc ases
}( {\
è¿Ľè¡Į äºĨ
æľ Ĺ
Ġtran si
us sian
Ġprob ability
ç¤¾ ä¼ļ
Ġcou ld
éĶ Ļ
in d
åıį åºĶ
æ² ¿
Ġradi o
Ġ éĹ´
å¹³ è¡¡
å¤ª éĺ³
ra ry
å®ŀ éĻħ
re ak
iv al
s pace
) |^
æľ Ŀ
çļĦæ ¦Ĥ
ty pe
ig en
B matrix
Ġmeasu red
Ġin dependent
ç»Ł æ²»
Ġconstr uct
si ble
çł ´
åıĹ åĪ°
å¹ ħ
é¡º åºı
co m
Ġcalcu lations
6 4
Ġampli tu
çĶŁ äº§
æĮ ī
è½ »
æ¯ į
è½ ¦
mi l
Ġexp an
Ġscal ar
, ..
ä½ ı
ç´ §
æī ¿
Ġappli ed
or i
Ġlumin o
é¢ĳ çİĩ
æ´ ĭ
man n
Ġchar ge
Ġphen omen
ç¨ĭ åºı
Ġclus ters
åĬ¨ çļĦ
Ġexperi ment
é£ ŀ
}) (
çī Ľ
ili bri
ĠHe re
çĦ¶ åĲİ
Ġspa tial
Big l
} '
åĮĸ çļĦ
tri angle
Ġg lo
æ¬§ æ´²
Ġ gamma
Ġo ccur
Ġpo pu
ç« ł
å®ŀ çİ°
åħ Ń
Ġpro pose
Ġs ha
çģ «
æıĲä¾Ľ äºĨ
åŁİ å¸Ĥ
str u
æĴ Ń
ä½ Ļ
Ġ\\ &=
Ġn ormal
èĥ ŀ
Ġmoment um
ä¸ ¾
Ġs to
æī §
lic ation
éĤ ¦
æİ¢ æµĭ
çĽ¸ å½ĵ
bi ts
9 9
k es
d r
Ġstruct ures
3 2
Ġar bit
ma p
æĪĳä»¬ åıĳçİ°
ĠT o
Ġpo ints
Ġphy sics
| |
Ġ\(\ {\
Ġto tal
Ġapproxi ma
V matrix
G N
æ² Ļ
Ġre lations
èµ «
èīº æľ¯
Ġwa y
w n
y er
éħ ¸
åħī åŃ¦
Ġfa mi
ä½¿ å¾Ĺ
Ġdefin ed
} [\
) ^\
è¿ĳ ä¼¼
r ing
ä¸ ĵ
çĿ £
Ġ å¹´
é ¾
æĪĲ ç«ĭ
éģ į
Ġtrans p
èħ Ĭ
Ġex hi
Ġhy per
Ġs elf
Ġin de
}\ ;
çĶŁ çī©
Ġexpla in
Ġc y
) |\
Ġdis c
åĮĹ éĥ¨
) :
èį ī
æŁĲ äºĽ
Ġback ground
+ |
ol ar
æĪĸ èĢħ
ç¦ ı
Ġe vi
Ġ ti
çļĦ åĪĨ
è¦ģ æ±Ĥ
åįĹ éĥ¨
Ġdemon strate
ĠF e
} ~
èĤ ²
ĠC on
å² ©
Ġ\ ,\
Ġv ia
Ġequ ival
çİ¯ å¢ĥ
å¾· åĽ½
ç» į
}) .\)
c tively
èĻ½ çĦ¶
8 8
è½ ¯
Ġcent ral
ä»£ çłģ
ç Ĩ
sta blish
Ġdistribu tions
Ġoperator s
Ġtherm al
æļ Ĺ
æ¸ ħ
æ¶ ī
pi cal
å¢ ¨
Ġen tangle
phi c
éļ ¾
o b
çļĦæ °
' =
}= -\
u b
åį° åº¦
å·® å¼Ĥ
Ġla w
i mensional
Ġ( )
ĠL et
æľĢ å°ı
çħ §
åĬĽ çļĦ
å® ¤
Ġinte g
éĻĦ è¿ĳ
Ġ ä¸į
' _{
al u
çĽ Ł
) &=\
} :
Ġ hi
i ties
Ġa vera
ä¼ Ĺ
å®Ĺ æķĻ
as is
å»º çŃĳ
)} .\)
L A
Ġcon ver
Ġmo tion
Ġcomp act
æ Ĳ
tu res
Ġc he
Ġinter pre
ch ing
å³ °
p es
Ġb ro
w ard
Ġ ]
Ġwith out
éķ¿ åº¦
Ġa round
Ġregi ons
åį ´
tar y
èĴ Ĥ
Ġ. .
6 0
æĹ© æľŁ
Ġe stablish
å¾ ª
åĩ½æķ° çļĦ
) ),
éĢ Ģ
ilibri um
æ°Ķ ä½ĵ
è´ ¥
Ġdis cre
å¸¸ æķ°
}} _
ä¸ ģ
éŁ³ ä¹Ĳ
map sto
Ġa long
C S
Ġdo es
éĩį æĸ°
s te
Ġme tric
M A
Ġd ri
le v
Ġdeter mine
ł Ķç©¶
Ġthe m
ĠF in
æ ħ
æĬ ķ
è½¬ æį¢
å°¼ äºļ
Ġgravi tational
æŀģ éĻĲ
Ġproble ms
è ĵ
Ġ åħ¶
Ġre dshift
Ġaccou nt
åī Ĥ
ç®Ĺ ç¬¦
e y
Ġma ssive
ä»İ èĢĮ
ä¾ĭ åŃĲ
)} (\
Ġagree ment
çļĦæ Ĭ
la ting
t z
ri ch
çķ Ļ
res s
Ġ ä¸Ĭ
è¿Ļ æĺ¯
Ġinte gra
b al
èĦ ĳ
åİĨ åı²
Ġma gn
nd a
Ġdo min
ation al
m it
Ġ åĬ¨
æĿ¥ èĩª
ith er
ĠB y
åı ī
Ġmo di
ig gs
åĢ į
Ġb os
Ġdescrib ed
t re
Ġmo des
çļĦç ²
åį ĩ
mog ene
Ġc hi
Ġy i
n ic
3 0
çļ ĩ
ç»Ł è®¡
Ġtheore m
Ġa chi
æĿ ¾
or ies
Ġe igen
çİ° è±¡
Ġsche me
å¿ħ é¡»
li es
Ġfi l
Ġgrou nd
Ġac cre
] =\
te q
tiv istic
Ġte st
Ġstrong ly
äº ĳ
åº Ń
Ġab sor
Ġc h
/ (
æĶ¿ æ²»
è¯ »
Ġdis tance
ä¹Ł åı¯ä»¥
Ġab ove
çī¹åĪ« æĺ¯
Ġin sta
è¿ ª
ĠD i
Ġbe co
n ts
Ġin vol
å¤ļ æķ°
) >
Ġinte rest
Ġobje cts
çº ¯
fi eld
Ġ åľ°
Ġpro of
Ġgra vity
åħī åŃĲ
I n
f ine
ve y
åĸ ·
Ġprodu ction
H C
Ġse le
qu es
Ġcomp ar
Ġlar ger
Ġop en
è½ ½
åħ ģ
ar row
åģ ¶
8 4
cal e
en ari
cho ose
k en
Ġmechan ism
èĢ ģ
Ġregi me
z ing
æ·· åĲĪ
I C
Ġex te
ĠG eV
Ġpo sitive
Ġspa ces
çĥ Ī
Ġse arch
Ġrespe ct
v dots
var rho
ta ne
ç¼ ĺ
Ġexa mple
å¤§ å°ı
Ġd ou
Ġfe atures
å¸Į èħĬ
k n
çļĦæ Į
har p
Ġcosm ological
ce p
Ġrecent ly
Ġprovi des
Ġexpe cted
_{ |
ä¹ĭ åĲİ
re l
åį ļ
åĪ© äºļ
æĿĲ æĸĻ
åĬ ŀ
äºĭ ä»¶
n on
Ġin finite
Ġk ine
ng es
Ġmolecu lar
çļĦ åľ°
Ġæ ı
Ġd uring
Ġ èĢĮ
é ½
Ġma teri
Ġconstra ints
pa ga
Ġle ads
8 5
æ¤į çī©
Ġwho se
å· ±
as ing
var ian
appro x
s pe
éļı çĿĢ
Ġhy dro
Ġfor mal
çª ģ
9 4
Ġæ Ķ
èĪ ¹
6 5
}) }
çĶŁ æĪĲ
Ġcompon ent
Ġ æ³ķ
è¥¿ çıŃ
å² ¸
Ġcom mu
c er
| }
äº ®
æĶ¯ æĮģ
ç³»ç»Ł çļĦ
Ġdetermin ed
åħ³ éĶ®
is ot
å¹³ æĸ¹
åĬ¨ éĩı
Ġqu asi
åº §
G C
Ġno ise
æ¹ ĸ
Ġrep ort
èİ «
si de
èĢ ³
R B
ç» ĺ
è¯´ æĺİ
ä¹ī å¤§åĪ©
Ġ åĪ°
æĿ Ģ
Ġpro je
ç» ķ
ä½Ĩ æĺ¯
Ġpre c
æ² ¹
Ġsing ular
Ġ æĪĳ
p c
3 5
åħ± æĮ¯
8 0
}^{ (\
big oplus
å¹¶ ä¸Ķ
} :=\
ph y
9 5
i da
Ġ ^{\
ri er
) ).
è´ ¡
åĽ½ çİĭ
åĩł ä¹İ
Ġfluctu ations
Ġpr inci
Ġfi xed
éĿ¢ ç§¯
å¼ķ åħ¥
b ly
k l
nd s
Ġformu la
Ġ\( |\
ra ble
è¯ Ŀ
Ġf it
Ġ ç§į
çļĦ çĶµ
tic es
Ġsc enari
æĭħ ä»»
el i
b ased
è§Ħ æ¨¡
Ġarbit rary
to m
åŃĹ ç¬¦
' '(
6 67
Ġf ermi
fe rence
ver y
Ġinvestiga ted
è¯ ¦
),\ \
äº¦ è¯·
id th
ng ular
Ġdiffere ntial
ĠHa mil
Ġde gree
æķ£ å°Ħ
ĠS ch
Ġevi dence
æ¸ ¡
ce le
X i
me di
è¶ħ å¯¼
Ġro le
çľ ģ
roscop ic
Ĥ ¹
èµ· æĿ¥
å¾® åĪĨ
ĠE x
dy na
mo oth
ä»ĭ ç»į
çī© ä½ĵ
}^{+ }\)
Ġv a
åĽº å®ļ
åĪ Ĵ
p r
Ġpro fi
Ġa ction
}} .\)
åıĤ èĢĥ
Ġb ul
æł¼ åħ°
Ġexpan sion
tane ous
R A
Ġ here
Ġsign al
Ġre a
Ġre ve
Ġ æĿ¥
Ġclo se
è§£åĨ³ æĸ¹æ¡Ī
åį «
ģ Ĵ
ĠFin ally
æł· æľ¬
v an
èĻ «
wa ve
éĢ Ĳ
ic k
fra red
é ¼
Ġnetwork s
ĠI I
ĠC ar
ç¡ ¬
Ġgeneral ized
in ce
si ties
è¡Į æĺŁ
9 7
Ġpho ton
åĮ »
éļ Ķ
Ġstudi es
Ġt or
Ġb reak
æĪ ı
é» Ħ
ä¿¡ åı·
a ti
=\ {
ra tions
Ġlumino sity
Ġen ha
Ġdescri ption
) ).\)
m er
Ġlin es
é» İ
¨ ĭ
å¤§ æĪĺ
v o
ä¼ł ç»Ł
p ut
éĺ »
æĪĲ åĬŁ
è¥¿çıŃ çīĻ
se teq
Ġ æĹ¶
è½ ®
çļĦ æĸ¹æ³ķ
sin h
é»ĳ æ´ŀ
9 0
æĪĳä»¬ è¿ĺ
on d
ĠM ore
å° ¾
},\ \
Ĭ ¶
Ġc ho
ra ted
ä¸ °
r floor
tit u
ç³» åĪĹ
Ġw ide
ï¼Į ï¼Į
Ġcoup led
æķ° çļĦ
Ġæ į
åħģ è®¸
å®ĥ çļĦ
æ¹ ¾
éĽ ħ
Ġc ryst
Ġan ti
Ġcir cu
Ġexten ded
é ±
åı¤ åħ¸
d S
ĠS U
æ¯ Ľ
ca use
ä¸ ²
å¹¿ æ³Ľ
H z
Ġtransp ort
g o
8 7
ci es
Ġ åŀĭ
ä¸į èĥ½
ĠQ CD
Ġbin ary
é± ¼
ma ss
Ġdimension s
Ġestima te
Ġpla s
Ġin variant
é© ±
Ġmu ch
ç»Ĩ èĥŀ
Ġsol ar
Ġres pon
Ġ /
i la
éģ Ĺ
æıĲ åĩº
emp ty
l floor
cos h
Ġcontinu ous
Ġç Ł
33 33
Ġf urther
Ġsh ort
äº ²
ä¸Ń åĽ½
Ġthe ories
ä¸Ģ èµ·
æķ° åĢ¼
Ġreg ular
\\ &
Ġappli cations
Ġ èĥ½
Ġsymme tric
Ġconf igu
ic s
éĵ¶ æ²³
Ġser ies
C o
Ġæ Į
å·² çŁ¥
å® Ī
b and
r k
å·¥ ä¸ļ
æģ ©
f le
Ġradi ation
ç¼ º
çĪ µ
Ġ ä½ĵ
æŁ ±
çŁ ¿
åħī åº¦
Ġmagn itu
å® ¡
åĩı å°ĳ
Ġup per
Ġopti mal
vers al
is on
Ġmulti ple
66 67
av y
4 5
pp ing
Ġb asis
Ġth us
ga tive
bu l
Ġgeome try
Ġcompon ents
Ġent ropy
\, ,
ran ge
!\ !\
Ġtechni que
^* _
æĹł æ³ķ
ĠF ermi
Ġ è¿ĻäºĽ
}} ^
vi ew
bu nd
nda mental
æ° §
èĩª å·±
çĹ ĩ
le ngth
} :=
Ġo pera
çİ° ä»£
du al
Ġneutr ino
ul d
ä¼ ¸
åĤ ¨
æĶ¹ åıĺ
Ġev alu
å¸ ķ
Ġr u
Ġ çĽ¸
Ġ1 2
ymme try
Ġter m
Ġdete ction
å¿ Ĺ
s ki
Ġcalcu late
Big g
èĥĮ æĻ¯
,\ \\
Ġstre ngth
Ġi l
Ġt rac
Ġæ °
a ge
æĸ¯ åĿ¦
isi ons
è¾ ĳ
Ġ\ |\
ä¸ĭ çļĦ
çİ »
ĠS i
energ ies
æĪĳä»¬ åı¯ä»¥
çĶŁ æ´»
Ġachi e
åŃ Ķ
äº§çĶŁ çļĦ
Ġgo od
å°ı è¯´
æ® ĸ
Ġcalcu lated
Ġsu fficient
å¤ ¸
åıĬ åħ¶
Ġmaxi mum
åħ į
Ġstr ing
è¦ Ĩ
éĿ¢ çļĦ
ins tein
ĥ Ń
ĠN e
Ġdu st
Ġs yn
}\ }_{
Ġ å¼ı
Ġal pha
rop ic
Ġa fter
Ġpro paga
Ġs mooth
åĪ º
å¹´ åľ¨
æ´» åĬ¨
mo st
) )\)
Ġa ngular
Ġrepresen tation
Ġ å®ļ
Ġsta ble
Ġmeasure ment
å ´
Ġli k
æĸ¯ çī¹
Ġbe ing
çłĶç©¶ äºĨ
Ġspeci al
ou ld
str uct
Ġcon ject
' +
åĶ ¯
I m
æĽ ¿
è®¨è®º äºĨ
Ġpe ak
empty set
ä¸į åı¯
ĠG ala
èĪ ª
æ¡ Ĩ
tri es
æµ ®
æľ¬ å¾ģ
Ġde cre
Ġæ Ľ
çļĦæ ¸
Ġdevelop ed
P S
} >
åħ¬ å°º
c d
fa ces
,.. .,
æĪ ·
3 7
Ġis o
çĶ¨ æĿ¥
é¦ĸ åħĪ
)^ *
Ġpolar ization
ele ct
Ġlo op
| _{\
Ġful l
se u
Ġc en
Ġexa mples
çļĦ ä¸»è¦ģ
Ġi r
äº¦è¯· åıĤéĺħ
| \)
ä¹ ±
è§ ¦
ĠHamil tonian
tor s
Ġgenera ted
è¿ĩ æ¸¡
Ġe ither
åį ĥ
4 0
is ms
Ġscal ing
å¾ Ĵ
Ġ äºº
] _
æĺ¯ åľ¨
ä¹ Į
å¾Ĺ åĩº
ç§ĳ åŃ¦
th at
co pe
Ġscal es
te mp
æķ° åŃ¦
Ġan isot
å¥ ĸ
èı Į
æµĭ è¯ķ
åĿ Ģ
Ġæ ²
mogene ous
u sion
g ence
æ¬¡ ä¸ĸçķĮ
, (
Ġ åŃ¦
æķ´ ä¸ª
ç ¯
åıĺ å¼Ĥ
Ġs he
war f
M B
å ©
Ġspeci fic
Ġi mple
åĽ Ń
Ġfo cu
ĠM a
is ing
vi ron
èį ¯
Ġpro to
èĦ ±
å¼Ģ åıĳ
å¼º åº¦
{ (\
åħ± åĴĮ
Ġdou ble
åĪĨ è§£
Ġanal og
Ġele ments
oun ded
Ġfrac tion
Ġ æĪĲ
\ !
Ġ '
Ġsho uld
æľº åĪ¶
å½ĵ æĹ¶
Ġe very
n ces
ĠI f
åĲ¸ æĶ¶
ĠD e
m od
Ġre st
}}{ (
Ġunder sta
M C
mon g
Ġle ss
) &
ä½ ³
è¡ ¥
å¼ķ èµ·
_{ {\
åıĸ åĨ³
å±ķç¤º äºĨ
ç»Ł ä¸Ģ
Ġcon se
Ġdete cted
Ġnucle ar
Ġstatis tical
Ġsu m
un ction
ĠM on
èĨ ľ
\, .
Ġse e
Ġæ Ĭ
Ġbro ad
o k
å¼ ¦
æİĴ æĶ¾
s tic
Ġ å¤ļ
ĠB e
æ¯ Ĵ
Ġ energies
)\ ;
s h
Ġw ould
b ili
Ġp atter
n o
æķ ı
éĤ »
i ds
an ces
è¶ £
Ġresul ting
seu do
}) +
è´ §
se mb
Ġapp lication
Ġglo bal
Ġerr or
æĢ» ç»Ł
Ġintro duced
¨ ª
Ġvari ables
° æĴŀ
éĿ ł
] .\)
Ġsugges t
va ila
è¡° åıĺ
å»º è®®
åĨ³ å®ļ
ri cal
Ġfu ndamental
alle l
æ® Ĭ
è¾ ¨
here nt
Ġaccre tion
åįĬ å¾Ħ
Ġnat ural
èĸ Ħ
åĬ¨ åĬĽ
ä¾ §
åĨħ éĥ¨
ber g
çĲ ´
ä¹ ħ
Ġten sor
Ġ\\ &\
\, ,\)
Ġfe w
è·¯ å¾Ħ
u d
Ġy e
Ġcont ra
Ġcorre lations
å¾ª çİ¯
Ġsuper s
è¯ ĳ
æĭ ĵ
Ġintro duce
å®Į æĪĲ
Ġ è¡Į
Ġtechni ques
M S
çģ µ
i led
Ġcompu te
' (\
in ter
las tic
æį ķ
æĥħåĨµ ä¸ĭ
è´¡ çĮ®
C O
Ġin duced
Ġcos mic
di v
Ġç Ńī
Ġ ;
Ġra tes
sub seteq
Ġh is
æİ¥ è¿ĳ
åŀ Ĥ
Ġgiv es
è¯ģ æį®
Ġres olution
che ck
éĢ Ĩ
åĪĨ ç¦»
åĲĪ çī©
ci al
éĩį åĬĽ
çİ Ľ
Ġpa th
åł Ĥ
è¡¨ çİ°
ord in
^{ [
li min
ĠGa ussian
Ġpopu lation
n ov
åı «
Ġ& =\
å® £
Ġc le
åĬ ³
Ġcon clu
Ġse quence
Ġp u
ç©ºéĹ´ çļĦ
d v
æĮ¯ åĬ¨
Ġmean s
Ġ\ {\
Ġdis per
Ġpres sure
è¯ ¸
æĹł éĻĲ
åĲį çļĦ
Ġ( .
éĩįè¦ģ çļĦ
Ġavera ge
äº ¡
}) _{
stack rel
m ore
åľ° çĲĥ
Ġ ),
Ġen viron
Ġprodu ct
éľ į
Ġç Ħ¶
! }
Ġcur v
Ġasympto tic
Ġb ran
æī ¹
éĿŀ çº¿æĢ§
Ġpla n
é» ĺ
b ur
æĪ ª
ç²¾ ç¡®
å¸Ŀ åĽ½
y r
Ġ çĶ±
\ }}
Ġ è®º
Ġa ngle
Ġpredic tions
Ġa bund
ĠF urther
Ġt un
èĢ ¶
Ġperfor med
åĩ Ŀ
æĹł çº¿
Ġro tation
Ġrespe ctively
éĻ ©
è¥¿åħĥåīį å¹´
j i
Ġ åĲİ
çĽ¸ ä¼¼
ed imensional
Ġre lev
I S
t ons
Ġ }{\
Ġcoll isions
F T
æĸ ľ
åĵ ²
ä¹ĭ åīį
éĴ Ī
Ġb a
par ticle
in te
or ted
Ġu l
3 6
æĺ¯ åĲ¦
ä¸ī è§Ĵ
Ġrela tive
) _{\
Ġe fficient
Ġassu mp
ĠL ie
la t
çī¹ æ®Ĭ
ä¼ ½
Ġradi us
æŃ£ å¸¸
éĹ »
æĮĩ æķ°
leq slant
æ± ī
9 6
o is
Ġa vaila
Ġex tra
çĲĨ è§£
çļĦç £ģ
éĺ ²
å£ ³
Ġæ¨¡ åŀĭ
ä¼ł æĴŃ
å°º åº¦
æŀĦ æĪĲ
é¡¹ å¼ı
ffici ents
Ġn ature
æľ «
ĠA t
en cy
Ġ å°Ĩ
4 4
Ġin di
)}{ (
)} ,\)
sf er
ĠH iggs
la ss
N A
o sition
rac y
ä¸Ģ æŃ¥
Ġma p
Ġpar tial
for mal
Ġtop ological
Ġ åĽ½
åĢ¼ çļĦ
çĳ ŀ
Ġequival ent
bul let
Ġ äºĽ
Ġab s
Ġcol le
åŃĲ çļĦ
æĺ¯ ä¸Ģ
Ġvari e
Ġin ten
åıĸåĨ³ äºİ
ä¿Ŀ æĮģ
Ġtempera tures
çĪ Ĩ
Ġa x
Ġanaly ze
ģĴ æĺŁ
ma nce
Ġentangle ment
( {
Ġcon den
æŁ ĵ
Ġalgebra s
å±Ģ éĥ¨
èĵ Ŀ
ä¸ ĥ
çŃ ĸ
æıĲ åĩºäºĨ
æ¦Ĥ çİĩ
Ġ è¦ģ
æľī ä¸Ģä¸ª
ä»ĸ åľ¨
æº ¶
bigg r
Ġspace time
Ġqu es
çĦ¶ èĢĮ
Ġcal led
Ġhe avy
ä»Ģ ä¹Ī
2 6
b ody
D E
Ġg re
Ġfa ct
cha stic
æĺ¯ çĶ±
ä¾ µ
çĲĨ æĥ³
~~ ~
Ġprevious ly
^{* }
Ġbel ow
åħ «
bigg l
åĩł ä¸ª
li t
}} +
ç¬¬ ä¸Ģä¸ª
è ľ
ä»¥ åīį
Ġo u
æ³¢ åĬ¨
Ġwa ves
Ġsignificant ly
æĬ¥ åĳĬ
k a
Ġfami ly
å½ ¹
æµģ ä½ĵ
åĪĿ å§ĭ
Ġse ts
çĻ »
çĽ® åīį
po le
ĠS ta
Ġ æŀľ
éĢ ģ
Ġsys te
cha nge
Ġco re
æķ´ æķ°
rou p
)\ ,\
Ġac cele
å¼ Ĺ
Ġsimu lation
éĺ¿ æĭī
çļĦ ä¸į
è§ ī
æľĢ é«ĺ
ĠS N
å¥ ı
Ġcha nge
S U
Ġlead ing
Ġcon text
me tric
th ough
Ġ åĲĪ
T E
ca ted
ex is
Ġnumber s
Ġty pical
lo y
st ro
å°½ ç®¡
Ġpha ses
æ¦Ĥ å¿µ
Ġ åĲĮ
gre es
T r
Ġb ar
ĠThe re
)\\ &=
æī§ è¡Į
b ol
} }^{\
Ġv ie
èĦī åĨ²
æī° åĬ¨
medi ate
çĽ® æłĩ
Ġmagnitu de
] (
Ġfor ce
Ġma de
Ġconstru ction
Ġclo sed
Ġre con
Ġcon duc
å¤§ åŀĭ
e f
Ġp ure
Ġç ±»
æĺİ ç¡®
Ġgrow th
Ġano mal
Ġne cess
lic ity
æ¬¡ä¸ĸçķĮ å¤§æĪĺ
s en
te ra
ä» ½
ä»¥ ä¸ĭ
Ġneutr on
é ¹
es is
èģĶ åĲĪ
æį Ł
les cope
Ġm er
Ġsta bility
ä¿® æĶ¹
Ġle ast
Ġ åı¯ä»¥
Ġs igma
çĶ¨ çļĦ
Ġcoe fficients
è° ·
æĸĩ åŃ¦
äº¤ æį¢
o si
è¿Ľ åħ¥
èĥ ľ
ter nal
bu le
é«ĺ åº¦
Ġcontribu tion
åŃ¦ ä¹ł
çº½ çº¦
) )=\
Ġva cu
} &=
åĨĽ éĺŁ
Ġplas ma
åĪ¶ éĢł
olu me
Ġd warf
äºĨ ä¸Ģ
Ġ å½ĵ
æĪĳä»¬ è¯ģæĺİ
Ġelectr ons
æĿ¥ çļĦ
i p
¯ ı
ĠS e
åŁº çĿ£
Ġinde x
Ġdiscre te
è¿ ģ
Ġavaila ble
A u
su n
çĪ ¶
Ġamplitu de
Ġreson ance
] +
æ¨¡åŀĭ çļĦ
ä¸Ģ çĽ´
ä¸ ¹
ic h
Ġw or
I M
è¿ ¹
å° ¤
Ġpro ced
las h
Ġato ms
Ġdire ction
}}\ ,
Ġli ke
res h
Ġf er
ce il
}. \
Ġmic ro
G L
å½¢ çĬ¶
7 7
Ġpolynomi al
åıį å¯¹
èĲ ¥
O S
åı ł
=\ ,
)} +
ch ed
æĭ ¥
ĠE u
åĶ¯ ä¸Ģ
åĽ½ éĻħ
Ġca p
ç»ı åħ¸
w ise
] _{
Ġre pro
). \
å¹¶ ä¸į
Ġcou n
äº¦ ç§°
Ġpa ra
é½ Ĳ
Ġde vi
Ġmedi um
åĽ¾ åĥı
æĭ ľ
Ġcur ves
D M
ç®Ģåįķ çļĦ
- |
or iz
p res
c m
ĠP ro
æł¸ å¿ĥ
æľ¬ åľ°
Ġmini mal
Ġga p
äºº ä»¬
Ġ åĮĸ
å¤§ éĥ¨åĪĨ
å² ģ
Ġvari able
Ġil lu
j u
æĹ¶ ä»£
Ġdemon stra
2 8
Ġv or
al i
æĺİ æĺ¾
åįķ ä¸Ģ
Ġdo main
Ġc re
ä¸Ń åŃĲ
é Ń
è¾¾ åĪ°
Ġproper ty
è¶ ĭ
}} +\
Ġ ä½¿çĶ¨
æĿ¥ æºĲ
}) ^{-
åŃĹ æ®µ
Ġperfor mance
f lu
C u
Ġbul k
æľī ä¸Ģ
ç© ·
ä¸´ çķĮ
5 0
x t
Ġcorre ctions
Ġdeta il
Ġ *
ĠW ith
ä¼ł è¾ĵ
Ġç ½
mb ed
åĻ¨ çļĦ
.. .
me ly
Ġ çļĦç
tex ts
ty le
èģĶ ç³»
Ġperiod ic
èŀ º
ä¸Ģ æł·
ni an
Ġha d
ä¿Ŀ æĬ¤
æ¢ °
Ġnan o
èī ¯
Ġç ¤
å¥ Ĺ
æ¸ ¯
lli p
é¢ Ĺ
Ġabsor ption
) )^
è¿Ľ åĪ¶
' -
d in
e ts
Ġ\( -\
åĨħ å®¹
çļĦæĥħåĨµ ä¸ĭ
éļ Ĳ
ä»į çĦ¶
Ġ çĶµ
çŃī äºİ
Ġinteg ral
Ġ ä»İ
Ġmanif old
o h
ĠL e
Ġchi ral
Ġcom mon
å¤§ éĩı
Ġapp ly
ce pt
Ġestima tes
Ġrela tivistic
me q
me ter
äººåı£ çº¦
Ġfin ding
æī¾ åĪ°
åĻ ª
è¯¦ ç»Ĩ
Ġaddition al
}) ^{\
çł Ķ
Ġfunction al
Ġcurv ature
¾ İ
åŃ¦ éĻ¢
Ġca us
Ġsho ck
åħ· ä½ĵ
g y
Ġsto chastic
al gebra
ä¸» æķĻ
äºº ç±»
ĠMore over
éĽ ķ
è¿ «
æŃ£ äº¤
ody na
Ġincre ase
ä½ ł
æ³ °
L e
p q
Ġre fle
å¯ »
Ġequ ilibrium
çĬ ¹
Ġh el
å®ļ å¾ĭ
è¶ħ è¿ĩ
äºĭ å®ŀ
åĪ ļ
å®Į æķ´
Ġho les
Ġbound s
Ĭ¶ æĢģ
s titu
Ġre ma
for ma
ol ved
f ree
Ġç ¡
¦ »
Ġbe cause
è´ ¢
Ġ\( {
åıĸ å¾Ĺ
è® ²
¼ Ķ
æľĢ åĪĿ
æ°´ å¹³
æ¸ Ĳ
Ġcur ve
} |^
Ġst ra
é£İ æł¼
C P
Ġ end
åº ·
çĶ ļ
Ġso ft
}} }\
res sion
ç»´ åº¦
] ^
b ert
èĤ ī
)+ (
ľ ç´¢
Ġv is
fe ct
Ġa mong
åĮ ¹
quen ces
è¿ Ķ
Ġco de
è¿Ĳ è¡Į
du ces
Ġse mi
äº§ åĵģ
èĦ Ĭ
Ġear ly
d dot
Ł Ĳ
Ġ ä¸ĭ
Ġtran sfer
ij k
Ġinf lu
æŀĦ å»º
ĠCo mp
çĽ¸ æ¯Ķ
è§Ĵ åº¦
æķ° ç»Ħ
æĸĩ ç«ł
Ġty pes
çĸ Ĺ
kn own
) ~
Ħ ı
ve red
Ġapproxima te
ä¹Ł å°±æĺ¯
Ġsupercondu cting
nd ida
éĩ İ
åı¦ ä¸Ģ
ä»ĭ è´¨
roscop y
do wn
Ġidenti fy
ta ge
Ġh ard
æĹ¥ æľ¬
çĽ¸ åºĶ
é¢Ĩ å¯¼
åĳ¨ åĽ´
Ġ å¯¹äºİ
Ġprob ab
Ġorbit al
P r
çº ¤
ç¢ °æĴŀ
å¼ §
Ġex tre
ical ly
Ġd own
l ight
Ġto ol
æĿ °
æī© å¼ł
Ġelectron ic
é¢ ľ
ĠR a
é¢ Ŀ
, [
Ġalgorith ms
Ġexpon ential
Ġre view
Ġne gative
ç»Ļ å®ļ
E D
_{ *
Ġex ternal
Ġf ar
èĹ ı
é¢Ĩ åŁŁ
Ġal ter
Ġs ph
è§Ħ åĪĻ
Ġclass es
Ġlo ss
in ed
ĠA GN
Ġma ps
j or
åĬł åħ¥
el ds
Ġelect ric
Ġca te
A R
çļĦæ¨¡ åŀĭ
Ġev ents
éĺ¿ å°Ķ
åĳ³ çĿĢ
pi d
éķ ĩ
çļĦ å¤ļ
ãĢĤ ãĢĤ
Ġç ¨ĭ
æ¯ ķ
Ġdes ign
b el
Ġ æĪĸ
b a
ri ty
Ġob ser
èĢĮ ä¸Ķ
Ġuni form
Ġc m
åı ¥
Ġpro duced
åĳ½ ä»¤
æļ ´
Ġreve al
æĪĳä»¬ åľ¨
Ġfu ture
S N
çŃ Ķ
æľĢ ä½³
Ġc u
ä½ľ å®¶
çº³ ç±³
d d
Ġ ).
Ġ çº¿
is t
çĶ ²
å® ³
éŁ ¦
é¥ °
å½ĵ åīį
vi al
Ġincre asing
Ġato mic
Ġv io
ä½ĵ ç§¯
p ed
pp ed
Ġradi al
Ġcompar ison
) ;
äºº çī©
Ġsmal ler
è¿Ĳ ç®Ĺ
Ġmu st
Ġhal o
7 0
Ġcon cent
men tation
Ġqu ad
ĠO n
Ġæ ´
åĲĮ æł·
åİŁ åĲį
lo cal
éĶĻ è¯¯
8 6
D F
i ce
é¢ĳ è°±
ĠMon te
çļĦæ Ľ
Ġca ndida
ä¼ ´
ç§» åĬ¨
éĻ¤ äºĨ
Ġr ing
Ġmix ing
p ho
under set
2 9
æĮ ¥
ys tem
ç¯ ĩ
Ġu su
tri ces
Ġæı Ĳ
c ation
çĶµ æµģ
çĽ´ åĪ°
åħ¸ åŀĭ
èı ²
Ġcryst al
çļĦç ¼
åĸ Ħ
Ġj et
Ġexhi bit
w hi
ç½Ĺ æĸ¯
nov a
Ġe llip
åİĭ åĬĽ
Ġpredic ted
Ġcha nges
æ¢ ħ
g ue
m ology
å¯¹ç§° æĢ§
si meq
æľº æ¢°
Ġd ra
Ġdepend s
c ing
ä¸Ģ å®ļ
æĹ §
å¼º çĥĪ
Ġp seudo
ĠT r
Ġæ ¯Ķ
åĿ ı
S i
m os
}) -
qu id
è ļ
èī ¾
Ġsu c
åĳ Ī
çº¦ æĿŁ
Ġ è¿ĩ
c li
Ġd z
a h
s lash
ad y
éĢļ éĩı
æľį åĬ¡
ç» ¿
Ġv an
ç¾İ æ´²
Ġtransi tions
åħ »
Ġb ra
Ġof f
= |
Ġh ar
Ġal most
{ (-
éĿ© åĳ½
Ġconden s
= &
gen era
éĥ½ æľī
Ġ åı¯
Ġ çİ°
la n
æľ¬æĸĩ ä¸Ń
Ġa m
åħĭ æĸ¯
éĴ ¢
Ġ }(
Ġinclu de
r s
Ġç Ĥ¹
Ġche mical
éģ Ń
p ton
Ġ çĶŁ
5 5
Ġe mbed
çĽ Ĭ
æħ ¢
Ġrelev ant
Ġ åĩº
Ġformal ism
Ġtur bule
s harp
Ġw idth
Ġs tri
ĠT e
ĠæĪĳä»¬ è¿ĺ
Ġcontra st
æĶ »
å½ĵ åľ°
Ġconject ure
Ġcon ta
Ġre duced
çļĦæ ·
ĠL i
çļĦç ±»
å® «
Ġm is
Ġcol la
Ġgraph s
é Ĩ
Ġfla t
w here
n ed
Ġco ordin
èį ¡
Ġver sion
Ġcle ar
Ġ è¢«
çĽ ĳ
Ġ æĺİ
_{\ {
Ġalgebra ic
Ġsha pe
Ġma ke
åĽł ç´ł
ç£ģ çĽĺ
h ys
Ġscenari o
Ġ limits
Ġpul s
æķ ¦
åºĶ è¯¥
Ġe ss
æ¡Ĩ æŀ¶
Ġs quare
la y
æĻ® éģį
Ġ æĺŁ
äºĮ æ¬¡
Ġ åĬĽ
Ġ\ :
Ġexten sion
Ġdeta iled
la ssi
æĸĩ åĮĸ
æı Ĵ
ä¸į åıĺ
åŁº åºķ
C a
æ ¥
åĬł éĢŁ
Ġsa ti
æ° ¢
Ġgraph ene
æ ¨ª
æ³¢ åĩ½æķ°
èµ °
äº¤ åıī
oriz on
Ġin tr
Ġ( .)
less sim
åĨ °
çĶµ å½±
tar ge
Ġsur vey
èĽ ĭ
elect ric
ĠC ha
Ġ ä»ĸ
èĥ Ģ
çī¹ å®ļ
Ġex trac
Ġb ounded
åıĺ å½¢
ĠU ni
Ġvacu um
u v
Ġa ble
è§Ĩ ä¸º
bol ic
p olar
ç¬¦ åı·
v or
Ġs hift
igh b
ç© Ĩ
è¿Ľ åĮĸ
big cap
Ġla tter
æŀĦ éĢł
fin ed
éª ¨
è¡¨è¾¾ å¼ı
Ġanaly tic
Ġ math
Ġw i
;\;\ ;
Ġin varian
ga in
Ġdete ctor
ĠC P
Ġsur faces
)\\ &
Ġindi vi
åī ĸ
è¦Ĩ çĽĸ
Ġn a
å¤ļ ä¸ª
åį ¢
cor re
is ed
ç§ ĺ
}= {\
Ġsu i
éĻ ·
Ġappe ar
} &\
Ġo ri
æľī çļĦ
o o
| ^{\
åį ·
til l
M N
ä¸º çļĦ
Ġdiffere nce
å·¥ åħ·
çº¢ å¤ĸ
Ġsati sf
g g
èĥ ¶
åħ± åĲĮ
åĢ ¾
æĹ¶ åĢĻ
Ġtrans verse
ĠW hen
) }^
çĶµ åľº
Ġde fine
éĢ Ĭ
Ġrela x
ĠC a
3 1
E S
ç¬ Ķ
}} -
Ġpair s
è¿Ľ ä¸ĢæŃ¥
åħ³ èģĶ
æ± ĩ
æŀģ åĮĸ
,\ ;
Ġpol y
Ġth resh
er n
Ġç «
|\ ,
su per
qu ark
lo ck
Ġar gu
Ġdiff usion
èĩª åĬ¨
sta ble
ä¸ Ŀ
or phic
ä»¥ åĲİ
Ġuni verse
Ġdeca ys
å¤¸ åħĭ
B A
å±ŀ äºİ
é¡ µ
8 9
nt z
Ġ åį³
P A
Ġ ä½ľ
ge ther
æ³ķ å¾ĭ
Ġaccu rate
li er
Ġ )\
çĶ ·
Ġ æĢģ
ĠC O
è¥¿ éĥ¨
Ġcan not
mon ic
Ġprovi ded
é¸ Ł
Ġb right
å¤ļ é¡¹å¼ı
åĮ Ģ
ä¸Ģ æ¬¡
å¯¼ æķ°
çī©çĲĨ åŃ¦
åĲĪ å¹¶
Ġk ey
ing er
ni cal
Ġequ al
æľĢ ç»Ī
s a
\| _{\
Ġchar ged
è¾¹ ç¼ĺ
Ġmulti p
Ġobserv ation
Ġhigh ly
ra di
Ġimpro ve
Ġn or
Ġad d
th esis
Ġmateri al
æĬ ½
Ġ é«ĺ
ou ng
ä¼ ¤
c an
å¾® åŃĲ
çīĪ æľ¬
m ing
Ġin ner
å¹³ è¡Į
ç³»ç»Ł ä¸Ń
è´ ¸
Ġha nd
Ġconstru cted
Ġb ri
å° ĺ
ç» ¼
è¿ĩç¨ĭ ä¸Ń
ç¢ ³
i tion
s ts
Ġ tes
é¦ Ļ
çģ °
S ch
Ġ ç³»
Ġ æĸ¯
Ġanaly tical
å¤ ®
Ġv i
ç»ĵ è®º
è¾ĵ åħ¥
Ġ åĪ¶
æĪĳä»¬ å°Ĩ
Ġne ed
Fe As
Ġvie w
Ġç¤ º
å £ģ
Ġ æŃ¤
ä¸ ½
åľ Ī
Ġv olume
æĴ Ĵ
Ġgeome tric
te ro
çļĦç łĶç©¶
è®¾ ç½®
éĢł æĪĲ
^{* }\)
åŀĤ çĽ´
f low
y a
res sed
Ġc ell
äºº åĴĮ
fi rm
äºĮ ç»´
Ġfollow ing
æ° ı
å¥ ´
Ġuni versal
Ġdu al
[ (
Ġs low
åĬ ª
qu ent
æķĻ èĤ²
' }\
t ran
Ġma t
ad ing
tor y
ç®¡ çĲĨ
, {\
| }\
æŃ ¦
var pi
Ġno vel
Ġflu id
Ġma trices
4 7
lim sup
Ġb est
= (\
Ġ ri
)= (\
éļ ľ
ç»Ļ åĩº
long rightarrow
ç« Ļ
çĶ» å®¶
il bert
re g
éĴ Ł
åŃĹç¬¦ ä¸²
Ġexte nd
A l
Ġs pi
çĲĨè®º çļĦ
å®¹ æĺĵ
åĩº çīĪ
ä¸Ģ ä¸ĸ
Ġcalcu lation
Ġper form
] ,\)
Ġ æľ¬
éħ Ĵ
èĳ Ĺ
è¾¨ çİĩ
ĠFurther more
ch y
Ġbe am
ç»ı è¿ĩ
æ£Ģ æµĭ
' }(
Ġ targe
çĽ Ľ
_+ (
éĢĤ å½ĵ
å¿« éĢŁ
Ġpossi bility
åı¯èĥ½ æĺ¯
Ġtherm odyna
}^{* }\)
Ġrequi red
ĠCar lo
æ¶ī åıĬ
Ġma r
Ġ éĢļè¿ĩ
åį° ç¬¬
Ġincre ases
Ġem er
å½¢ æĢģ
æĹ ħ
Ġconne cted
æĹłçº¿ çĶµ
é¢ľ èī²
èĤ ¯
Ġmagne to
Ġproced ure
Ġa ffe
w ell
ĠM e
Ġra ther
}=\ {
Ġw he
å®ĥä»¬ çļĦ
Ġæ ¸
Ġç ¬¬
Ġre normal
èĩ³ å°ĳ
ri ed
mo del
e ma
ç½ ª
æŁ ı
Ġrespon se
ĠGala ctic
Ġima ges
éģ ¿
Ġre co
duc ing
æĻ ļ
Ġdia gram
æĪĲ åĳĺ
M R
Ġco ol
å¤į åĪ¶
p in
Ġdis tin
åī ²
ta ting
ĠMo del
H E
å¢ Ļ
u bb
Ġde grees
\\ &=
Ġ å®ĥ
çļĦ éĿŀ
ä¹ Ķ
ĠQ u
Ġpo sition
Ġrequi re
¢ å¤į
war ds
åĬł æĭ¿
æĦı åĳ³çĿĢ
forma tions
Ġin equ
Ġç ¼
}) }{
Ġdi ag
)^{ -\
)) ,\)
| ^{-
è¡ į
Ġç ²
Ġre ach
mal l
æī© æķ£
æĲ ľç´¢
è¿ ½
}} ,\
äºĮ è¿ĽåĪ¶
Ġ æµĭ
Ġ åĢ¼
åħ µ
Ġ çļĦæ
éĢļ çĶ¨
çļĦ æĸ°
çļĦ åĩ½æķ°
Ġex change
Ġ. ..
ph er
Ġ çĲĨ
è´ µ
ç©ºéĹ´ ä¸Ń
on ical
over set
Ġar ticle
Ġexis ts
Ġidenti fied
Ġbeco mes
b on
Ġta ken
è· ¨
èĻ ļ
k j
Ġj u
S P
ç© ¿
Ġdisper sion
Ġye ars
an tum
å¤ĸ éĥ¨
é¦ Ĩ
Ġinterest ing
å¹´ ä»ĸ
å¸¸ è§ģ
ti zation
si tivity
å¼Ĥ å¸¸
å½ ©
Ġ nd
Ġb ary
å¼ı çļĦ
ĠTh en
Ġinte ger
èĨ ¨
Ġperturb ation
Ġ è¯¥
å¸ ģ
con g
çľ ¼
çº¢ èī²
çº ¹
Ġcon firm
æĪĳä»¬ ä½¿çĶ¨
Ġse ction
æĬ ĺ
å¸ ®
ç¦ ģ
æĸ Ĺ
C A
Ġse en
> \
çİĭ åĽ½
èĥ½ åĬĽ
Ġrest ri
Ġs till
ĠW hi
ç¼ ł
è¿ĺ æľī
æĿ ľ
Ġsuper nova
æĿ İ
Ġbe tter
ä¸į ä¼ļ
ä¼ļ è®®
å°± åı¯ä»¥
are nt
Ġtwo dimensional
çļĦç ĥŃ
æĹł ç©·
è½¬ ç§»
fi es
éĢ Ĵ
pe ci
çĽ¸åħ³ çļĦ
ç ĩ
Ġ ç»Ł
ct ure
orph ism
Ġor th
æĪ Ī
z z
w o
}) ,\)
åĩĨ ç¡®
mi ts
åĪ° äºĨ
c r
it on
ari es
Ġful ly
tr on
ç Ħ
Ġma jor
æĢ§ åĴĮ
ffici ency
äºİ æĺ¯
l taneous
li cations
© éĺµ
ä¸ī ç»´
Ġhe at
èŀ į
ti tion
åĬ¨ åĬĽåŃ¦
æĻ® éĢļ
åį°ç¬¬ å®ī
èĥ½ æºĲ
ç¬¦ åĲĪ
Ġ éĿ¢
æĥ ¯
gra ng
Ġuse ful
è´Ŀ å°Ķ
m m
in k
pri ate
Ġcha in
å°ģ éĹŃ
Ġfa ctors
é¾ Ļ
æĪĳä»¬ çĶ¨
Ġ\ ;\;
ĠN a
çº¿ çļĦ
Ġcon ve
{ |\
Ġla ser
å¯ ¸
it z
ng ing
Ġk eV
ore ntz
Ġev ent
Ġlar ges
å¼ł éĩı
Ġfor ms
ç¨ĭ åº¦
Ġbehavi our
s quare
Ġcontinu um
E R
Ġde comp
}+ (
\\ &\
è° Ĳ
back slash
© åº¦
b c
M a
sum ing
sta te
åĩ ĳ
å¤© ä½ĵ
Ġse mic
åİŁ åĪĻ
åķĨ ä¸ļ
S M
om orphic
åĸ ľ
d f
men tary
} <
ome tric
Ġexis t
Ġbu il
Ġdirect ly
Ġ\(\ |\
è´ £
Ġ è¿Ļä¸ª
è¥¿ äºļ
Ġanaly zed
åľ¨ ä¸Ń
wa y
ç¿ »
Ġed ge
çģ Ń
Ġoscil lations
æ®ĸ æ°ĳ
æĭī æĸ¯
Ġnecess ary
çļĦ æĹ¶éĹ´
åħ±åĴĮ åĽ½
Ġmaxi mal
åľ¨ æŃ¤
ĠC h
æŃ£ ç¡®
æĳ Ħ
u ni
å¤§ å¤ļæķ°
3 9
Ġvarie ty
}} ,\)
çŃ ¾
åĮº éĹ´
çĶµ ç£ģ
Ġinter mediate
Ġcri teri
ç £
hi p
çĶ °
å¦Ĥ ä¸ĭ
Ġden sities
èģĶ çĽŁ
Ġlik ely
Ġundersta nding
Ġ :=\
æī ĳ
ĠL HC
iz es
çļĦ ä¸Ń
æī© å¤§
åı¦ ä¸Ģä¸ª
çº ¸
Ġsa mples
ou lo
pa rame
bu st
Ġuni que
Ġapproach es
å© ļ
Ġç ´
çļĦæ¦Ĥ å¿µ
Ġpla y
åįł é¢Ĩ
ä¸¥ æł¼
çĬ¹ å¤ª
Ġcompu tation
è´¸ æĺĵ
U V
åħĪ åīį
Ġ\ ,\,
il li
åĨħ çļĦ
Ġneutr al
Ġre d
å®¶ åºŃ
Ġba sic
æľĽ è¿ľ
| ,
æĺ¾ çĦ¶
æķĪ æŀľ
Ġsugges ts
ä¼¼ ä¹İ
Ġpho tons
Ġeigen val
ķ Į
Ġelect ro
åĶ ±
å»¶ ä¼¸
æ½ľ åĬĽ
çĽ¸å½ĵ äºİ
åĽ °
Ġinterac ting
çº¤ ç»´
Ġess ential
Ġæį ®
S D
ä¿ ĥ
Ġex c
åİ ļ
^+ (
Ġmanif olds
çļĦ äºº
Ġco herent
. }
Ĵ åŃĲ
åŃ £
Ġcontribu tions
å µ
Ġ å°ı
åı¦ å¤ĸ
æĻ¶ ä½ĵ
Ġat trac
Ġli quid
ç»§ ç»Ń
a ter
Ġ{ {
åµ Į
Ġpre di
å·´ é»İ
æ± ½
èĭ± æł¼åħ°
åŁºçĿ£ æķĻ
in sic
åĨĽ äºĭ
te red
Ġhow ever
Ġb ur
æľ¯ è¯Ń
Ġthere fore
Ġemp loy
Ġwhe ther
ĠN ew
,\\ &
¹ ģ
Ġs ide
åĪĨ ç±»
æģ ¢å¤į
gra ms
äºĴ åĬ¨
Ġmini mum
éĢ »
Ġspe ed
åĲ ¯
éº »
Ġunder lying
Ġ åħī
å® ¢
å§ Ķ
æĪĲ åĪĨ
Ġra pid
åĿ ļ
æĦı ä¹ī
å±± èĦī
) <
is es
Ġconne ction
Ġprinci ple
al og
ĠE instein
ç¼ ĵ
a ve
éļ Ĩ
Ġsph erical
Ġæ ĥ
tion ary
Ġdi ver
åį³ ä½¿
Ġques tion
tera ture
var i
un ctions
Ġfin al
Ġ ä¼ļ
çļĦ å¯¹
)} -
æķı æĦŁ
) _\
åĴĮ åħ¶ä»ĸ
Ġg lu
ĠA u
Ġh orizon
è· ĥ
Ġconsi de
)}\ ,
T f
Ġin frared
ar t
Ġrelax ation
Ġbreak ing
' }{
Ġre c
Ġdepend ent
äºĮ ä¸ĸ
è®° ä¸º
lassi cal
n m
o de
ç¥ŀ ç»ı
}\ |_{
çļĦæ ¯Ķ
Ġchannel s
Ġaccu racy
è¿Ķ åĽŀ
Ġto gether
Ġcon formal
ç² Ĺ
Ġst rate
Ġenviron ment
Ġde co
}_{ -
Ġ\, .
ĠDi rac
Ġcen ter
Ġcon ven
Ġsp lit
Ġtun nel
Ġb eta
Ġç £ģ
åı¯ä»¥ çĶ¨
ĠSu ch
èĽĭ çĻ½
Ġ ä½Ĩ
å®¶ æĹı
Ġsatisf y
}_{ (
æ¨¡åŀĭ ä¸Ń
Ġste p
Ġa gain
da p
Ġmodi fied
Ġthresh old
grang ian
Ġæ Ļ
å®ŀ æķ°
åĪĽ å»º
Ġelect romagnetic
çļĦç² ¾
Ġ å¦Ĥæŀľ
ic es
Ġ& &
å¹´ è¢«
Ġ åıĳ
æľī æĹ¶
çŁ¥ éģĵ
Ġp h
=\ ;
åħ¬ åĪĨ
åİŁ åĽł
Ġinflu ence
Ġmath ema
r vert
Ġ åįķ
ĠN GC
éħį ç½®
ä¾Ŀèµĸ æĢ§
Ġha ving
å°Ķ é¡¿
Ġac tive
Ġau th
Ġappe ars
Ġ limi
çº ł
éĿŀ æ´²
è ¸
)\ |
era r
under brace
tri cal
¥ ŀ
})\ \
Ġ å¤ĸ
å½¢ çļĦ
Ġ åĬł
ti os
åħ¨ çĲĥ
Ġre as
æī Ń
çĤ ¸
è· ³
)\, .\)
Ġ æīĢ
Ġon es
Ġappro priate
Ġd op
}} }{
è° ĵ
Ġwave length
é¦ĸ æ¬¡
åİĭ ç¼©
åľº çļĦ
èĴ ¸
] }\
y ond
}) }\
Ġimp lies
Ġfocu s
whi ch
ho od
Ġprofi le
r r
)\, ,
ar ge
éķ¿ çļĦ
åİŁ çĲĨ
Ġcontain s
z ero
è¥¿ åĵ¥
S A
Ġa g
text up
an ti
Ġpotential s
Ġho mogeneous
* \
b ot
h space
çļĦç Ńī
Ġat mos
Ġla yer
com mu
Ŀ Ģ
su r
Ġalter na
U psilon
tit y
geq slant
Ġ éĥ¨
mu lti
L T
Ġe fficiency
åİ Ĥ
éķ¿ æľŁ
Ġ è´¨
ç»ĵ æĿŁ
Q CD
äº ¨
ir st
è¶³ å¤Ł
Ġre duction
Ġli terature
Ġcomplex ity
å» ·
ti fic
}, {\
ois son
)} +\
Ġca pa
Ġkn ow
Ġbos on
y l
)\ |_{
è® ¢
æ¢ ¯
4 6
L E
ol i
}) +\
^{- (
Ġdis si
L O
ĭ ¬
èģĶ éĤ¦
Ġhad ron
igh ts
æİ¥ åıĹ
Ġ( {\
H D
ti li
ma gnetic
me try
åİŁ å§ĭ
éĻį ä½İ
Ġindic ate
Ġvan ish
Ġ å¾Ĺ
éĽ Ħ
mi zation
è£ħ ç½®
Ġ åīį
åį³ åı¯
Ġad van
èĨ¨ èĥĢ
Ġsyste matic
åĬłæĭ¿ å¤§
æİ Ī
= {\
ä» ĳ
Ġ- (
ä»¥ ä¸Ĭ
è¯ ±
ç»§ æī¿
\ }=
Ġco des
d dots
Ġa stro
Ġde p
å¸¦ æľī
Ġinsta bility
Ġin verse
ä¸º éĽ¶
Ġpri ma
Ġsupp ort
Ġtre at
Ġ æľĢ
åŁ ¹
åľ° éĿ¢
here nce
Ġstatis tics
Ġ çī©
æµ ĵ
æ¯Ķ äºļ
= [
æ² ĥ
Ġro bust
Ġnucle i
Ġindivi dual
éĿ Ĵ
èĭ¥ å¹²
ç±»åŀĭ çļĦ
åĿĲæłĩ ç³»
in i
ĠG RB
è®º æĸĩ
Ġide al
Ġconfigu ration
5 7
å°Ķ æĸ¯
; \)
è¢« ç§°ä¸º
Ġyi elds
igh tarrow
éĢ ĥ
æĹł åħ³
å·¥ ç¨ĭ
Ġsimu ltaneous
}\ {
åĪĨ ä¸º
è¿ĺ æĺ¯
Ġ åıĺ
od ic
te st
Ġs ince
Ġf ast
èĢħ çļĦ
Ġd r
åĩ ¯
Ġconver gence
Ġinterpre tation
æľĽè¿ľ éķľ
Ġn ow
)\, .
Ġfe ature
R ightarrow
Ġra tios
ç Ĵ
çĽ¸å¯¹ è®º
, ~
] ^{
é ³
ç» ĥ
äºĨ ä¸Ģç§į
M n
gra ph
Ġcoun ter
Ġç¡ ®
Ġrepresen tations
Ġcharacteri zed
Ġcon serv
å¿ħ è¦ģ
ä»· åĢ¼
Ġcombin ation
Ġcharacteristic s
Ġ ä»¥åıĬ
æķĻ ä¼ļ
è§Ĥæµĭ åĪ°çļĦ
N e
Ġpro ved
æĪĺ å½¹
po int
oulo mb
l vert
æķ Ľ
çĶ¨ æĪ·
åıį å°Ħ
é¦ĸ éĥ½
Ġ\| _{
Ġgenera tion
çļĦ çĲĨè®º
ç¤ ¼
Ġrep orted
( (\
å¾ ħ
Ġ å¸¸
Ġspect roscopy
n ced
º Ĳ
Ġfrequen cies
4 8
Ġ _\
äº Ī
çĽ´ çº¿
èĬĤ çĤ¹
a ss
¬ ¡
çļĦ é«ĺ
Ġre main
å¹¶ åľ¨
çĽ® å½ķ
ä¸ľ éĥ¨
åĮ¹ éħį
ŀ ¬
Ġ ĠĊ
å¹´ ç¾İåĽ½
D e
åĩº æĿ¥
ĠTh us
in os
)} ,\
tri vial
çļĦæ ²
Ġdisc over
co mple
Ġcy c
s mall
Ġ ç»Ħ
Ġare a
= ~
A C
æŃ£ åľ¨
åįı è®®
' )\
= {
Ġth in
ĠO ne
' ^
ç¬¬ ä¸ī
Ġval id
sis tent
Ġinf lation
) ãĢĤ
ä¿Ħ åĽ½
ĠR ie
Ġar gue
Ġhy po
æĭĵ æīĳ
Ġ ç»ĵæŀľ
Ġs itu
åĪ¶ åº¦
é¡ ¾
çļĦ åı¯
æĹ ¢
id al
i y
Ġp rac
å¤Ħ äºİ
Ġun it
p to
Ġpar allel
ç¾¤ å²Ľ
_{ ,
Ġin s
åĲĮ ä¸Ģ
Ġbe yond
Ġla y
Ġfor med
ou nt
æĺ¯ ä¸Ģç§į
ä¹ ³
æľī äºĽ
èİ·å¾Ĺ çļĦ
Ġobser ve
å® ¾
æľ¬ èº«
ç² ī
Ġprodu ce
tan h
è®° å½ķ
ä¼ ĳ
Ġqu as
Ġres is
Ġdyna mic
å¾Ī å¤§
å®ŀéĻħ ä¸Ĭ
å°ı çļĦ
å¯¼ ä½ĵ
ç ¹ģ
éĽ ª
c l
çĽ Ĳ
æ³ ½
ĠA r
ĠS p
è¯Ħ ä¼°
æ³ ¡
å¤§ äºİ
è¯¯ å·®
) {\
è¢« è®¤ä¸º
äºĮ åįģ
èĢĮ ä¸įæĺ¯
Ġ åĲĳ
çī §
åİ Ħ
Ġmolecu les
Ġax is
ce ed
çĶŁ äºİ
cou p
å¼¹ æĢ§
rt ing
a ran
Ġ è¿Ļç§į
pla ne
du ci
Ġexplicit ly
I N
b old
åŁĥ åıĬ
Ń åľĨ
çŃī å¼ı
å¹³æĸ¹ åħ¬éĩĮ
E T
s c
Ġexpres sion
+ (\
D A
Ġs y
Ġo pp
Ġimp act
Ġdri ven
4 9
ar th
se arch
å¼ Ł
åľ° ä½į
Ġpolynomi als
å®ī è£ħ
çļĦ åįķ
éĽĨ ä¸Ń
æŁĲ ä¸ª
ç»Ŀ å¯¹
Ġhal f
Ġexplo re
ar ith
è ķ
S e
la yer
)} }\
æĭ į
ĠF rom
éĢ» è¾ĳ
)} }{
å¥½ çļĦ
\ }_{
X å°Ħçº¿
g ory
_{ (\
Ġoscil lator
åĬŀ æ³ķ
A x
H e
Ġpro gram
å±ķ å¼Ģ
é¢Ħ æľŁ
X Y
åĴĮ çļĦ
Ġexa mine
æĹ¶ çļĦ
Ġpo si
ä¿ Ĺ
å¤ ı
åŃĺ åĤ¨
è¿Ĳ è¾ĵ
+ |\
] )
Ġexis ting
å¸ Ń
çļĦæ ģĴæĺŁ
åĮĸ åĲĪçī©
Ġsen se
Ġul tra
Ġbeco me
Ġdistin ct
, &
æ ¾
å° ĸ
men ted
Ġno tion
Ġcombin ed
t inu
Ġsen sitivity
çĶļ èĩ³
s k
Ġ\( [\
}) )
æ· »
çİĭ æľĿ
åĪĨ è¾¨çİĩ
çĸ ¾
æĸ ĳ
Ġ æĸ¹
Ġbu nd
åĵ² åŃ¦
ç§ ģ
Ġtrans formation
E C
^* ,
èµ· æºĲ
wa ys
ou rier
éĢĲ æ¸Ĳ
osi te
çļĦ ä¸Ģç§į
çļĦ éĹ®é¢ĺ
çŁ ®
è¢ ĸ
æ¬ ¢
Ġear lier
p se
Ġw ri
pm od
æµ ª
sq cup
Ġsui table
ĠA dS
Ġex cess
Ġhi erar
Ġi ons
åĲĪ ä½ľ
Ġenha nce
H a
Ġ\ }.
Ġcol or
ĠT eV
çĽ¸ åıį
5 6
æľĢ æĹ©
éľ ²
g roup
l brace
è¾ĵ åĩº
Ġperturb ations
Ġsuc ces
Ġ= -
çļĦæ ŁĲ
å¤ º
Ġy oung
Ġgra di
åĻª éŁ³
B a
at u
ä¼Ĭ æĸ¯
è§Ĥå¯Ł åĪ°
Ġau to
çļĦç ½
æŃ£ å¼ı
ç²ĴåŃĲ çļĦ
Ġorigin al
æĻ º
å¢¨ è¥¿åĵ¥
åº Ł
Ġk er
åī ª
ĠæĪĳä»¬ åıĳçİ°
Ġcon cer
Ġele ment
cc c
}} _{\
Ġr un
åıª èĥ½
Ġset ting
pher ic
ed back
æ¯ ģ
ä¸¥ éĩį
ĠS O
Ġ æ³¢
si ze
æĢ§ èĥ½
} &=\
æ¯Ķ ä¾ĭ
R S
ç¼ĸ çłģ
åľ¨ è¿Ļ
å¼º è°ĥ
Ġlin k
å®½ åº¦
æĢĿ æĥ³
Ġcoe fficient
æĭ¥ æľī
Ġin put
Ġm ight
ä¹ Ŀ
Ġis su
åģ ľ
çĬ¶æĢģ çļĦ
R ic
el le
tu al
ĠM ark
Ġan s
åĲĪ æĪĲ
å¿ ½
en s
åĲį ç§°
Ġvari ations
æ°ĳ æĹı
Ġano ther
Ġbri ef
! }\
è® Ń
Ġsta tic
Ġç łĶç©¶
ctr on
éĢŁ çİĩ
Ġamplitu des
çĨ Ł
0 1
å¤§ éĻĨ
ĠN o
Ġsa tis
Ġhydro dyna
en ing
Ġho t
3 8
Ġin side
)} _{\
äºĨ è§£
Ġtrans mission
S p
Ġs ci
äºĨ åľ¨
Ġæİ ¥
Ġanti fer
b ed
Ġne ighb
å¸® åĬ©
Ġas pe
ç»ĵ çĤ¹
åıĳ å°Ħ
è§Ħ èĮĥ
çĴ ĥ
Ġ åĽłæŃ¤
Ġvari ation
å»º éĢł
Ġrepres ent
Ġprinci p
Ġsyn ch
èĮ ¨
Ġclassi fication
Ġexci tation
ĠM eV
å±ħ ä½ı
Ġkine tic
æł¡ æŃ£
é¦ĸ åºľ
Ġestima ted
è´¨ çĤ¹
Ġcorre ct
Ġir re
åľ¨ è¿ĻéĩĮ
è¾ Ľ
ting u
duc tivity
h igh
Ġto wards
G s
Ġt ree
åĽĽ ä¸ª
Ġlevel s
å¦ ĩ
^* )
Ġintr insic
Ġa ge
å°± ä¼ļ
çļĦæ Ļ
d X
f unction
Ġth ick
Ġrela tively
Ġw hat
Ġgener ic
è¿ĲåĬ¨ çļĦ
ĠWhi le
}^ +
èĬ ¬
Ġ ~~
Ġ= &
åĽł åŃĲ
en tation
ç³ ĸ
Ġgeneral ization
Ġinter nal
Ġno des
çļĦæ¦Ĥ çİĩ
åı« åģļ
Ġac tivity
è¥¿åħĥ å¹´
¤ Ĳ
co vered
Ġ\, ,
å°Ĩ åħ¶
å°Ķ åħ°
éĩį å»º
eta ry
Ġprofi les
L i
Ġ ç®Ĺ
Ġ çĲĨè®º
Ġth re
ä½ĵ ç³»
ra g
åĨľ ä¸ļ
) ^{(
èĦ ļ
tan ces
Ġ çİĩ
Ġpro be
Ġcan onical
Ġima ge
Ġ éĩĮ
éĩıåŃĲ åĬĽåŃ¦
flu id
åº¦ éĩı
Ġk pc
çļĦ ä¸¤
)\\ &=\
Ġra nk
Ġcomp a
Ġmer ger
ĵ į
}) ,\
æĪı åī§
C s
çļĦ è¶ħ
å¼ ĥ
åĪĨ éħį
Ġno te
Ġta ke
ä»ĸ æĺ¯
ä» ¿
cal led
era ture
}\, .
å¡ «
ç¢ İ
Ġcoll ision
Ġoccur s
Ġshe ar
| (
è®¡ç®Ĺ æľº
éĺ¿æĭī ä¼¯
L S
g ala
Ġ åıĬ
æĮģ ç»Ń
ç´ «
çļĦä¸Ģ äºĽ
re la
è¡Į åĬ¨
åĲį ä¸º
ffic ul
) [
Ġ å¦Ĥ
å¤ ¹
Ġdis ks
Ġnumerical ly
Ġquad ra
Ġ. \
éĢĤ çĶ¨äºİ
çļĦæĶ ¿
çİ» çĴĥ
ä¸ĭ éĻį
Ġnon trivial
gen e
Ġerr ors
Ġ æĸ¹æ³ķ
è® ¿
iz ing
po sition
Ġstruct ural
åľŁ åľ°
i ts
Ġb o
Ġm orph
Ġr ise
)- (
Ġcorre lated
p here
æĬ µ
Ġmeasu res
åģı å·®
Ġpropaga tion
Ġa xi
B e
å ĺ
è¿ ħ
), (
Ġshow ing
åĬŁ çİĩ
èİ·å¾Ĺ äºĨ
å° ļ
åı¯ä»¥ éĢļè¿ĩ
å¢ŀ éķ¿
Ġplane ts
i al
Ġde ep
ä¼½ é©¬
Ġ ä¹Ł
in duced
Ġob ject
çļĦ åħī
\ },\)
| <
at or
å¤§ çº¦
Ġexperiment ally
n tom
èĳ ¡
Ġ\, .\)
æľº åĻ¨
æķĪ çİĩ
Ġsupers ymmetric
Ġabund ance
on on
Ġg u
ur ally
ä¸į ç¨³å®ļ
A T
çļĦ å½¢å¼ı
è¿ Ŀ
çļĦæ ¼Ķ
ĠRe cent
o tic
| }{
Ġco ver
çļĦä¸Ģ éĥ¨åĪĨ
ste llar
Ġproto col
çļĦ èĥ½éĩı
Ġne xt
ĠU V
Ġho st
) <\
, ãĢĤ
M E
Ġs w
èĩª æĹĭ
}( [
)\\ &\
åĪĽ ä½ľ
B ox
æıĲ é«ĺ
Ġreas on
Ġ }}
Ġ åĽ¾
Ġ ç©ºéĹ´
Ġli fe
Ġta king
å® ª
æĬ ĳ
ç»Ļ åĩºäºĨ
å°º å¯¸
ĠM sun
^* (\
Ġbi as
_ -(
Ġ1 0
èŀº æĹĭ
æ® ĭ
å¡ ĳ
éĶ ¥
stru ction
çļĦæĮ ¯
la w
ä¸Ń å¤®
æľº æŀĦ
è§Ĵ åĬ¨éĩı
Ġradi ative
æĶ¹ éĿ©
æ°§ åĮĸ
texts tyle
è ¹
Ġ å°Ķ
Ġ è§£
Ġ ä»¶
ĠLa grangian
Ġconse quence
c ertain
Ġ çī¹
is ation
an al
ĠL orentz
èµ ĭ
ili ties
æķĻ åłĤ
çĿĢ åĲįçļĦ
ĠC oulomb
å¡ŀ å°Ķ
çĽ¸åĲĮ çļĦ
Ġachie ved
limin f
éĻ ¶
ĠP hys
åı¤ ä»£
æķħ äºĭ
å¹´ æĪĲä¸º
Ġ{ {\
Ġcon cept
ç§į ç±»
éĶ Ģ
çĭ Ħ
ç¬¬äºĮ æ¬¡ä¸ĸçķĮå¤§æĪĺ
è £ģ
Ġr ig
ä¼ ģ
ĠR es
ener al
Ġpatter n
ar g
ed om
ĠH ubb
ä½ ©
Ġinten sity
| -
Ġ åºĶ
åıĤ åĬł
éĵ ľ
| .\)
} /\
Ġpredi ct
i ver
Ġw ind
Ġanisot ropy
le vel
åł Ĩ
æ£Ģ æŁ¥
li der
Ġv ary
Ġmechan ics
)=\ {
}\, .\)
Ġima ging
å· §
åĲ« æľī
) }^{
åĲ Ľ
Ġv ol
åĬ¨ èĥ½
Ġen ti
è®¡ åĪĴ
è Ķ
Ġme s
é¾ Ħ
Ġinvol ving
åĮº åĪĨ
mo du
d W
Ġpa ck
çļĦ æľĢ
Ġb lock
èĮĥåĽ´ åĨħ
Ġassump tion
Ġ åĨħ
par tic
Ġcompu ted
L u
Ġon edimensional
Ġobserv ational
Ġa ff
çļĦ å®ļä¹ī
æĪ ¿
Ġpro ton
çĤ¹ æĺ¯
Ġsol ve
f re
Ġla st
èĲ Ħ
phy sical
Ġ âĢĿ
ä¸Ģ ç»Ħ
an o
ç« ŀ
Ġdiffere nces
cri p
Ġden se
Ġsen sitive
| =\
Ġp ur
Ġdi v
ir d
Ġsub se
æĪĳä»¬ çłĶç©¶äºĨ
Ġcoupling s
Ġvor tex
d w
ı è¿°
åľ¨ ä¸Ĭ
Ġn arrow
Ġper fect
Ġgala ctic
Ġgamma ray
nu cle
F R
Ġ ç§°
åħ ¼
}) -\
Ġformu lation
å¾Ģ å¾Ģ
Ġa dap
Ġw all
ä¸ª äºº
Ġç ¦»
çļĦç¬¬ ä¸Ģ
ľ Ł
Ġdi fficul
Ġsepa ration
Ġ æµģ
ĠS ur
ĠThe y
æĮ¯ å¹ħ
Ġcool ing
R o
Ġ& :=
Ġsta tionary
Ġplane t
for med
Ġconclu de
éĢ Ķ
åģ ¥
é¢Ĩ è¢ĸ
çļĦæĮ ĩ
ä¸Ģ ç³»åĪĹ
\| \)
Ġac cor
Ġfermi ons
Ġo c
ç²¾ ç¥ŀ
çļĩ å¸Ŀ
¾İ åĽ½
M M
¾ ¤
åľ¨ ä¸Ģä¸ª
Ġca vity
åıį åĲĳ
Ġquanti ties
Ġrequi res
Ġestablish ed
ä¸ĭ éĿ¢
æģ ¶
å¾®åĪĨ æĸ¹ç¨ĭ
T T
ç¨ İ
æĭī æł¼
çĬ ¯
èĴĻ çī¹
Ġrea ction
D S
P C
çĮ İ
Ġconfigu rations
Ġc at
åľ° æĸ¹
ç£ģ æĢ§
] }(
Ġ æĺ¾ç¤º
Ġæ ®
èĭı èģĶ
Ġphenomen a
Ġ è¶ħ
re en
æĶ¹ è¿Ľ
r als
å±ŀ æĢ§
åıĤæķ° çļĦ
Ġem it
Ġ ç»´
Ġflow s
^* _{
ä¸ĭ æĿ¥
åĬł ä¸Ĭ
Ġ ç³»ç»Ł
åıĤ ä¸İ
Ġdepend ing
éĵ¾ æİ¥
Ġdemonstra ted
e ff
u psilon
è® ¯
çĶµ èĦĳ
åħ¨ éĥ¨
Ġker nel
æ ©
Ġre search
èİ· åıĸ
tiv ated
ä»¤ äºº
X iv
n x
Ġ åĩ½æķ°
f g
di a
éªĮ è¯ģ
Ġ å¸ĥ
Ġra tional
åı¯èĥ½ æĢ§
å°¤ åħ¶
Ġ ä¸ŃçļĦ
æ²³ æµģ
çĳ Ł
G R
æ³¢ æ®µ
çĽ® çļĦ
igh ted
}} -\
Ġcomplete ly
Ġo dd
) &\
D i
æĿ ĳ
æĺ¾ èĳĹ
Ġprec ision
& -
d den
è®¾ å¤ĩ
Ġin su
Ġco ho
Ġsh ell
è¿Ļæł· çļĦ
Ġde l
æİ¥ è§¦
Ġmateri als
åŁº åĽł
)| ^{
Ġcommu nic
è·¯ æĺĵ
åĬ¿ èĥ½
Ġexhi bits
Ġw in
å½ ¼
og onal
Ġinclu des
è¿ İ
çļĦç ´
T M
le n
ri d
Ġæ Ł
æīĢ è°ĵ
é¢Ŀ å¤ĸ
Ġusu al
D u
^ -(
éĺ ´
è®¡ çĶ»
çļĦæ ¯ı
Ġhydro gen
Ġ æµĭéĩı
åĵ ª
C N
Ġse ctor
åħī æ»ĳ
] {
o ff
le y
Ġu pon
ni hi
mon d
Ġfe edback
B H
d ent
Ġ ç©¶
çļĦ æĹł
Ġme son
I J
çļĦ æķ°æį®
åĲİ èĢħ
å¾Ĺ å¤ļ
çīĽ é¡¿
P T
åľ° åĿĢ
Ġæ ¶
Ġcate gory
M o
Ġco inci
æ³¢ éķ¿
Ġmechan isms
åĢĻ éĢī
i math
è ª
ma te
er r
æĪĳä»¬ çłĶç©¶
æĭī åħĭ
led ge
çľĭ åĪ°
Ġdescrib ing
Ġgener ally
éĤ£ éĩĮ
P a
Ġ éĿŀ
Ġe lastic
å¼Ģ æĶ¾
Ġdefin ition
Ġmetal licity
g cd
Ġof ten
è´ Ń
ä¸ĸçºª æĹ¶
ch es
çļĦæ ı
ĠD elta
ä½Ĩ åľ¨
duci ble
}\ |\
å¯¹ è±¡
d V
Ġ( -\
ore m
å¹´ ä»»
^{* }(
roma gne
æ·» åĬł
Ġth ough
ma tically
Ġm id
ç»ĵæŀĦ çļĦ
ill s
Ġmagne tization
A A
th is
ç¥ ¨
è¯ķ åĽ¾
}{ (\
ä»£ åħ¥
bu lar
Ġlocal ly
Ġou ter
' ,\
o ther
Ġin stru
åıĺ ä¸º
å·¦ åı³
genera te
å°ı äºİ
F ermi
ar c
ste ad
Ġp hi
èµ ŀ
åĪ¶ ä½ľ
Ġconta ct
Ġtunnel ing
i rical
ç» ĳ
Ġas ymmetry
temp erature
Ġ è®¡ç®Ĺ
åı Ļ
par t
ĠR ic
å¤ļ ç§į
è· Ł
) )}
G B
brac k
å³ ¡
å¹´ æľĪ
ĠC ol
åĬ¨ ä½ľ
oci ties
Ġsign als
Ġmodu li
æ¶² ä½ĵ
ra tes
Ġ\ !
li ca
ä¸Ń éĹ´
Ġsele ction
e ded
Ġcon sta
ul l
Ġa im
å® ı
ab a
}\, ,
è° ĭ
ç¾¤ çļĦ
Ġesti mation
exis ts
or ing
æĹ¶ ç©º
æ¬ ¾
äº¦ ä½ľ
Ġsugges ted
èĳ¡ èĲĦ
Ġprop or
Ġhar monic
h al
å¹´ çļĦ
Ġexact ly
Ġfre edom
å¯Ĩ å°Ķé¡¿
man nian
Ġalterna tive
Ġ ä¹ī
ĠH ilbert
ĠS ince
f rom
æĪĳä»¬ èĢĥèĻĳ
p ol
Ġ tau
ng u
æĿĥ åĬĽ
Ġaccele ration
çļĦæ¸ ©åº¦
Ġconve x
{ [
te lli
ç¦» æķ£
_* (
åħ´ è¶£
Ġenha nced
& &
r brace
ĠB ased
åĲİ çļĦ
Ġsi mpli
Ġorder s
æĶ¿ çŃĸ
åı¯ è§ģ
)) (
ç»Ħ çļĦ
Ġreal istic
æĽ¾ åľ¨
' )^
= &\
_{ |\
ab ly
ĠP o
åŃĹ æ¯į
ä¿Ħ ç½Ĺæĸ¯
s ystem
Ġin fin
çļĦæ ´
åĲĮ æŃ¥
èµ ¢
ç« ¥
tw o
ĠæĪĳä»¬ æĺ¾ç¤º
Ġinter ference
ra ys
æµ ħ
è¿Ļ ä¸¤ä¸ª
è¿ħ éĢŁ
B C
u nd
ç§ Ĵ
ĠS D
iz ations
Ġen ough
å½Ĵ ä¸Ģ
Ġtarge t
Ġ åĪĻ
Ġre si
Ġn m
éħ µ
çľŁ ç©º
çļĦæ° ´
c ti
Ġdistribu ted
c ar
text normal
æ¯Ķ å¦Ĥ
Ġato m
} '(
or al
è°ĥ æķ´
çľŁ å®ŀ
Ġor bits
Ġ è¿ĳ
Ġmecha nical
Ġbra ne
}) }{\
æĿ Ĩ
Ġma kes
ç¬¬ä¸Ģ æ¬¡
bili ties
åı Ľ
ä¸º ä¸»
Ġpla ce
Ġrenormal ization
\ !\
ra ting
Ġimp lications
| )
Ġcomp ound
Ġmu l
æĶ¶ æķĽ
ĠSta ndard
- (\
å¹ ¼
çĶ± æŃ¤
æĺŁ éĻħ
çļĦ åŁºæľ¬
ï¼Į ãĢĤ
Ġtr ue
}\ \\
ĠB a
å®ĥ æĺ¯
Ġver i
Ġanomal ous
b re
åľ¨ æľ¬
Ġdi pole
Ġen semb
çŃī ç¦»åŃĲ
Ġden o
çŁ¥ è¯Ĩ
K L
Ġ )=
åĨ· åį´
o op
Ġ å½¢
å¤§ å¤§
Ġdis order
ĠTe lescope
Ġ è¿Ľè¡Į
Ġa rc
Ġsa telli
Ġvari ability
ĠGa mma
å¯¹ è§Ĵ
ĠJ a
Ġassu med
åĬł éĢŁåº¦
æ¡ ¥
u ds
åĩ ¡
Ġyi eld
q q
d g
Ġex clu
èĢĮ è¨Ģ
6 9
b lack
Ġ( (
åĽł æĸ¯åĿ¦
pla ce
æĵįä½ľ åĳĺ
la nd
ç¢ į
å¾ĹåĪ° äºĨ
Ġre ce
å±Ĥ çļĦ
æİ¢æµĭ åĻ¨
N N
sp in
Ġnat urally
é¼ ĵ
Ġdis tances
æľĢ å¤§çļĦ
åıĺ æĪĲ
é«ĺ æĸ¯
Ġconstra in
Ġc ru
åŃĲ éĽĨ
çļĦç ¡
é©± åĬ¨
Ġpatter ns
Ġ åħ¥
æŀ ª
è¡Į çļĦ
ĵį ä½ľ
æĪĳä»¬ éĢļè¿ĩ
are d
Ġnear ly
C on
an s
å®ļ å±ħ
åıĸ ä»£
}] =
Ġexplain ed
åıª æĺ¯
æ¼Ķ åĩº
éĢĤ åºĶ
Ġin ho
Ġal ways
æ¯Ķ çİĩ
èĢĥèĻĳ åĪ°
y y
¨ ³å®ļ
æ¨¡ åĿĹ
}| _{
not in
ç»¼ åĲĪ
f lat
Ġ çĶ¨äºİ
int y
åĨ ł
Ġme ta
å¯¹åºĶ çļĦ
Ġ éĩį
Ġbe fore
ĠB ose
åıĳ æĺİ
åħ¨ åĽ½
}\\ &
Ġconsis ts
éĹ» åĲį
' =\
çĪ± å°Ķåħ°
Ġexpres sions
Ġg iant
è£ħ é¥°
Ġband s
çļĦ ä¸»
Ġis ot
ä¼ ª
Ġvel ocities
çĹĩ çĬ¶
è¸ ª
åĪĨ è£Ĥ
olu te
Ġ$ \
Ġimpro ved
y z
è¡¨ç¤º ä¸º
Ġ æŃ¤å¤ĸ
çº µ
Ġh ol
Ġsu mma
Ġev ol
de an
å¹´ èµ·
å¤§ æ°Ķ
ori al
Ġ lambda
,\ ,\,
è¡ £
Ġdete ct
å¤ ľ
Ġ åħ³
Ġ åıĳçİ°
is ted
ĠH all
Ġimp u
åı¯èĥ½ çļĦ
åħ± äº§
éģ¿ åħį
Ġprima ry
, ~~
b es
t x
Ġ ^{-
Ġmo ments
mber s
ç °
Ġfi ve
ä¼¦ æķ¦
çĿĢ åĲį
ä¸° å¯Į
g ni
çļĦ ä½ľåĵģ
mi r
åī ¯
min i
è Ŀ
Ġse quences
ke t
çļĦæ ±
;\;\ ;\;\
è£ Ķ
Ġagain st
Ġenti re
| .
Ġæ ¡
1 67
S C
æĿ¡ çº¦
çº§ æķ°
X åħī
Ġver tex
Ġconstra int
åĨ² åĩ»
çĩ ĥ
Ġdep th
ĠF ourier
Ġsupercon ductivity
Ġlog arith
} <\
Ġpres er
åħħ åĪĨ
ä¸Ĭ è¿°
:=\ {
Ġphenomen on
è¯Ĺ äºº
æįŁ å¤±
æīŃ æĽ²
Ġ ä¸Ģç§į
Ġle pton
å¹² æ¶ī
Ġellip tic
k x
Ġ }=
çī© çļĦ
con sistent
æĸ° æĺŁ
Ġar ise
Ġcorre ction
å®ī åħ¨
| +
æĺ Ĩ
ç±» åĪ«
å¤© ä¸»æķĻ
éĿĻ æĢģ
çļĦæ· ·
+ }
çİ° å®ŀ
den sity
Ġse ctions
ç»´ äºļ
Ġsub sta
quen cy
é¢Ĺ ç²Ĵ
Ġk ms
[ -
Ġe ff
å¹³ çŃī
çļĦæİ ¨
ĠA d
Ġdis covered
_{ {
çļĦ æĢ»
çļĦç ģ
è¿Ľ ç¨ĭ
Ġmodel ing
å¿ĥ çĲĨ
Ġconven tional
Ġ æķ°æį®
el ian
Ġcar ried
Ġ åĮħæĭ¬
on om
al k
è¿ Ń
ä¸Ģ ç»´
ĠT wo
Ġcol d
æ¶Ī å¤±
Ġ },
Ġæ Ħı
è§Ħ å®ļ
Ġout flow
fer red
Ġturbule nce
R a
Ġqu ali
åı¯ä»¥ åľ¨
åĽ¾ å½¢
Ġin e
ç¨ Ģ
}}\ \
è¯ģ å®ŀ
Ġcompu tational
down arrow
Ġç« ĭ
Ġconsta nts
Ġ= (
ä¸į è¿ĩ
å¾Ī å¤ļ
åľŁ èĢ³
Ġcapa city
Ġw ar
Ġdis tingu
S R
Ġe asi
Ġj ets
Ġac ross
èĥ ¡
å¤į åĲĪ
} :\
rou ps
Ġspect roscopic
ä¹ĺ æ³ķ
] -
r is
r ceil
Ġu ser
^+ _
Ġ éĥ½
ĠO b
Ġinter fer
bra tion
Ġrelations hip
Ġth ird
åħ Ħ
çĶ¨ ä½ľ
Ġ æľŁ
in frared
çĶ ĺ
Ġobserv ables
éĶ ¡
å¢ŀ å¼º
æİ¢ ç´¢
,\,\ ,\,\
æŃĮ åī§
Ġexci tations
Ġrema ins
Ġsi mp
bri d
Ġsufficient ly
Ġassump tions
v ices
st u
Ġembed ded
Ġs harp
å¥ ī
æ²» çĸĹ
Ġclo ud
æİĴ åºı
ĠT c
åī ©
èĩªå·± çļĦ
Ġillu stra
al e
éļ ¶
Ġwa ter
æ½ ®
Ġ å®¶
Ġ å°Ħ
di ag
Ġcomp an
çļĦç ¤
Ġnon zero
æµģ åĬ¨
e e
èĢĮ æĺ¯
ä¸ī ç§į
æİ¨ å¯¼
ĠR o
ç©º æ°Ķ
ĠA ll
Ġwe ight
åıĺ å¾Ĺ
an ts
æµ· å²¸
Ġfollow s
åĵģ ç§į
Ġ è½¬
ĠG ra
Ġcharacteri ze
Ġ äºļ
Ġe ta
Ġexpe c
Ġphoto metric
Ġmathema tical
re ady
èĦ Ĥ
a ms
Ġs lo
ç¨ ³
å¥ Ī
åĭ ĥ
çł´ åĿı
bur st
T i
ĠA pp
çŃī ä»·
ĠAl though
Ġdomin ant
Ġdomin ated
{ -\
Ġf rag
mp ing
Ġde c
eli hood
on a
åĢ Ĵ
éĵģ è·¯
Ġsche mes
Ġexci ted
åĸ· æ°Ķ
çĸ¾ çĹħ
m ory
Ġ\ #
Ġe V
sf ul
ĠæĽ ´
crip ts
ä¼ Ł
ve ys
çļĦç Ĭ¶æĢģ
Ġanisot ropic
S Y
èħ º
å¹² æī°
è§Ĥå¯Ł åĪ°çļĦ
, -\
Ġn g
left rightarrow
åº¦ åĴĮ
æĺŁç³» çļĦ
ta tively
ta inty
Ġt u
æŁ ¯
æ¤ ŃåľĨ
Ġweak ly
åµĮ åħ¥
¬ ¦
çļĦ è§£
}- (
éľ ĩ
Ġcompu ting
Ġem pha
E P
l ceil
Ġp p
Ġnon commu
(\ {
mp ling
Ġpa ss
ä¹ĭ å¤ĸ
Ġun certain
Ġsymme tries
åĸ· å°Ħ
Ġru le
åīĸ éĿ¢
Ġgenera te
èį· åħ°
ĠP oisson
æİ Į
Ġç ķĮ
Ġna mely
i ent
ĠS ome
p an
ä» °
gh t
Ġknow ledge
pha se
ĠB ay
Ġ åľº
ç² ĺ
Ġinter face
å¸Ĥ åľº
Ġdevelop ment
ç´§ åĩĳ
C M
Ġreson ant
åį« æĺŁ
Ġ ä½¿
éĩĮ æĸ¯
a f
ab c
åıª è¦ģ
èħ Ĳ
Ġcho ice
å´ ©
A r
T e
Ġpredic tion
cor po
ski p
çĤ İ
duc ts
åįģ åĪĨ
å®ļä¹ī çļĦ
g l
h ed
ä½ľ æĽ²
iv en
éģ ĩ
ç»ı å¸¸
ç»ĦæĪĲ çļĦ
ä¹Łå°±æĺ¯ è¯´
row ave
ä¸Ģ æĿ¡
å± ¿
å¤ª å¹³
do w
it ons
Ġsele cted
struct ure
ç± į
æŁĲ ç§į
ĠMark ov
Ġquadra tic
çĶŁ éķ¿
equ ilibrium
Ġro tating
æĪ ´
æŃ¤ æĹ¶
Ġhel p
C h
Ġi m
åŃ¦ æł¡
æĬ Ľ
é¢ĳ éģĵ
Ġproje ctive
Ġam ount
}^{ +\
gra vity
æ®ĸæ°ĳ åľ°
Ġ éĻĲ
ä¹ Ļ
åĪĨ æĶ¯
Ġsplit ting
z es
is en
Ġso called
Ġdetermin ation
Ġdecomp osition
w or
æ³ķ åħ°
è¡Į æĶ¿
é² ľ
Ġdescrib es
çĽ¸åºĶ çļĦ
E x
Ġma n
8 33
= }
] )\)
or bit
åľ¨ ä¸Ģèµ·
Ġg et
å¦Ĥ æŃ¤
éļ §
Ġla ngu
Ġexpon ent
¢ éĩı
ra phic
ä¸º åŁºç¡Ģ
Ġæ ±
æĸĩ çĮ®
Ġreson ances
è¿ Ł
ĠH I
)\, ,\)
æĸŃ è£Ĥ
éĢĤ åĲĪ
E instein
d al
w i
è¯ ī
å± ĭ
æŁ¥ çĲĨ
form ing
( |\
Ġre cur
Ġ è¡¨
Ġ æŃ£
Ġsp here
ĠRe v
Ġcar bon
{ }
çļĦ æľī
ä¹ ı
di aba
çŃī çº§
}| ^{
çŁ©éĺµ çļĦ
çļĦæ ¡
åĸ Ģ
C ar
è¥¿ æĸ¹
èĤ Į
ç ĺ
+ {\
j oint
vi o
ç¾ Ĭ
Ġcontain ing
Ġru les
Ġcondens ate
ĠG e
åĬĽ éĩı
the ory
}{ |\
Ġ åħĭ
Ġre li
cer tainty
L R
Ġ= -\
nd ra
æĺ¯ çļĦ
Ġta kes
çļĦçŁ ©éĺµ
Ġscenari os
ä¼Ĭæĸ¯ åħ°
ĠB oth
çĲĨè®º ä¸Ń
å¥¥ åľ°
å±ħ æ°ĳ
çļĦå¤§ å°ı
æīį èĥ½
äº¨ åĪ©
P ro
½ ľ
Ġ æŀĦ
Ġ åħ·æľī
Ġ\ }.\)
å® ģ
se c
æĹ¶ åĪ»
ther mal
çĵ ľ
Ġconcent ration
Ġcandida te
( ,
)= (-
ä»¥ æĿ¥
ä½ľ èĢħ
Ġla te
åıį æĺł
ĠS pe
ĠP a
çļĦç Ī
)}\ \
^+ }
Ġve ctors
A S
çĹ Ľ
å¤įæĿĤ çļĦ
Ġ åĪĨæŀĲ
ti an
æĽ´ å¤ļ
æĸĩä»¶ ä¸Ń
Ġgradi ent
G S
M ills
åĲĮ è´¨
Ġu tili
ä¸Ń å¾®åŃĲ
å¹´ è½»
Ġsi x
æķ´ ä½ĵ
Ġvis co
- {
N a
ä¿Ŀ çķĻ
å¾ģ æľį
Ġmix ed
Ġfer romagnetic
Ġillu strate
åľŁèĢ³ åħ¶
çļĦ æīĢæľī
çļĦç «
æı Ń
æķĻ å®Ĺ
Ġinter val
Ġc ite
or ts
12 3
å¤į æķ°
åĪº æ¿Ģ
çļĦ éĩįè¦ģ
Ġlocal ized
w are
å°ı åŀĭ
con tinu
II I
Ġindic ates
Ġ lon
Ġdi f
ĠY ang
Ġtrans formations
ga ni
åľ¨ è¿Ļä¸ª
ho le
Ġan nihi
C R
Ġ ä¸¤
ter min
ĠF irst
åľ° åĽ¾
èĪ °
lan ck
A P
Ġma c
Ġus es
cep ti
A GN
æııè¿° äºĨ
S u
ĠUni verse
Ġdiscover y
Ġ è®¡
Ġ æĸ°
Ġcon stitu
il s
Ġcorrespon ds
åĶ ®
å¿½ çķ¥
Ġ left
)) -
Ġcoho mology
E M
=\ |
ĠC u
Ġne eded
Ġneutr inos
Ġabs ence
} $
çļĦ åĨħ
it ter
åĳ ¢
lus ter
è¯Ń ä½ľ
Ġapproximate ly
Ġ åĻ¨
Ġre mo
cc cc
Ġtr ig
è¯Ħ è®º
é£ŀ æľº
Ġlo cated
Ġallow ed
çļĦç ¥ŀ
Ġqu ite
ç ŀ¬
Ġ éķ¿
frac tion
åľ¨ ç¾İåĽ½
)} -\
åĪĨ æķ£
ĠG reen
éĥ½ ä¼ļ
L C
ĠL y
Ġfermi on
æ¾ ³
H O
Ġ rho
Ġ ä½İ
å± ı
çĽ¸ çŃī
è´¨éĩı çļĦ
ĠLa mbda
i u
éĢļ ä¿¡
Ġer g
re n
Ġaspe cts
M F
N S
pha ntom
se ction
æİ ī
om orphism
Ġsub set
i b
Ġle ar
å´ ĩ
Ġp c
an y
æĭ Ķ
Ġas suming
po si
fy ing
Ġhyper bolic
Ġthermodyna mic
Ġlay ers
åĪĽ éĢł
Ġimpor tance
ä»ĭç»į äºĨ
Ġ ä»£
\\ &=\
æ³¨ åħ¥
Ģ æľ¯
Ġte lescope
' )=
ä¹ °
for ms
æ° ¸
è¢« è§Ĩä¸º
èĤ ¡
Ġ èĩª
at orial
mo de
å§Ķ åĳĺ
o ck
Ġp ion
è´¨ åŃĲ
Ġtreat ment
è¡¨ æ¼Ķ
Ġwhere as
çļĦæĥ ħ
Ġsucces sful
T c
æ² Ī
je ctor
èļ Ģ
å¤§ è§Ħæ¨¡
Ġtop ology
è¡° åĩı
Ġemp irical
b x
Ġ ä½į
æµ· åĨĽ
å»ºç«ĭ äºĨ
{ $
çļĦ åĢ¼
äº «
ĠL and
Ġpi cture
Ġin ver
Ġal ready
å¯» æī¾
Ġrec over
ä¿Ŀ åŃĺ
æİĴ åĪĹ
B I
ll ing
cli dean
Ġlimi ted
Ġaccor ding
s cepti
o c
æĪĲ åĥı
èµ ¤
ä¹Ł æľī
Ġal though
åĿĩ åĮĢ
çļĦ åıĮ
or n
Ġ. ,
dition al
æ¼Ķ åĮĸ
æĮī çħ§
o ts
Ġ\ },
}) _
par allel
ele ctron
æĤ £
Ġintegra ted
ĠçĦ¶ åĲİ
w idth
Ġa ctu
è°ĥ çĶ¨
æ· ¡
è®® ä¼ļ
ĠæĮ ĩ
Ġdistingu ish
ot t
åĮº åĪ«
éª ĳ
åĮĹ ç¾İ
s cal
çļĦ æĸ¹å¼ı
Ġhe tero
]= [
æļĹ çī©è´¨
quent ly
Ġsub ject
i mp
} ;\
it al
Ġor din
olog ies
çĽ® çļĦæĺ¯
åįĬ å²Ľ
Ġnear by
ç¬¬äºĮ ä¸ª
z i
Ġ right
Ġ æľº
ri ly
çĽ¸ ä½į
Ġgenera ting
åĦ¿ åŃĲ
Ġprec ise
Ġabs olute
Ġsubsta ntial
)) +
Ġ{ (
æ³¢ æĸ¯
Ġexa min
Ġinequ ality
Ġeigenval ues
h d
si der
æ³¢ åħ°
Ġcharacteri zation
çļĦæĶ ¹
Ġachie ve
H I
éĽĨ çļĦ
åı¯èĥ½ ä¼ļ
Ġju st
itz er
ä» ĺ
èİ İ
çĻ½ èī²
çª Ĺ
Ġpolar ized
Ġfla vor
Ġquark s
å³° åĢ¼
éĢļ éģĵ
Ġbos ons
Ġcomp e
è° ¢
åĳ ¼
æıĲ åıĸ
Ġfrac tional
çĦ ¦
a i
\| ^{
è¥¿ æ´ĭ
ä½¿çĶ¨ çļĦ
Ġ åĪĹ
ma r
}_ +
ĠG Hz
Ġsur veys
åį ±
çĥ §
å²Ľ å±¿
Ġ( ,
Ġma king
æĸ¹ å½¢
ul ts
æ¡ ĳ
Ġgre ater
ĠæĪĳä»¬ çļĦ
æŃ» äº¡
è¥¿åħĥåīį ä¸ĸçºª
Ġdia grams
A n
ti te
Ġæ ·
å» ī
Ġpar tition
èĦ ı
)| _{
æĿ¡ä»¶ ä¸ĭ
w p
la tes
åľ¨ ä¸Ģ
æ¯ «
as h
åĨ² çªģ
æĢ ¥
çī¹ çļĦ
æĹ¶éĹ´ çļĦ
Ġ\ ;\
è¾ ħ
Ġ| |
ten cy
éĺµ åĪĹ
ä¿Ŀ è¯ģ
è§Ĥæµĭ åĪ°
åħħ çĶµ
ä¼ĺ åĮĸ
Ġtur n
æĤ ¬
Ġabund ances
Ġsw it
æĬĳ åĪ¶
éļ§ éģĵ
å¥¥åľ° åĪ©
ma ins
æķ Į
du ctor
å®¡ æŁ¥
m or
s cale
èĩ £
æĸ¯ åŁº
}\ }
åĪ ł
é© »
è§Ĥ çĤ¹
Ġcorrespon dence
- {\
Ġin corpo
åį µ
Ġç Ĭ¶æĢģ
å¾® å¼±
Ġcandida tes
Ġ æł¼
èį £
A X
Ġwhi te
çĥŃ å¸¦
æ¼Ķ åıĺ
q x
æľĢ ä½İ
Ġvio lation
Ġpropor tional
a ves
ä»¥ ä¾¿
}= {
per turb
Ġspeci es
Ġg over
è¯Ĩ åĪ«
Ġsupercondu ctors
ĠA fter
çŃī äºº
æĬķ å½±
G e
c lo
èĮ İ
G RB
f old
Ġ æĹł
Ġs atu
æĸ¹ ä¾¿
diaba tic
Ġ åħĥ
é«ĺ çļĦ
Ġun certainty
çļĦä¸Ģ èĪ¬
å¤± è´¥
æľª æĿ¥
y pe
th an
^{( -
éĹ®é¢ĺ çļĦ
æ¹ ¿
ä»ĸä»¬ çļĦ
ä¸° åº¦
peci ally
8 333
u u
åŃ ¤
Ġper io
I T
åħ¥ ä¾µ
val u
orph isms
çļĦæĶ ¯
åĪ¤ æĸŃ
åĮ» åŃ¦
Ġe l
ab i
Ġme mory
16 67
æķ ĳ
ne t
Ġæ ºĲ
Ġæ ¬¡
çļĦç Ĥ¹
Ġconsider ing
C C
Ġde formation
æĮĩ æĮ¥
}\\ &\
å®ŀ æĸ½
å¤ĸ äº¤
Ġch alle
å «
å® Ŀ
)) ^{
ä¸ī åįģ
ä¸»è¦ģ çļĦ
Ġconf ir
Ġ ä½ķ
éĻ Ģ
Ġsp re
Ġpower law
Ġed ges
Ġinvarian ts
partic les
en ces
Ġstr on
éĥ½ åı¯ä»¥
Ġgeome trical
Ġwho le
7 6
Ġf as
è¿ Ī
Ġle n
ĠĠ Ġ
p ation
Ġon to
Ġdete ctors
èĭı æł¼åħ°
Ġtes ts
fre quency
E u
o dot
MA P
}_{ +
Ġcomp ati
æīĢ åľ¨
P s
è´ «
Ġj oint
æµģ å½¢
Ġuni tary
æ¥ ļ
æ¬¢ è¿İ
Ġbran ching
\ ,\,
v in
Ġpres ents
æĮĩ æłĩ
æ¡Ī ä¾ĭ
Ġbin aries
é ŀ
Ġd v
he res
Ġsta bili
æĭī ä¸ģ
æ¼Ķ åĳĺ
Ġanaly tically
Ġimple mentation
U T
åĲ ¬
do min
åĴĮ å¹³
par row
Ġh ence
tis m
blish ed
5 9
M O
ç¬Ķ è®°
a e
åħ¬ åĽŃ
ĠæĪĳä»¬ è¯ģæĺİ
Ġallow ing
Ġlat tices
çª Ħ
é¼ ł
è¿Ŀ åıį
ä¸į æĸŃ
çļĦæ° Ķ
Ġsingular ities
f o
ĠM il
è¾ ©
æĢ» æĺ¯
Ġeasi ly
h ol
Ġar chi
äºĭå®ŀ ä¸Ĭ
Ġcat alog
Ġ åĪ«
tu s
Ġver tices
å®¹ åĻ¨
æ¤ İ
Ġconduc tance
j a
bu la
å®Ī æģĴ
åıĳ è¡¨
åĿ ¡
Ġgeneral ize
æĳ Ĩ
Ġorth ogonal
z s
Ġmo ving
æĭ Ĵ
Ġapp lic
ç®Ĺ åŃĲ
è½¬ åĬ¨
è¶ħ å¯¹ç§°
Ġpul se
li ty
Ġv ir
Ġqu bit
Ġ æĭ¬
Ġc lu
Ġh olds
Ġ1 6
åĽł èĢĮ
Ġwell known
Ġevalu ate
å¥´ éļ¶
è®Ń ç»ĥ
Ġantifer romagnetic
Ġ èĢħ
æĭ ¼
Ġits elf
Ġfil ms
Ġaff ine
Ġ é¢ĺ
ä¸Ń éĥ¨
ne w
Ġ åĪ©
ha n
çļĦç ĭ¬
èĸ Ľ
ju ga
G P
da y
Ġfor ces
Ġclo uds
Ġdecre ase
u red
} )\,
çļĦ åħ³ç³»
du ct
éª ¤
varian ce
Ġdel ta
k ov
Ġide a
Ġdecre ases
Ġcriteri on
e ak
vi ties
Ġy et
Ġsp on
èµ¢ å¾Ĺ
æµģ è¡Į
æĮĩ å®ļ
åĨĻ æĪĲ
åľĨ å½¢
èª ī
Ġ æŀģ
ä»İ äºĭ
ä»» åĬ¡
æīĢæľī çļĦ
åį°ç¬¬å®ī äºº
è®¿ éĹ®
å¤ªå¹³ æ´ĭ
, +
D s
å¹ ķ
æł ĸ
^* =
æĸĩ åŃĹ
ç² ¹
æłĩ éĩı
çľŁ æŃ£
åıĤèĢĥ ç³»
k in
l m
v ent
Ġundersta nd
Ġcommunic ation
ĠC al
çļĦæ Ħı
èµĦ æºĲ
Ġinterpre ted
çļĦç² ĴåŃĲ
Ġinfin ity
A d
Ġ rough
å¹´ é¾Ħ
æµĭéĩı çļĦ
åĵĪ å¯Ĩ
æļ Ĥ
å¼ ¯
æº ĥ
é¡¹ çĽ®
)! }
çĭ¬ç«ĭ çļĦ
N i
re nts
åĪ Ĭ
ĠJ u
éĤ£ äºĽ
Ġun stable
oh n
åĲĮ æŀĦ
Ġentangle d
Ġcolla pse
éĥ ¡
èĢĮ ä¸į
ç¿ °
å®£ å¸ĥ
è ¤Ĳ
in variant
åľ¨ äºİ
Ġpro ducts
Ġsu scepti
Ġapp arent
Ġsi m
ä½İ æ¸©
è°ĥæŁ¥ äºĨ
Ġc all
Ġd W
çļĦæ ¶
Ġæ ¯ı
Ġsimultaneous ly
Ġirre ducible
Ġpair ing
Ġmodu les
éĢı è¿ĩ
Ġn s
ran es
æĪĺ çķ¥
Ġmic roscopic
æıĴ åħ¥
Ġhypo thesis
G A
èĢ Ĺ
res olution
di ffere
ä¸į çĽ¸
Ġtrans form
ta te
åľ¨ æľ¬æĸĩä¸Ń
}= (\
å¤ļ åħĥ
Ġar ising
Ġ è¿ĺ
Ġcomp osition
åĮĸ ä¸º
chi ld
èº« ä½ĵ
Ġ éģĵ
æĢ Ģ
äº® åº¦
L F
~ .\)
mple ctic
æ°ĳ ä¸»
æģĴæĺŁ çļĦ
Ġequival ence
Ġbrief ly
' .
\ },\
i ted
co t
æ» ¤
Ġspin s
è´µ æĹı
Ġisot ropic
Ġ.. :
åı ĭ
å¯ ¿
çº ²
éĩĮ äºļ
è¶ħ çº§
èı ľ
S r
in ing
er y
teri or
Ġdwarf s
Ġenhance ment
5 4
su s
ä¼ ı
Ġcal i
^{* }\
u al
ä¸» å¼ł
or ous
æ³ķ çļĦ
Ġpopu lations
Ġuncertain ties
ĠLand au
P O
ä¸ī ä¸ĸ
åĲĦ ä¸ª
Ġrema rk
Ġthre edimensional
Ġ çº¦
Ġa vo
ĠæĪĳä»¬ çĶ¨
Ġs light
Ġg lass
Ġexpres sed
çĪĨ åıĳ
è¿Ń ä»£
Ġsol ving
çļĦ å®ŀéªĮ
ä¸Ģ çĤ¹
Ġx y
Ġle t
å¹¿ ä¹ī
g r
Ġcircu lar
Ġfinding s
Ġ è´¨éĩı
}( (
Ġv isi
éĹ ª
å¤į åħ´
è´§ å¸ģ
c en
z a
Ġ )^{
Ġ+ (
éĽķ åĪ»
Ġd ot
ri es
}} )\
Ġspi ral
ä¸Ģ ä¸ĭ
Ġperturb ative
Ġ }^{
Ġ æŀĲ
çĶµ ç¦»
pla n
èħ ĵ
Ġpri or
ä¸Ģèĩ´ çļĦ
Ġcompa rable
ĠSur vey
\ })
s how
Ġ è¯ģæĺİ
Ġdis tor
ç¡ ħ
gre ga
ä¿® æŃ£
8 1
b ound
åĪ ĳ
ĠC MB
ĠP ar
ç¡® è®¤
Ġgre at
+ {
Ġ èĩ´
Ġs el
åŃĲ ç©ºéĹ´
éĩį å¤į
ç±» çļĦ
Ġsuper fluid
Ġdu ality
pho ton
æĬ½ è±¡
è¢«è®¤ä¸º æĺ¯
è Ń
)= {\
ä¼ Ĳ
ĠL arge
æį Ĩ
Ġnon local
Ġcha ins
Ġde vices
Ġes pecially
Ġgo al
Ġti ght
Ġ å¯¼
è½¬ åıĺ
Ġtri ang
~~~~ ~~~~
Ġasympto tically
Ġinvarian ce
ĠOb serv
Ġcon cep
Ġma pping
^* }
å¹³ æ»ĳ
çĥ Ł
Ġst ress
7 9
li p
)} |
åĲĪ çĲĨ
ç»ı éªĮ
éģĹ ä¼ł
Ġadd ress
Ġ ä¸¤ä¸ª
Ġs q
ĠS un
di al
ç»Ħ ç¾¤
è®¡ç®Ĺ äºĨ
å®ļä¹ī ä¸º
Ġglu on
Ġstrate gy
Ġdop ing
å°ı æĹ¶
éĵ¶æ²³ ç³»
Ġrepro duce
op f
é»ĺ è®¤
M L
le in
åĬł ä»¥
Ġradi i
å¨ģ å°Ķ
Ġsecond ary
ax well
e m
æĪĳä»¬ æĬĬ
æıĲ è®®
Ġtra jector
Ġsepa rate
}} |
åĿ İ
è§Ĵ èī²
Ġsol id
Ġparticular ly
cou n
u parrow
Ġma g
è¯ģ æ¯ķ
è¯ķ éªĮ
Ġtur ns
Ġmon o
Ġspon taneous
f unctions
Ġevolution ary
Ġfami lies
C ha
me tal
ä»ĸ è¿ĺ
å¸¸ è§Ħ
Ġtri ple
bel ian
) /\
p y
}( -\
çĶµ è·¯
Ġen co
}\\ &=
Ġformu las
Ġcosm ology
d B
mp s
Ġcon tent
å¿ Ĩ
Ġhe ating
èķ ¾
Ġf ore
do p
æĪĳä»¬ å¯¹
èĩª æĪĳ
éģ µ
Ġla ter
Ġtrans mit
ç´¢ å¼ķ
Ġredshift s
j o
\| =
Ġstudy ing
] ,\
| +|
ä¸º æŃ¢
res is
Ġæ® µ
t le
Ġ rich
}) (\
li ar
\| _\
je ction
åį¡ æ´Ľ
åİ» ä¸ĸ
L ong
Ġpar ts
éĵ¶ è¡Į
èµĦ æĸĻ
Ġcoordin ates
h u
è ²
Ġ å®ŀ
åįķ ä¸ª
åıĳçİ° äºĨ
ç§» æ°ĳ
åģĩ å®ļ
rela tivistic
ter n
i um
s pa
Ġ èī²
çļĦ ç»ĵæŀĦ
æ³ Ĭ
Ġse cu
)] =
Ġå¹¶ ä¸Ķ
Ġreve als
Ġconduc tivity
æŀ Ŀ
bra ne
Ġquanti tative
é¥ ±
Ġplan ar
çļĦæĽ ²
Ġpur pose
Ġnoncommu tative
Ġa mb
çļĦ çī¹æĢ§
çļĦ æĢ§è´¨
èĢ ¦
to ff
Ġlaw s
é½ ¿
çļĦ æŃ£
åľ¨ é«ĺ
éĹ´ éļĶ
åıĳ éħµ
æĮĩ ä»¤
ç±»ä¼¼ äºİ
Ġsingular ity
çºł ç¼ł
æĭīæł¼ æľĹ
al ities
)\ \\
ä½İ äºİ
Ġcompu ter
Ġordin ary
] )=
are st
åĪĻ æĺ¯
è½¨ è¿¹
SS M
å·¨ å¤§
N C
åŃ Ł
æľī è¶£
Ġk ind
pro cess
æĥ Ĭ
Ġsa mpling
åįı åĬ©
Ġ æĸĩ
Ġre duce
Ġma s
Ġoscil lation
Ġvisco sity
Ġ æĭī
ä¸ Ľ
éĩı åĮĸ
è° Ķ
Ġprovi ding
çĽ¸å¯¹ åºĶ
åĪ° å¹´
è° Ī
Ġpar ton
10 0
Ġ tion
ign ment
é£ŀ è¡Į
èŃ ¦
åĮ Ī
å¥ ĳ
Ġconstra ined
¬ §
çļĦ åĪĨæŀĲ
Ġb ase
å¿ ł
éĽĨ åĽ¢
Ġdo mains
Ġspatial ly
åĵĪå¯Ĩ é¡¿
on ent
Ġp en
Ġb ody
Ga ussian
Ġcol um
Ġsimu lated
Ġassu me
æľ¬å¾ģ åĢ¼
Ġ çĶ±äºİ
çļĦ çī¹
Ġex pa
Ġç ĿĢ
å¤© æĸĩ
åĪĽ ç«ĭ
Ġwi re
Ġç ĥŃ
)}{ |
Ġlik elihood
Ġ }.
åŃ¦ çĶŁ
åĵ ©
è¯ ¾
çĽ ¾
ĠP A
è¶ħå¯¼ ä½ĵ
ĠThere fore
c ence
çļĦ å·¥ä½ľ
)= |
æĪĳä»¬ ä»İ
Ġ~ \
Ġbary on
isen berg
ĠI R
Ġphoto metry
Ġinteg rals
æĥ¯ æĢ§
A F
åľ¨ ä¸ĸçºª
ĠB row
Ġorder ing
ä¼¦ åħ¹
å¸Į æľĽ
ĠW il
è¿ĻäºĽ ç»ĵæŀľ
åĲ¸ å¼ķ
åĬ© äºİ
Ġopti mization
çļĦç±» åŀĭ
Ġ ä½ľä¸º
è®® åĳĺ
Ġcaus ed
§ åĪ¶
ĠS o
æ¼ «
å°ĳ æķ°
é£Ł çī©
Ġ æĹ¶éĹ´
}^{ [
åĲį åŃĹ
' .\)
re a
å¼ķ åıĳ
Ġ\; =\;
Ġloop s
åľ¨ åħ¶
åŃ¦ çļĦ
æĸ¯ çļĦ
Ġra y
ç»Ł ç§°
Ġmic ron
anal y
z y
Ġ rm
Ġ }=\
ç§ ©
ys is
ten tion
re ct
Ġhi dden
Ġrespon sible
Ġæ° Ķ
n ation
Ġthe ta
ck s
Ġsemic on
Ġin stead
æĹ ¨
ä½Ľ æķĻ
Ġcy cle
Ġ æľĢåĲİ
Ġregi mes
Ġc e
}} }{\
Ġi ron
Ġde g
æ³ķ éĻ¢
æı ´
Ġno de
ll l
ç¡®å®ļ æĢ§
Ġwork s
å¦ »
Ġcru cial
n ti
èĤ ł
æī¿ è®¤
G eV
| >
Ġ é©¬
Ġ\, =\,
èĥ İ
)| =
ä¹ĭéĹ´çļĦ åħ³ç³»
ç¼ĸ è¾ĳ
\; .\)
\ :
f ically
p os
ä¸į ä»ħ
ĠP e
Ġqu ality
Ġmar gin
ĠQu antum
ĠSu per
Ġ å¾®
æīĢ éľĢ
åĪĨå¸ĥ çļĦ
çŁ³ å¢¨
çĪ± åĽłæĸ¯åĿ¦
Ġfit ting
Ġc ub
äºº æ°ĳ
åĩº çĶŁ
èĩª æ²»
Ġobserv able
Ġsupers ymmetry
Ġm i
Ġco o
çļĦ åĬ¨æĢģ
åº Ĭ
åį ĸ
è¿Ĳ çĶ¨
åħ¶ä¸Ń æĺ¯
H IC
i er
çļĦ åŃĺåľ¨
Ġd one
ä¸Ń æľĢ
hy dro
éļľ ç¢į
i ms
ä¸ ĺ
re sul
math op
ĠE arth
Ġele mentary
åĩł ç§į
å½¢æĪĲ çļĦ
v olution
Ġ äºĮ
Ġ éĩıåŃĲ
),\ \\
sto od
Ġplan etary
Ġturbule nt
Ġ åıĮ
de te
ĠM g
sta tic
}] \
M e
)= {
pro pto
èĭ ¯
sup set
fe re
èĦĬ æ¤İ
Ġpro g
ĠI a
Ġæ ģĴæĺŁ
Ġor dered
Ġro tational
Ġdire ctions
Ġs par
Ġto o
Ġr ings
row eak
åĽŀ åĪ°
Ġlarges cale
Ġmes ons
Ġs izes
)) }{
po tential
Ġnucle on
^ +\
è¡¨ å±Ĥ
Ġrep la
Ġrela tivity
* }
æĪĳä»¬ çļĦç»ĵæŀľ
éĹ´ çļĦ
è¿ĩ åİ»
åįģ äºĮ
asi mir
8 2
Ġde lay
ng ed
éģĵ è·¯
ma tics
çļĦ çº¿æĢ§
cal ly
ex t
po ch
Ġconsis ting
ĠæĽ ²
è¹ Ī
R u
çº¦ ç¿°
éĩĬ æĶ¾
åĨį æ¬¡
ĠRes ults
ĠG au
Ġtheore tically
æĵ ¦
ç¼ĸ è¯ĳ
åĵ¥ ä¼¦
n p
çļĦ åıį
çļĦ è®¡ç®Ĺ
Ġb al
Ġprac tical
e red
æĪĳä»¬ å±ķç¤ºäºĨ
Ġclo s
Ġpri me
ļ Ĺ
Ġar ises
å·ŀ çļĦ
è§£ æŀĲ
\{ (
ä¿Ŀ å®Ī
_+ ^
é»ĳ èī²
éĢı éķľ
k r
x z
ĳ ç»ľ
ĠL o
},\ ,
å®¶ åĴĮ
fic ations
éĢī ä¸¾
Ġdiscu s
Ġclear ly
L HC
ç® Ń
ä¿¡ ä»°
è½¯ ä»¶
æº¶ æ¶²
I D
Ġ åŁŁ
Ġ( ).
åĢ º
æŃ¥ éª¤
è´Ł è´£
èĽĭçĻ½ è´¨
' _{\
Ġ\ }\)
ome try
éĢł æĪĲçļĦ
ä¸»ä¹ī èĢħ
æ¦Ĥ æĭ¬
}^{* }
ma s
ss ess
Ġat ta
tribu tion
algebra s
H S
i ons
éĩį å¤§
Ġar Xiv
Ġun known
Ġlong itu
Ġsatis fies
res olved
è¿Ľè¡Į æ¯Ķè¾ĥ
çĿĢ ä½ľ
å¤Ħ çļĦ
Ġprop os
Ġopera tions
Ġvary ing
Ġ ç»ĵæŀĦ
çļĦ æĹ¶åĢĻ
ĠT i
ç´ ¯
æ± Ł
è®¡ç®Ĺ åĩº
éĶ ģ
æĮĩ åĩº
èħ ¹
Ġderiv ative
ç¿ ¼
Ġlarges t
Ġdissi pation
I d
a ges
Ġphenomen ological
Ġtor us
P e
or dered
æī «
Ġcate gor
, |
f u
äº ¬
ri al
Ġpol ym
Ġmetal lic
Ġdiag onal
Ġconfir med
pi te
Ġsi te
èĬ Ń
æ¡ £
æĮ¯ èį¡
Ġcryst als
d le
e sian
åľ¨ è¿Ļç§į
ter m
ment um
ran k
ĠæĮ ¯
rac tion
ĠE q
è®¾ æĺ¯
æľīéĻĲ çļĦ
Ġmodu lation
ä¹ĺ ä»¥
Ġcontrol led
Ġo xy
at ory
Ġwe ighted
çİ° æľī
Ġvari ational
æł· çļĦ
Ġconse quences
! (
D R
si vely
ä¸Ń æĢ§
Ġtime dependent
Th is
æŃ» åĲİ
ob serv
Ġtool s
Ġ ^\
Ġ çī¹åĪ«æĺ¯
)\ }
ĠB er
Ġç ¾¤
Ġsi tes
èĬ Ŀ
Ġinvestiga tion
é»ĳ äºº
coup ling
f it
m ig
ª æĸ½
Ġ åŃĺåľ¨
çī Į
Ġex ceed
æºĲ äºİ
çģ Į
Ġge ode
åı¦ ä¸Ģç§į
Ġ çĲĥ
Ġ è°±
ä»¥ èī²
åĨ Į
åĽ½ ä¼ļ
æĿ¥ æııè¿°
Ġcur rents
Ġinclu ded
ç¼© æĶ¾
çļĦæİ Ĵ
ä¸ĵ éĹ¨
çļĦ ä½ľçĶ¨
at op
ĠG L
æĴ ¤
Ġbright ness
æ ¦
ä¸Ń æľī
èĭ ¦
ç£ģ åĮĸ
èħ Ķ
gala ctic
Ġ }_{
is ely
æĪĳä»¬ è¡¨æĺİ
çļĦç ¨ĭ
ä½¿ ä»ĸ
reg ular
b s
~ ,
ous tic
Ġcorrespon d
ç©Ĩ æĸ¯
c lin
Ġv o
æĪĳä»¬ æıĲåĩºäºĨ
æĿ¥ çľĭ
å½ĵ éĢī
ä»» åĳ½
depend ence
Ġbel ong
çļĦç¼ ĸ
Ġ éĥ¨åĪĨ
åĨ »
Ġco res
Ġme mbers
åĳ¨æľŁ æĢ§
ç»ĺ çĶ»
èĸĽ å®ļ
S L
Ġand or
ä¸º ä¸Ģ
it ing
å¥ ĭ
Ġover all
Ġmic rowave
Ġextre mely
N L
d ri
| ^\
Ġ\\ &=\
ĠSD SS
Ġs ky
}^{ -\
åħ¬ åħ±
w ers
è§ Ī
tain ed
Ġpossi bly
J a
éķ¿ çº¦
èĤ ĸ
å§Ĩ æĸ¯
å¼ķåħ¥ äºĨ
b os
Ġat tribu
åĨħ ç§¯
ç¥ Ń
è¿Ļä¸Ģ çĤ¹
Ġ åĩĨ
ma nif
ç¥ ĸ
Ġtemp oral
Ġsol ved
çĪĨ çĤ¸
æ±½ è½¦
n ity
Ġ å¼Ĥ
æľī åı¯èĥ½
Ġsign ature
é¡¶ çĤ¹
çļĦ å¤ĸ
Ġin g
T x
æĹ ¦
åı¯ å¾Ĺ
äº§ äºİ
æ¶ ħ
}\\ &=\
è¾¹çķĮ æĿ¡ä»¶
åĪł éĻ¤
min ation
Ġequ i
Ġche ck
Ġco st
å¯¹ æķ°
æī ¬
ĠI II
æ´ ģ
Ġcy lin
Ġæ° ´
x a
Ġ åı¯èĥ½
par tite
Ġk e
ç½ ķ
å¤§åĪ© äºļ
Ġauth ors
A M
Ġ éĽĨ
Ġfi la
Ġvari ance
Cu O
å¹´ åİŁåĲį
æł¸ æł¸
Ġlimit ing
Ġincre ased
Ġsugges ting
çĶµ åİĭ
Ġnon equilibrium
æŀģ ç«¯
åĤ ħ
è¡¥ åħħ
å§Ķåĳĺ ä¼ļ
t ten
ma t
çļĦ ä¸Ĭ
çļĦ ç³»ç»Ł
ĠH D
éĿŀ éĽ¶
ä¸ľ åįĹ
éĿĻ æŃ¢
Ġ åıĤæķ°
è¿Ļ é¡¹
to kes
ä¸Ĭ å¼ı
æİ¥ æĶ¶
Ġåľ¨ æľ¬æĸĩä¸Ń
Ġrecon struction
ose ph
Ġcoordin ate
è² Į
_ +\
a ra
g ent
g ine
Ġfor ward
å¼ķ çĶ¨
cri tical
Ġ\{ (
ĠAl so
è¡į çĶŁ
çļĦæĻ ®
ci ties
æľĢ å¤ļ
æĺ ¥
åįģ åŃĹ
åĪĨæŀĲ äºĨ
Ġpuls ar
a w
i int
| {\
çļĦ æĹĭè½¬
é¦ Ī
åıĳçİ° çļĦ
åį¡ å°Ķ
Ġreal ized
Ġastro physical
black triangle
Ġh eli
è½ Ń
Ġda ys
tt le
Ġtrac e
Ġpu blished
Ġargu ments
å¹ Ĥ
è¾ ŀ
Ġas ymmetric
}+ {\
y x
çļĦ çī©çĲĨ
åĪ ·
çļĦç ¦»
\, (
èĢĮ åľ¨
å¯Ĩ åĪĩ
Ġexten sions
Ġmain ly
èĽ ĩ
ĠæŁ ¥
Ġsatelli te
S I
Ġ rou
Ġ å¾·
çļĦç ľŁ
sta tes
\, ,\
è¶ħ æĸ°æĺŁ
è°ĥ èĬĤ
Ġiden tical
çĨ µ
pr ising
Ġsy mplectic
Ġ åıį
Ġn t
å¯ Ħ
ä¸¤ æŀģ
Ġres ol
Ġcluster ing
æ¿Ģ åħī
åĪĨåĪ« ä¸º
Ġlon ger
te llar
çļĦ å¾®
rc l
ç»Ĩ èıĮ
ĠCh ern
Ġvol tage
Ġcompati ble
Ļ ½
ç»´ æĮģ
çĭ Ń
ĠæĶ ¾
ĠEu clidean
çļĦ éĩıåŃĲ
^{ '
re f
Ġho mo
, ,
åıĳ åĬ¨
Ġsp an
Ġsign atures
dyna mics
ä¸į åŃĺåľ¨
Ġat temp
our ce
å¤© çĦ¶
re al
åĪ° è¾¾
ĠU nder
s ol
æĪĳä»¬ è®¨è®ºäºĨ
men ta
ä¸» å¯¼
è¿Ľè¡Į çļĦ
je cted
Ġar ray
Ġinter stellar
Ġcou nt
æ½ľ åľ¨
Ġopera tion
Ġslo pe
A G
s y
Ġ )^
çļĦ å°ı
Ġsta rting
ow er
C T
in dependent
éļı åĲİ
ä¸»è¦ģ æĺ¯
tran s
ig ure
Ġre mn
Ġcon fined
co me
Ġç ł
Ġrepres ented
Ġcompar ing
Ġhis tory
Ġhadron ic
ä¼Ĭæĸ¯åħ° æķĻ
D f
Ġ å¹³
ig i
åİ Į
Ġexpla nation
Ġensemb le
èĢ¦ åĲĪ
, }
o pe
ĠU n
åıª éľĢè¦ģ
ç¿ ħ
èĹ ī
Ġintegra tion
d q
l Vert
ma gne
å¤§ è¥¿æ´ĭ
è¯Ń åı¥
Ġsupp ressed
Ġinvol ves
Ġstri ct
ç£ ·
çļĦ æµ·
å¹³åĿĩ åĢ¼
Ġrefle ction
Ġ è¿°
Ġ è¾ĥ
å¹´ ä¸İ
åľ° è¯´
æ³¢ çļĦ
Ġanalog ous
I G
è ©
Ġ æłĩ
ic ular
æľī ä¸ª
ç¤º äºĨ
ä¹Ł ä¼ļ
Ġcolle ctive
Ġbar rier
e q
æľ Ń
Ġn ons
è¥¿ è¥¿
æĢ» çĲĨ
Ġpower ful
Ġbund le
N T
æĺ¯ å¯¹
ĠæıĲ ä¾Ľ
parame ter
è© ¹
d p
çļĦ ä¾ĭåŃĲ
åı ¬
bo ra
Ġsimp ly
a vi
ä¹ ¡
Ġqu en
ow ski
ä¸ĸçºª åĪĿ
ç»ĺ åĪ¶
& (
ma rk
le pton
ĠA nal
è¢ Ń
Ġshow ed
è§Ĥæµĭ ç»ĵæŀľ
ä¼¯ çī¹
æĸ¹åĲĳ çļĦ
ati ves
çļĦ åĴĮ
Ġb all
ri an
æĽ´ é«ĺ
æİ¨ æĸŃ
å°ģ ä¸º
æĻļ æľŁ
S F
on do
ĠG iven
Ġra ys
Ġreg ar
ç²¾ åº¦
Ġ éĹ®é¢ĺ
Ġi d
éĺ ±
æį ·
_{+ }
Ġwor ld
Ġusu ally
Ġprincip al
ĠThe orem
Ġqu bits
Ġdes igned
Ġunder stood
Ġelect roweak
Ġ åħīè°±
qu antum
N D
Ġ éĢļ
Ġ çº¿æĢ§
ĠA B
è´ ¯
åİ ħ
éħį å¯¹
ermi tian
Ġsupercondu ctor
Ġprobab ilities
Ġph onon
Ġdifficul t
Ġlen sing
èĸĽå®ļ è°Ķ
S E
¾ ä¼ļ
éĩį éĩı
con ne
èĤ ¥
æ±Ĥ è§£
Ġflux es
è¿ģ ç§»
Ġrep ul
å¥¥ æĸ¯
éĩĩ åıĸ
åħĦ å¼Ł
{ }^
Ġ è®¾
çļĦ çī¹å¾ģ
|\ \
ĠP r
asu re
é» ı
'' +
Ġunder go
Ġdetermin ing
æĭ¿ çł´
_ -\
j l
ä¹ ĥ
La nd
åĽ¾ ä¸Ń
Ġgen e
èĵĿ èī²
din al
Ġcell s
P P
Ġ åĨ³
æĿ ¯
çļĦæ ĳ
Ġgra v
Ġevalu ated
Ġ çº§
is s
Ġapp lying
ä¼ł è¯´
ç®Ģ åĮĸ
tin ction
èĪŀ è¹Ī
com ing
Ġimple mented
çŁ® æĺŁ
i re
ve ctor
åıĺ éĩıçļĦ
çĽ´ å¾Ħ
åĨĻ äºĨ
Ġæį ¢
Ġtypical ly
å¯¿ åĳ½
] _{\
Ġ )=\
åĨ ¬
Ġgen us
æ²¿ çĿĢ
: \,
Ġ åħ¨
Ĺ ħ
pend icular
å·® è·Ŀ
Ġrea ctions
å®ª æ³ķ
Ġin ci
ĠI sing
Ġtech n
Ġiso lated
Ġconcer ning
mor dial
o ti
in c
er ing
ä¸į ä¹ħ
Ġpa st
æĦ ¿
Ġlow est
åĽº ä½ĵ
Ġiden tity
åĽ¢ ä½ĵ
å¥¹ çļĦ
bre ve
åĲ »
Ġprocess ing
N ew
i ff
Ġres olved
Ġ è¿Ļä¸Ģ
Ġp m
}{ {\
ro tron
Ġpo ssess
] [
Ġ åĽł
Ħ Ł
çļĦ æķ°
å¹ »
Ġu m
ĠA U
æĹł è®º
ä¼½é©¬ å°Ħçº¿
Ġinho mogeneous
Ġslight ly
C H
çļĦ åħīè°±
ch ar
ä¸İ åħ¶
è¯ģæĺİ äºĨ
Ġdevi ce
Ġ æķĻ
}) |
ä¸İ åħ¶ä»ĸ
ĠD M
æģ °
èĤ ¿
ev at
ä»¥èī² åĪĹ
B V
å ª
ri ers
the ore
èĥ ¸
Ġform ing
æ¾³ å¤§åĪ©äºļ
\ }=\
se ts
äºº åĳĺ
èµ ı
åħ³ æ³¨
od inger
é©¬ æĭī
çĥŃ åĬĽåŃ¦
ĠHe isenberg
Ġcu toff
I V
g roups
Ġ çİ¯
åº Ļ
æ³ ¥
Ġpro te
di ff
è±¡ å¾ģ
Ġmean field
Ġ~ =~
å¹´ åĲİ
å®ļ æĢ§
åŃ¦ èĢħ
Ġdi electric
Ġlocal ization
åĩºçİ° åľ¨
Ġmix ture
åĽ° éļ¾
Ġannihi lation
l or
v is
ga p
ir r
æĸ¹ç¨ĭ çļĦ
çĸ «
Ġfil ter
ç»¿ èī²
h skip
æľī æľº
pi es
Ġsta ge
æŃ£ è§Ħ
Ġab elian
ĠEu ler
n es
Ġh u
di mension
ä½ľæĽ² å®¶
Ġsuscepti bility
p or
Ġcon juga
vi l
å°Ķ å¾·
Ġmass less
Ġout put
Ġcombin atorial
c lass
ä¸º ä»Ģä¹Ī
å· Ŀ
çºª å¿µ
Ġcho sen
Ġsitu ation
Ġa way
èĢ Ĳ
é©¬ åħĭ
Ġtes ted
Ġo ld
Ġe psilon
st re
:= (
è¥¿ æĸ¯
Ġion ization
Ġ åĮº
Ġ åħ¶ä¸Ń
Ġs ti
ĠM n
çŁ Ľ
è¥¿ åĮĹ
æŀĦ æĪĲçļĦ
~~ \
}| =
Ġderiv ation
Ġnucle us
æīĵ å¼Ģ
Ġreveal ed
g ies
å®ļ æľŁ
ome ter
é¢Ĩ åľŁ
Ġcurrent ly
Ġfil m
Ġhierar chy
i us
åº ŀ
Ġme ss
col one
Ġ< \
!\ !
å¨ģ å»ī
Ġanomal y
Ġinequ alities
o le
¢ æµĭ
åĪĨ æķ°
Ġç Ī
è¶³ ä»¥
Ġbu bb
Ġques tions
c ta
çļĦ åıĺåĮĸ
su pp
it or
èĥ½ çº§
ç© ´
äºļ åİĨ
åħĭ éĩĮ
ari ly
æ¸¸ æĪı
Le ft
Ġ è¯´
la ton
+\ |
äºĨ å¯¹
äºº åľ¨
Ġat tention
æį ī
åºĶ çĶ¨äºİ
æ¯Ķ èµĽ
éķ¿ åħ¬éĩĮ
Ġlinear ly
Ġelect rical
çĸ ĳ
Ġmetric s
éĨ ĩ
Ġç´ ł
Ġemploy ed
4 2
Q u
j j
Ġ Omega
or th
ol tz
Ġre duces
peri odic
Ġconf id
çļĦçŁ ¢éĩı
è´¢ äº§
do ped
at z
}^ -
Ġpo s
å°¼ æĸ¯
Ġhal os
æĪª éĿ¢
Ġæ »
çĶŁ åĳ½
æĦŁ æŁĵ
éĵģ ç£ģ
Ġprec isely
i h
æĪĳä»¬ ä¸º
çİ ©
ne utr
ten ess
åĪ ¸
ga n
Ġto ward
da ta
Ġlo cation
)] \
èģĮ ä¸ļ
æĭ¿çł´ ä»ĳ
B s
E X
s cripts
ä¸Ģ é¡¹
qu bit
åĲĮ çĽŁ
æīĢ ç¤º
},\ \\
å¹³ åİŁ
çļĦç¬¬ äºĮ
éģŃ åĪ°
Ġthick ness
Ġ èµ·
çļĦ éĤ£
ĠT ho
ä¸į å¯¹ç§°
ĠD o
Ġne bula
Ġexte nds
Ġæ² ¡
æĭĴ ç»Ŀ
b en
Ġ }}\
ti fication
æŀ ¢
Ġco herence
Ġsub group
Ġlow energy
éĴ ±
çĻ¾ ç§ĳ
çļĩ å®¶
æĶ» åĩ»
ĠBay esian
s ymmetric
ä½Ľ ç½Ĺ
Ġsemic lassical
ä¸Ĭ æĺ¯
Ġæ ģ
åĲĮ ä¸Ģä¸ª
ä¸ĭ åĪĹ
ä»» æķĻ
æĸ¹ç¨ĭ ç»Ħ
Ġbur sts
aran ce
dia mond
v our
Ġ æīĢæľī
al low
åİ ĺ
å¹¶ å°Ĩ
éĽ ¨
ç¼º éĻ·
l brack
çº º
å¯¹ æ¯Ķ
åı¯ çŁ¥
ĠF i
ĠD is
ç¨ į
ĠæĪĳä»¬ ä½¿çĶ¨
éļ Ļ
ron t
Ġgiv ing
|= |
elle nt
4 3
Ġ åŁº
Ġ åĨµ
}\, ,\)
åħ± è½Ń
'' _
Ġtra pped
Ġcar ry
ä¼ģ ä¸ļ
a p
r Vert
y ing
Ġ ä¹ĭ
_{ }
åĴĮ ä¸Ń
ĠS pace
)) ^{-
^- _
çĹħ æ¯Ĵ
ĠHubb le
Ġimpu rity
å´© æºĥ
~ ,\)
åĪĨ éĩı
å¹´ éĹ´
äºļ æ´²
æĸ¹æ³ķ çļĦ
åħĥç´ł çļĦ
åħ±äº§ åħļ
colone qq
Y M
b ranes
f la
Ġre ference
)} )\
dots c
Ġ\, ,\)
éĺ¶ çº§
Ġfluctu ation
lat tice
Ġcompan ion
ĠYang Mills
Ġlear ning
f ted
æĺ¯ çĶ¨
æĮ ĳ
wi ft
èĬŃ èķ¾
E G
Ġb lue
Ġæ ¯
æĽ´ åĬł
è¾ĥ ä½İ
åŁİ éķĩ
Ġsynch ron
c z
m k
n z
Ġ ç©º
Ġa diabatic
la p
å¼ ¥
å¯¼ æ¼Ķ
Ġcol lider
ah ler
S im
[ -\
Ġ èĥ½éĩı
Ġ\( &
mo mentum
æµ· å³¡
ä¸»ä¹ī çļĦ
Ġcross over
Ġquanti zation
ĠSch r
Ġ éªĮ
æĸ¹ çļĦ
æĭ¬ åı·
ç®Ģ è¦ģ
comple te
Ġhydrodyna mic
J u
N O
Ġ æĹĭè½¬
over rightarrow
Ġæ £
å¸ĥ å°Ķ
åĽ¾ è¡¨
Ġapproxima tions
d k
mu lation
ĠS r
éĥ¨ éķ¿
Ġindic ating
Ġsepa rated
tu p
Ġper mu
èĤ º
}] \)
pre c
Ġmon ot
l s
o vi
ĠM yr
åħ¬ çĪµ
æ£ Ĵ
Ġtransi ent
Ġproje ction
Ġvarie ties
sur face
ĠRie mann
Ġcolum n
Ġdiscus sion
Ġ å¿ĥ
çļĦ åıĤæķ°
qu a
æĪĳä»¬ æĺ¾ç¤º
xi al
ĠS itter
å¹´ çĶ±
çľĭ æĪĲ
Ġau tom
ä»ª å¼ı
Ġbel ie
ĠSp itzer
R G
Ġ åºı
æĺ Ĥ
åıĮ éĩį
Ġori entation
å¦ĩ å¥³
\ ;\
çļĦ çĽ¸
di es
ca te
åıĹ æ¬¢è¿İ
Ġpri mordial
Ġintegra ble
Ġç½ Ĺ
æĺĨ èĻ«
B B
H iggs
]= -
è¯º è´Ŀå°Ķ
ä¼Ĺ æīĢ
Ġpure ly
Ġextrac ted
Ġ å§ĭ
Ġ å®ŀéªĮ
æĸ ¤
ĠC e
æ¶ ¡
K K
f il
Ġo mega
si te
çľĭ ä½ľ
çļĦæĽ ´
çļĦç²¾ ç¡®
Ġsci en
t f
Ġde generate
Ġmac roscopic
a ta
Ġ åĽłä¸º
ri ction
åĬ ±
Ġco ding
Ġmo tions
ĠN i
çĶµ ç£ģåľº
åįķ åħĥ
åĽ¾ çļĦ
æº ¯
åī§ éĻ¢
Ġmode rate
c el
n n
ti fied
Ġa str
åľ¨ è¯¥
}) ]
ce ption
æľī äºº
å¯¹ çŃī
Ġla ck
Ġ\; ,
æºĲ çļĦ
çģ ¯
Ġnor m
Ġdif fraction
~ .
æ³ķ åĴĮ
çī© ä½ĵçļĦ
Ġz er
iz able
Ġac comp
åĨĻ ä½ľ
åĳ¨ çŁ¥
åĩĿ èģļ
æ¢¯ åº¦
* {
B L
ä¸į åĨį
Ġga te
å¼º å¤§çļĦ
Ġass ess
ä¹Ķ æ²»
}) _{\
æī ®
æµ Ĩ
Ġcha otic
Ġessential ly
ĠBrow nian
c ryst
d P
i q
Ġe p
è¿ ¦
çĽ´ è§Ĵ
Ġval u
Ġbro ken
Ġd S
åĨ Ī
cu s
å¹¿ æĴŃ
Ġcre ated
corre lation
Ġrapid ly
evat ron
Ġ æł¹æį®
çĶŁ æĪĲçļĦ
ä¸ľ åįĹéĥ¨
æ¥ ¼
ĠæĻ ®
Ġwavelength s
f ol
çļĦ åŁºç¡Ģ
åĩ Ģ
ä»ĸ ä¸º
Ġidenti fication
Ġpeak s
+ (-
Ġ è§Ĵ
Ġs oci
å¹´ èĭ±åĽ½
ĠB an
åĬł çĥŃ
cre te
Ġderiv atives
Ġlin ks
Ġdetail s
r d
çļĦ ä¸¤ä¸ª
æľī ä¸¤ä¸ª
åŃ¦ ä½į
ous ly
èĤ ¤
äº¤ æĺĵ
æĽ´ æĸ°
åĽº å®ļçļĦ
N GC
Ġ è¿Ľ
Ġk m
æıĲ åĩºçļĦ
Ġtheore ms
æ¸¯ åı£
Ġissu es
Ġ bf
|\ ,\
çĽ¸ å¯¹äºİ
Ġho m
ion ization
Ġti dal
Ġembed ding
ç©Ĩæĸ¯ æŀĹ
M D
}\ {\
åħĥ ä»¶
Ġfa ci
çİĭ ä½į
Ġlog ic
Ġpul ses
Ġtor sion
ĠGala xy
Ġperio ds
é¥± åĴĮ
Ġmolecu le
ä¸¾ è¡Į
å°¤åħ¶ æĺ¯
Land au
c tivity
è¿ ·
da te
ç§į æĹı
ca pe
çĨ Ķ
éĴ¢ çĲ´
å½¼ å¾Ĺ
æķ° ä¸º
åĪĨ åī²
æĪĲ æľ¬
Ġæ ¦Ĥ
Ġdi m
è¡Į åĪĹ
ign er
top y
Ġæİ Ĵ
å²© çŁ³
Ġcriteri a
Ġlogarith mic
= (-
u mann
Ĩ æŀ¶
}} [
os ing
èĤ ¢
ç¬¬ä¸Ģ æ¬¡ä¸ĸçķĮå¤§æĪĺ
Ġdetermin istic
åĲ¦ åĪĻ
Ġconserv ation
Ġoxy gen
åľ¨ åĨħ
Ġcomp ac
Ġimp ly
åı¤ èĢģ
å®ĩå®Ļ åŃ¦
æ±ī å¯Ĩå°Ķé¡¿
ĠCha ndra
Ġper pendicular
Ġmeasu ring
åĳ½ åĲį
Left rightarrow
S W
on es
ç»ı åİĨ
Ġanalys es
å»¶ è¿Ł
æĽ¿ æį¢
on o
åº Ĺ
éĽĨ ä½ĵ
çĭ ±
Ġlangu age
Ġ çĶµåŃĲ
ig ital
Ġu ne
Ġde fe
il istic
ç§¯ æŀģ
åįı ä¼ļ
æľīæķĪ çļĦ
Ġexpec tation
C e
d m
æĺ¯ ä¸į
Ġde t
éĢļ è´§
Ġho mology
Ġcol our
éĢī é¡¹
åĦ¿ ç«¥
è¿ĳä¼¼ åĢ¼
Ġmodi fication
Ġæı ıè¿°
Ġpartial ly
M P
p x
| |\
Ġ æľ¬æĸĩ
Ġ| ^
Ġle ns
æ´Ľ ä¼¦åħ¹
å®ĺ æĸ¹
]+ [
å¡« åħħ
x u
Ġ }^{\
Ġ ä¸įåĲĮ
Ġs in
åŃ ©
æł ½
Ġissu e
n oli
{ }_
Ġ )}
Ġ å¯Ĩåº¦
çļĦ ä¸įåĲĮ
Ġco me
Ġex tinction
ĠS ky
for ward
)^{ |
ĠæĪĳä»¬ çłĶç©¶
çĬ ¬
èĪ į
Ġli ttle
Ġsh or
è¯Ĺ æŃĮ
Ġlumino sities
Ġæ² ³
) '
i mpli
Ġ æĪĲä¸º
çļĦ åĲİ
çļĦç ¨³å®ļ
çĶµ è§Ĩ
les cop
å¯¹äºİ ä»»æĦı
Ġtra p
Ġa ri
Ġpro mis
Ġreal ization
æ·· ä¹±
å·²çŁ¥ çļĦ
Ġextre me
Ġæĥ ħåĨµ
noli mits
Ġ ä¼¼
Ġs cre
çŃī åĲĮ
Ġac cess
Ġsur round
Ġsupp ression
åĦ Ĵ
ä»ª åĻ¨
Ġinvol ved
Ġopp osite
Ġhierar chi
Ġcub ic
è® ½
Ġuni vers
åįģ äºĶ
Ġcolle cted
è¯± å¯¼
Ġstron ger
Ġ ä¾Ľ
Ġ\( =
ou th
nu su
Ġpo st
äºĮ éĺ¶
åĮħæĭ¬ äºĨ
å¨ ľ
Ġvanish ing
Ġclos ely
- |\
] ^{\
çļĦç ¢
})= (
æĿĥ åĪ©
ç¡®å®ļ äºĨ
æ£® æŀĹ
ç¼º ä¹ı
çĪµ å£«
ĠG al
du cting
è· ĳ
Ġaffe ct
in ity
çļĦ åŁº
an e
ĠC asimir
Ġro ot
è§Ħ å¾ĭ
M g
g ge
Ġ å±Ĥ
æĺ¯ åı¯
æłĩ å¿Ĺ
é¢Ħ è®¡
Ġlumin ous
åĸľ åī§
R T
mu th
æĺ¯ æľĢ
ĠH ar
ĠD NA
é©¬ å°Ķ
æĢ» çĿ£
å¼¯ æĽ²
A L
Ġ mathcal
Ġk in
Ġç ¬¦
ĠK e
åĬł å·ŀ
åŃĺåľ¨ ä¸Ģä¸ª
å¾ĭ å¸Ī
Ġself consistent
Ġ- {
Ġæ ¼Ķ
çķĮ éĿ¢
å¤ª ç©º
vera ge
çĳŀ åħ¸
å®ı è§Ĥ
Ġ åĪĨå¸ĥ
la b
ä½į ç§»
ç±» æ¯Ķ
åľĨ æŁ±
æİ¨ å¹¿
æľª çŁ¥
Ġtre es
Ġpath s
I P
i ra
Ġmo ve
ĠIn te
çĭ Ĺ
éĢı æĺİ
ĠRie mannian
Ġexamin ed
Ġ æķ£
ha m
Ġe poch
mp ed
ĠI m
ç® ±
Ġç ģ
Ġen gine
å¾Ī å¿«
åĪĿ æŃ¥
æĸĩä»¶ å¤¹
Ġvor tices
Ġexc ellent
Ġcover ing
çļĦ æµĭéĩı
=\ ,\
ä¸Ģ ä½į
æĸ¯ ç§ĳ
Ġen ables
èĥľ åĪ©
Ġæ¡ Ī
" ,
w s
Ġpro gen
ä¸Ĭ åįĩ
Ġga in
æĹħ æ¸¸
Ġatmos phere
Sim ons
] +\
Ġh olog
Ġra re
ç´« å¤ĸ
\ }}\
n c
± ³
çļĦ åįĬ
ĠH o
ä¹ĭ åŃĲ
æ® ¿
Ġæ¨¡ æĭŁ
çļĦç¬¬ ä¸Ģä¸ª
Ġ è¡¨æĺİ
ĠL u
æİ ªæĸ½
.. .,
,\,\ ,\,
R ie
z ations
Ġ æĸ¹ç¨ĭå¼ı
var sigma
ul ti
åħĭ èİ±
Ġhigh est
_{- }
æĶ¶ éĽĨ
Ġquas ars
Ġlongitu dinal
çļĦ éĢŁåº¦
ĠG yr
èĩ Ĥ
ä¸Ĭ éĿ¢
pa ir
Ġrepres ents
å¼ķèµ· çļĦ
Ġsatisfy ing
çļĦç ĿĢ
åī ĳ
ĠO p
Ġchar ges
Ġattrac tive
[ {\
Ġ ä¸Ķ
ra phy
æ³ Į
å°Ķ å¹´
é«ĺ äºİ
åįķ çĭ¬
çļĦ åħĥç´ł
Ġc as
Ġn ull
ĠP re
åī Ĭ
Ġpla te
),\ ,
ç»ĦæĪĲ éĥ¨åĪĨ
ĠæĶ ¹
Ġresis tivity
" .
B S
b d
k o
åľ° å½¢
éĥ¨ éĹ¨
å¾Ĺ ä»¥
pro ton
ä¹Ł åı¯
Ġad mit
ä¼¦ æĸ¯
Ġdiff use
æµĵ åº¦
Ġvalid ity
Ġwri tten
ra ne
æ´ Ĺ
the red
Ġneighb or
T a
b ro
Ġ ä¸»
åħ¶ å®ŀ
çļĦç ¾İåĽ½
cc ent
çħ ¤
Ġwide ly
ĠçŁ ©éĺµ
åĬª åĬĽ
S a
T P
d A
u lation
}( |
res on
ä¸Ĭ å¸Ŀ
å½± çīĩ
Ġpredic ts
Ġrestri cted
Ġauth or
Ġadvan tage
k m
Ġ åŃĹ
Ġm illi
çłĶç©¶ çļĦ
el s
å¹´ å¼Ģå§ĭ
Ġop tically
è¿ŀç»Ń çļĦ
è¡¨éĿ¢ çļĦ
çĻ¾ ä¸ĩ
çļĦæĬ Ģæľ¯
Ġsupernova e
æĳĦ å½±
æįĨ ç»ĳ
äºļåİĨ å±±
Ġm irr
æľī åĬ©äºİ
æ·± åº¦
éĽħ åħ¸
ä¿ĥ è¿Ľ
E E
Ġ è¾¾
æĺ¯ éĢļè¿ĩ
qu asi
åĳĪ çİ°
b reak
Ġp in
è¯ ¢
)= [
æĪĳä»¬ æĬ¥åĳĬ
åľ° è¡¨
Ġdis cri
å°Ĩ åĨĽ
,\\ &\
èĳ¡èĲĦ çīĻ
Ġine lastic
oltz mann
' \)
^{ {\
æł Ī
äºĮ åħĥ
å·´ å°Ķ
Ġestima tor
éĻĦè¿ĳ çļĦ
Ġposi tions
Ġ åı·
åĴĮ ä¸Ģä¸ª
å®ļ äºĨ
Ġdis play
çī© ç§į
æ´ ¥
å½ĵ çĦ¶
æŃ£ æ¯Ķ
è°ĥ åĪ¶
è¿ĩç¨ĭ çļĦ
Ġ\(\{ |
Ġsee ms
lescop es
f ur
}- {\
äº§ çī©
ä¸ľ åĮĹéĥ¨
ĠRecent ly
p mb
Ġ åıĹ
ran s
ä»· æł¼
é¥ ®
Ġlife time
k u
al ing
ĠWe yl
ĠThe ory
æĭī å¤«
æķĻ å¾Ĵ
y g
æĪĳä»¬ èĥ½å¤Ł
Ġne arest
Ġmodu lar
ĠComp ton
) )\,
é Ħ
Ġ mathbb
å¯ º
Ġpar ity
Ġac tions
Ġæĺ¯ ä¸Ģä¸ª
C F
Ġ( |
mi zing
ç¦» å¼Ģ
å®Į ç¾İ
Ġout side
ever al
Ġdiff u
cur rent
wave length
Ġmul tic
) })=
der s
Ġ\(( -
^+ ,
):= (
ç¢ ±
è´¹ ç±³
Ġfermi onic
struct ures
small matrix
k k
}\ |^
si zed
)= &
lu on
çļĦæ ĵįä½ľ
æĢģ çļĦ
éĽĨ ç¾¤
Ġsuper gravity
fa ctor
ä¸ĸçºª çļĦ
^- _{
å²ģ æĹ¶
vari ate
c ross
Ġ ä¸»è¦ģ
çļĦ è¿ĲåĬ¨
Ġc are
æĺ¯ ä»İ
çļĦæ ¯
éĽ Į
æŁĲ ä¸Ģ
åł ª
Ġevalu ation
Ġç½ ®
Ġdeco herence
Ġ ç»ĵ
ta bly
ç¼ Ŀ
å¢ ĵ
æ± Ĺ
war zs
Ġangle s
Ġsynch rotron
ĠMil ky
åª Ĵ
o idal
u cle
ä½ĵ ä¸Ń
å·¥ äºº
u ka
ä¸ §
ble m
åħ¬ æĸ¤
è¯¥ æ¨¡åŀĭ
xx x
i T
Ġ åĲį
Ġ æĭŁ
Ġp ie
åĴĮ éĿŀ
Ġu nusu
ic ity
è¥¿ åįĹéĥ¨
Ġfinite ly
åı³ è¾¹
çŁ¿ çī©
Ġye ar
Ġmorph ology
{ }{
tri ang
\, =\,
Ġ\(( -\
Ġother s
Ġgenera tors
æľīåħ³ çļĦ
Ġexpon ents
phy sics
Ġans wer
Ġrig id
e ffe
çļĦ æĿ¡ä»¶
su ch
é¢ ł
åħī åħī
ç«ĭ æĸ¹
å£ ¤
æµ· æĭĶ
æľįåĬ¡ åĻ¨
Ġ ä½ľçĶ¨
ĠG eneral
Ġnon perturb
æ¼ ł
å¸¦ æĿ¥
quen ess
Ġste ady
çŁ³ æ²¹
)/ (
Ġconfid ence
P R
çļĦ åīį
åĴĮ é«ĺ
ç»´ å°Ķ
Ġdire cted
ĠSch ro
åĪĨ æĪĲ
éĻ Ī
_+ ,
è§£åĨ³ åĬŀæ³ķ
Ġlength s
ç° §
ä¼ į
éģĵ å¾·
Ġuni fied
åĪĽ åĬŀ
ä¼¯ çĪµ
é¸ £
rich let
valu ed
T S
^ -\
c x
Ġ åİŁ
Ġ âĢľ
al so
ĠT au
as y
Ġglo bular
Ġdissi pa
Ġbund les
Ġu nd
æĺ¯ æĮĩ
çĥ ¯
åĩł éĩĮ
;\;\ ;\;
æĿĤ å¿Ĺ
Ġconf ine
D D
d ge
in es
äº ¿
ri e
Ġma ch
ç¾ ½
row n
æł¼ å¼ı
Ġprodu ces
èľ Ĥ
Ġ ä¸ĬçļĦ
}\ !
ĠH igh
å¤ļ å°ĳ
å¤© ç©º
åĲĦ åľ°
è§ģ äºİ
A U
L L
Ġe e
å¾Ĺ åĩºçļĦ
iv ed
åįģ å¹´
çŃĶ æ¡Ī
a mple
Ġ æł·
ti ma
(\ |
ĠW ay
Ġco exis
ĠS M
ne gative
åĿ Ľ
Ġbin ding
Ġbos onic
MB H
éĿł è¿ĳ
èī¯ å¥½
ĠRa man
Ġextrac t
Ġ å°±
Ġ äºĴ
Ġconne ctions
çģ« å±±
çļĦåľ° æĸ¹
d h
Ġi te
è¿Ļ ç±»
ca de
æĿĤ è´¨
åĲİæĿ¥ çļĦ
ä¾Ŀèµĸ äºİ
} ~\
Ġ åĵį
Ġo l
si milar
lo op
çĤ ¼
æ³¢ åĮħ
å¾ĹåĪ° çļĦ
ä»£æķ° çļĦ
Ġsen sor
Ġstrate gies
çļĦæŁĲ äºĽ
T eV
x ing
me cha
se cond
lo t
æĢ ª
ä¸Ĭ æľī
ĠæĪĳä»¬ èĢĥèĻĳ
æİ¢ è®¨
Ġsupp orted
ĠP er
ä¹ĭ ä¸º
æĸ° éĹ»
ç©ºéĹ´ ä¸ŃçļĦ
ä¸ĸçºª æľ«
ä¹Ĳ åĻ¨
å£° æĺİ
a z
ç½ ļ
Ġhe ight
æĥħ æĻ¯
ç¿» è¯ĳ
ç£ ¨
, {
Ġ å®ĥä»¬
Ġth a
è¯ Ĭ
pa ra
Ġte nd
ç»ĵæŀľ ä¸İ
æ± ¡
Ġreg ression
æĪĺ åĲİ
ymme tries
è± ª
æĶ¾ æĿ¾
Ġhy brid
Ġste ps
Ġbur st
åŃ¤ ç«ĭ
impli es
Ġ åħ³ç³»
an i
Ġu na
å¼Ģ éĽĨ
èĥ ļ
çļĦæ¨¡ æĭŁ
Ġcondition al
Ġide as
ra ge
äº ķ
Ġse mig
æµ· æ´ĭ
é²ģ å£«
é»Ħ èī²
åĴĮ å¯¹
se e
å¸¸ çĶ¨
Ġstr ings
çŃī æķĪ
ctr um
æĺ¾ å¾®
Ġsub stitu
åŃĺåľ¨ çļĦ
cy c
H u
Ġ æł¸
è¿Ļ ä¸İ
åŃĲ ç¾¤
ĠC or
ä»ĸ å¯¹
il d
èĩªçĶ± åº¦
æľĪ æĹ¥
å° Ŀ
è¥¿ åįĹ
F or
G RA
P o
Ġc up
åľ¨ ä»ĸ
å®ļ åĲĳ
æĸ¯ å¹´
å¤ļ å¹´
å®ļä¹ī äºĨ
æĽ¿ ä»£
åĢ¾ æĸľ
Ġadap tive
el oop
Ġmo d
Ġfi ts
Ġtw op
éĢĤ çĶ¨
Ġshift s
èĻļ æĭŁ
çļĦæ·· åĲĪ
B ar
z er
Ġ å¼º
éĺ Ĳ
æľĢ æľī
æĻ °
Ġga me
Ġpla ys
Ġwa ys
ä¸ĸçķĮ ä¸Ĭ
CD M
æ²¿ å²¸
limin ary
Ġdevi ation
Ġmat ching
æīĢè°ĵ çļĦ
s olar
le ading
Ġ= :
ĠW MAP
ĠS everal
Ġh old
lar ge
Ġç ľ
åĬł æĭī
åĽĽ ä¸ĸ
Ġdiscre pan
Ġsyn the
è¯¸ è¯Ńè¨Ģ
! }{
s ign
æĺ¯ æľī
åĩ ¸
å· ¡
ä¸¤ èĢħ
æĮĩ åĲĳ
çīĻ åĪ©
Ġmode led
èĪŀ åı°
Ġeigenval ue
Ġb righ
åı¯ä»¥ æĺ¯
é¢Ĩ åľ°
è¶Ĭ æĿ¥
ä¼ĺ åĬ¿
å·¨ å¤§çļĦ
æ¸ħ æ¥ļ
Ġdevi ations
éŃ Ķ
æĹ¨ åľ¨
h ard
Ġa cting
Ġf ru
)) _{
å£ ®
Ġ å±ķ
çļĦ è´¨éĩı
}= (-
åıĳ éĢģ
æŀģ å¤§
äºĭ åĬ¡
å´ĩ æĭľ
at ors
èİ ī
åĽŀ é¡¾
æłĩåĩĨ æ¨¡åŀĭ
è¶ĭ åĲĮ
aran te
B F
W it
r l
Ġ åıĸ
Ġparame tri
Ġform er
åıĺåĮĸ çļĦ
Ġpe cu
Ġkine matic
Ġnano tu
åīª åĪĩ
N P
Ġ til
Ġb ox
ä¸į éľĢè¦ģ
æĿ¥ è®¡ç®Ĺ
Ġç±» åŀĭ
Ġstra ight
åħ¸åŀĭ çļĦ
Di rac
Ġinsu lator
Ġp ut
}) }.
å¤§ èĩ´
çĽ¸ éĤ»
åŃ¦ åĴĮ
Ġcomp osite
åıĳ æĮ¥
åı¯ä»¥ è¢«
ĠQ SO
æ¯Ķ çī¹
Ġad mits
ä¸Ķ ä»ħ
Ġswit ching
Ġ çºª
Ġ( ),
ener ge
ç½ ²
Ġåľ¨ æľ¬
å¤± åİ»
} }^{(
Ġ\\ -
æľī è®¸å¤ļ
Ġco variance
å½ »
ç¡ «
çĽ´ èĩ³
ä¼ł éĢĴ
hy per
æ´» è·ĥ
Ġanalog ue
Ġaffe cted
åº Ħ
ĠH alpha
æĸ¯ åĴĮ
Ġte tra
Ġ[ -
Ġsur vi
}] =\
Ġmodu le
Ġbran ch
Ġargu ment
is k
Ġre cor
ĠT ype
Ġç Ĭ¶
b all
l k
o sity
ĠP lanck
æģ Ĳ
éĩĳ èŀį
Ġsh all
Ġgeome tries
Ġnecess arily
Ġmerger s
Ġhol omorphic
b mod
i A
x e
| |_{
Ġ ,\\
ra nt
)\ |_
å° ¿
li con
Ġi c
è¥¿ åĮĹéĥ¨
Ġac oustic
Ġda mping
å¸¦ çĶµ
æ£ ķ
Ġfe asi
ä¸¹ éº¦
Ġshock s
æ£Ģæµĭ åĪ°
Ġatmos pheric
de fined
Ġb ond
æľ ±
ĠM L
Ġæ ŁĲ
æĿ¥ è¡¨ç¤º
ĠIn ter
vel ocity
Ġsol v
Ġbi ological
æī® æ¼Ķ
4 1
d T
Ġ ç»ı
çļĦ åıĳå±ķ
çļĦ ä½įç½®
Ġbe gin
åģ ¿
je ctive
Ġexten sive
åįļ çī©
åĲĽ ä¸»
ä¼ĹæīĢ åĳ¨çŁ¥
Ġ lu
ha ve
Ġme t
ç¨ £
om ic
vel ope
ç¥ŀ è¯Ŀ
onom y
çŁĽ çĽ¾
B u
é ¬
Ġ æľĢè¿ĳ
çļĦæ ½ľ
ç³ Ĭ
ĠD y
Ġinde ed
Ġsuccessful ly
Ġin ferred
ä¸Ģ éĥ¨åĪĨ
æĺ¯ ä¸ª
ĠA nd
Ġz eta
Ġz one
èį Ĵ
å·® åĪ«
çľĭ åĩº
Ġefficient ly
) {
in clu
Ġf le
ĠB H
è¿ĩ æ»¤
æİ¢ éĻ©
comp onent
æł¡ åĩĨ
Ġdia meter
Ġsearch es
oseph son
R I
h er
Ġ text
Ġ ä¸ī
Ġf all
is o
)} }{\
æł ª
ä¹ĭ ä¸ĭ
mbin ation
æĳ© æĵ¦
Ġinsta nce
Co mp
ç«ŀ äºī
Ġæ²¡ æľī
Ġs ymbol
å° Ĭ
Ġco variant
ĠE le
ĠK err
Ġlow mass
Ġintro duction
è¤Ĳ èī²
Ġdefe cts
Ġconfine ment
å·¥ èīº
çº½çº¦ å¸Ĥ
ink owski
çļĦæĮ¯ åĬ¨
èĴĻçī¹ åį¡æ´Ľ
ĠWil son
s ky
en ed
Ġp lus
æĪĳä»¬ è®¨è®º
Ġon set
Ġç ¾İåĽ½
ç»´ åĲī
æ°Ķ ä½ĵçļĦ
èĥ½éĩı çļĦ
ker n
æĭľ åįł
Ġuniform ly
scal ar
$ }
) _+
N E
ti zed
ĠC lo
éĻ µ
æ° ¨
èĢĮ æĪĲ
åĢ Ł
æĶ¾ å¼ĥ
Ġta ng
ĠLet t
èį¯ çī©
Ġexponential ly
s hi
Ġo xi
äºĨ ä¸ĢäºĽ
ĠD u
Ġcomp osed
Ġ\| _
_* \
æ¿Ģ åıĳ
Ġemp h
Ġexte nding
' ),
H o
m y
Ġ éĤ£ä¹Ī
Ġ& +
ĠT evatron
ver sity
ä»¥ å¤ĸ
ĠI RA
å¹´ ä¸º
æŃ ĩ
ĠM axwell
çĤ ®
our ces
cha nnel
å®ŀéªĮ å®¤
æĪĺäºī ä¸Ń
ç¼ĵ æħ¢
o red
çļĦ ä½İ
me ra
,\ {
ç» ³
å® ¿
è¯ ļ
Ġ&= &
æĶ¾ å°Ħ
çļ® èĤ¤
Ġtre ated
éĻĨ åĨĽ
Ġenviron ments
Ġcompound s
C l
a ppe
f ermi
Ġ å½¢å¼ı
Ġ åģĩè®¾
ĠS T
çĶŁ ç´ł
åĬĽ åĴĮ
å¾® æ³¢
åįĹ åĮĹ
æ£ ī
Ġdiff er
å®Įæķ´ çļĦ
ç¦ģ æŃ¢
ç¼ł ç»ķ
Ġrig orous
' }^
( .
åħ ½
Ġin clin
)\ |^
æı ¡
è¾ĥ é«ĺ
dition ally
Ġta il
è¡¨çİ° åĩº
Ġsci ence
O F
or tu
Ġe ccent
\, |\,
)) )
åĨħ åŃĺ
æ± ł
tiv ation
åŃĺåľ¨ äºİ
åĽĽ ç»´
åį° åĪ·
Ġellip tical
èĬĿ åĬł
Y au
Ġex tent
ĠK ondo
Ġmon it
èĢ¶ ç¨£
ĠGRB s
- -
K e
çļĦ åĪĨå¸ĥ
ga thered
å¹´ åīį
å¾® ç§¯åĪĨ
Ġ\,\ ,\,
çļĦæ· ±
coup led
gl igi
warzs child
rac t
Ġv ic
è¾ ĸ
}+ {
Ġinter play
Ġspin orbit
åİĭ å¼º
åĪĨåĪ« æĺ¯
ĠæĶ ¿
ä¸īè§Ĵ å½¢
, (\
; \\
P D
Ġ ä¹Ī
ol y
li ed
Ġco mb
çĶ¨ ä»¥
mi zed
Ġme mb
çĽ¸ è¿ŀ
lar i
åĢ ¡
è´¨ å¿ĥ
\| =\
ij kl
Ġtrans lation
Ġpotential ly
Ġdri ving
éĴĪ å¯¹
è¾ħ åĬ©
a a
çļĦ æľĢå¤§
Ġd rop
}) },
éĺ Ķ
Ġbuil ding
Ġapplic able
' |
Ġ åįĬ
Ġ äº§çĶŁ
ä¸» é¢ĺ
od d
è®® éĻ¢
Ġori en
Ġuser s
j m
Ġ åħ°
math ring
çº ¬
åĨ Ĵ
co re
é«ĺ èĥ½
éĽĨ æĪĲ
Ġtest ing
) [\
çļĦ ç©ºéĹ´
de termin
Ġdi ffe
)) +\
çĽ¸åħ³ æĢ§
å¥½ åľ°
sp here
é¡¶ éĥ¨
Ġfollow ed
Ġimple ment
ĠJa co
ĠBose Einstein
Ġpolym er
) *
I t
åŃ Ļ
åı¯ åıĺ
çļĦæ ¤
åħ¶ ä½Ļ
pro duct
å·¥ åİĤ
Ġ\; .
Ġsignific ance
å£° éŁ³
ç¨³å®ļ æĢ§
Ġsoft ware
åĮĪ çīĻåĪ©
( [\
H M
Ġ æľ¯
çļĦ éķ¿
çļĦ åĬŁèĥ½
çļĦ æĸ¹åĲĳ
is ts
å¯¹ åģ¶
Ġper spe
å¾· å°Ķ
Ġver tical
æ» ļ
^{ |
å¤§ å¤ļ
Ġç Ń
Ġca use
å¾Ī å°ĳ
éĢĢ åĮĸ
Ġ åħ¶ä»ĸ
Ġs ound
Ġo wn
éĥ¨ èĲ½
ä¸» æľº
æŃ¤ åĲİ
è¿Ĳ æ²³
sh ell
æĭīæł¼æľĹ æĹ¥
r x
)\ }.
Ġre pe
æĺŁ ä½ĵ
å®ĥ ä¸İ
Ġtw isted
èħ ¿
æİĴ éĻ¤
Ġintro ducing
éĺ¶æ®µ çļĦ
åįļ å£«
Ġdecre asing
çļĦç£ģ åľº
Ġcap ture
T u
x f
al es
,\ ;\;
Ġde gene
æĸĩ èīº
å¸ĥ æľĹ
åĽ´ ç»ķ
Ġcombin ing
åĢ¾ åĲĳ
zi muth
çļĦ åĩłä½ķ
mu l
Ġ1 4
ĠM pc
è´ ´
æ³ķ å®ĺ
Ġdis place
Ġqu oti
Ġgra ins
æļ ĸ
Ġimprove ment
] ^{-
Ġ ly
Ġ ä½Ĩæĺ¯
ta ges
{\ |
ä¸ª æķ°
}_{ {\
di tive
Ġæ Ĵ
æĿ¥ çłĶç©¶
å¸¸ éĩı
éĵ ħ
è°ĥ åĴĮ
:\ :
åĩ» è´¥
Ġæİ ¨
éħ¸ çĽĲ
åı¦ä¸Ģ æĸ¹éĿ¢
Ġcyc lic
Ġauto ma
è·Ł è¸ª
åĤħ éĩĮ
- }
P er
ĠM ic
éĥ¨ éĺŁ
cri bed
æĻ® åĭĴ
æģĴæĺŁ å½¢æĪĲ
ç±»ä¼¼ çļĦ
ĠSe cond
è¶ĬæĿ¥ è¶Ĭ
] }{
ma tter
çļĦ ç»Łç§°
é«ĺ åİŁ
æŃ£ åĪĻ
æķĻ æİĪ
åį¡ ç½Ĺ
è®° å¿Ĩ
æĸ¹éĿ¢ çļĦ
Ġtr un
C FT
çĲĨ åŃ¦
çļĦä¸Ģ èĩ´
LA S
Ġdri ft
çļĦç¡ ®
F S
rac ting
si bility
Ġde si
ä½¿ åħ¶
ak ing
åıĹ å°ģä¸º
èĭ± è¯Ń
K u
çļĦ ç»Łæ²»
éĺ Ī
ĠR HIC
ĠO r
Ġpaper s
åĨĻ åĩº
Ġmedi a
E s
L M
a th
çļĦ æĸ¹
çļĦ æ³¢
=\ {\
åľ¨ ä¸¤ä¸ª
Ġse tup
Ġ. )
ni pu
ç¼ ļ
box times
Ġappe arance
çļĦæ° ĳ
in ted
æĪĳä»¬ å°±
Ġdi vi
Ġ[ (
å·´ è¥¿
Ġstre am
Ġremain ing
' )=\
me th
è¾ ī
ä¸Ĭ éĻĲ
ä¸¤ æ¬¡
Ġab ility
Ġsub strate
æĽ´ ä¸º
èĩ³ ä»Ĭ
åħ¶ä¸Ń åĮħæĭ¬
é¡µ éĿ¢
Ġconcep ts
Ġcategor ies
i bb
Ġ éĺµ
æµ ´
åĲİ æľŁ
ak e
å¼Ĥ æĢ§
è§£éĩĬ ä¸º
ĠçŁ ¥
Ġprobab ilistic
Ġgu arante
Ġ åı£
ĠS P
çļĦæ Ł
æĶ¹ åĸĦ
ç±³ äºļ
çļĦæ´ »
Ġ\ ;\;\;
su res
ĠE d
ide d
åĪ¶ æĪĲ
Ġte lescopes
åįĹ éĿŀ
åĵ² åŃ¦å®¶
inte gra
çļĦç¼ ©
R F
R s
g f
ar ing
de x
Ġw alk
big sqcup
Ġwe ights
Ġal lo
ä½ľ æĪĺ
é¢ Ī
éĤ ®
ç§» å±ħ
æ¼Ķ å¥ı
çŁ¢ éĩıçļĦ
j x
p g
v als
} }^{-
æĸ Ĳ
Ġu r
å· ¢
åĽ½ æ°ĳ
ĠN umerical
çĶµ éĺ»
è¡¨ æł¼
åĲĮ æĦı
Ġinter po
au chy
å·¥ä½ľ ä¸Ń
Ġconstruct ing
å¹¿æ³Ľ çļĦ
æŁı æŀĹ
ĠHubb ard
k p
Ġ å¸¦
Ġ\ >
çļĦ ä¸Ńå¿ĥ
el lu
res ses
Ġfi lling
il ling
&= (
Ġother wise
Ġconsis tency
Ġproof s
é¹ ¿
å¸¸è§ģ çļĦ
çļĦæı ıè¿°
Ġ è¥¿
Ġ å»º
se le
ch ron
Ġex cept
åħ¶ ä¸ŃçļĦ
æķĻ ä¹ī
Ġinte ri
æİ¥ ä¸ĭæĿ¥
Ġmu on
æĽ² éĿ¢
æīĭ æ®µ
çĮ ľ
ĠNe umann
Mn O
bold math
spa ces
Ġscien tific
Ġ å¼Ģ
Ġ éĢŁ
Ġ å½±åĵį
Ġare as
vi e
Ġç ¢
è¦ģ ä¹Ī
çº¿ ä¸Ĭ
ä¸¤ è¾¹
æĺŁ äºĳ
ç»Ħ ä»¶
Ġj unction
Ġnon uni
Ġspect ro
ä¾Ŀ æį®
SD SS
M on
R E
T B
n j
} ''
Ġf ine
Ġd f
ç» ª
åĽ Ĭ
åĪĨ åĮĸ
åĲĮ ä½į
èĩª åıĳ
çķ ľ
åİŁ çĤ¹
åĩĨ å¤ĩ
åħ¼ å®¹
å½Ĵä¸Ģ åĮĸ
d ig
Ġ äº§
Ġ ä¹ĭéĹ´
æĪĳä»¬ æľī
æĪĳä»¬ å»ºè®®
è¢« è¿«
Ġen do
è´¨éĩı åĴĮ
æ¯ı ä¸Ģä¸ª
Ġtra ditional
Ġfrac tions
Ġul trac
Ġnonperturb ative
Ġb ot
ä¸Ń ä¸ĸçºª
ĠH E
ĠH opf
çī¹ çĤ¹
cri pt
åĽĽ åįģ
ä¼° ç®Ĺ
åįı è°ĥ
å®« å»·
èĤĮ èĤī
C r
n q
çļĦ éĩı
Ġpro tein
ĠB i
ç¬¬ ä¸ª
Ġrela te
çº³ åħ¥
å¾Ī å®¹æĺĵ
çı ł
Ġtrajector ies
or m
el ine
æĢ İ
par ts
çĤ ī
æĥ ł
Ġsur prising
åĲ« ä¹ī
è§Ĩ è§ī
çļĦæİ §åĪ¶
Ġwor ds
Ġsatu ration
n os
Ġb ig
æĸ ¥
åĨ ķ
om orphisms
ç¼ ħ
,.. .
åıł åĬł
Ġillustra ted
Ġsurround ing
}{ {
ĠL ya
Ġç ķ
åħ³ éĹŃ
mic ro
}| \)
èĥ Ĩ
æ¯ı ä¸Ģ
èĸĦ èĨľ
éĦ Ĥ
æĭľåįł åºŃ
] \\
g i
Ġ éĢŁåº¦
åĲĮ çĲĨ
è¯¥ åľ°åĮº
éĻĲ åº¦
comp act
åĶ Ĳ
åĤ¨ åŃĺ
æįķ æįī
çļĦç¤ ¾ä¼ļ
çļĦæĶ¯ æĮģ
çļĦ å®ŀ
Ġp ub
Ġra nging
Ġnon Gaussian
åĽ¾ ä¹¦
æĴ °
Ġinitial ly
Ġvi bra
æ §
Ġ }(\
çļĦ éĻĲåĪ¶
an a
ĠD es
åľ° ä¸Ń
go ing
ç©¿ è¿ĩ
T A
ra bly
å¹¶ è¡¨æĺİ
æĦı è¯Ĩ
Ġparame tric
è¾ĥ å°ı
æ±Ĥ åĴĮ
åįı å®ļ
pt ons
dri ven
B E
B R
J y
K S
Ġ ä»£æķ°
ga s
çļĦæ ®
cu lar
äºĶ åįģ
Ġlong range
æĶ¿æ²» äººçī©
Ġkine matics
Ġpara bolic
Ġrun ning
resul ts
Ġhomo topy
a q
è¿ Ħ
çĽ¸ è¿ĳ
åĪ° ä¸Ģä¸ª
åĬł æĿĥ
è¾¹ å½¢
el la
åį ľ
è¿Ļ å°±æĺ¯
Ġmo tivated
Ġä¸º äºĨ
çĽ¸å¯¹ æĢ§
Ġcir cle
çļĦæĶ¿ æ²»
Ġquali tative
ä¼Ł å¤§çļĦ
å°Ŀ è¯ķ
åĤħéĩĮ åı¶
Ġ å½¢æĪĲ
Ġa rm
Ġin t
Ġd B
Ġre le
å¹ ¸
éĵ ¸
éĴ »
åĨĻ çļĦ
åĨĻ ä¸º
Ġreason able
çĺ ¤
Ġvisi ble
t A
ma xi
ãĢĤ ï¼Į
Ġof fer
Ġw hy
Ġm s
å¹´ æ³ķåĽ½
æ° ¯
æĪĺ æĸĹ
Ġbound aries
é¡¶ ç«¯
åįİ çĽĽ
éĺ² æŃ¢
Ġç² ¾
Ġprog ress
st ing
æĺŁ çļĦ
Ġdo ts
æĶ¿ æĿĥ
^+ _{
æł¸ åŃĲ
Ġsol itons
çĪ¶ äº²
Ġstra in
èĬĿåĬł åĵ¥
g ho
Ġ çī¹æĢ§
Ġa dop
Ġb as
Ġbe ams
Ġfi ber
åįĬ çĲĥ
Ġfirst order
ä¸ľ åĮĹ
ä¼ĺ åħĪ
Ġtri vial
æº¶ è§£
Ġmat ch
Ġman ner
Ġfas ter
Ġstrict ly
e mission
g eneral
| _\
si mal
å¯ Ĵ
è¿Ļ è¡¨æĺİ
åı¯ æµĭ
åĬ¨ èĦī
Ġl igh
è¾ĥ å¤§
åĬ¿ åĬĽ
èĹ »
ĠWith in
Ġprincip les
Ġreli able
Ġremark able
èĸĽå®ļè°Ķ æĸ¹ç¨ĭ
h el
| |^
ä¸į åı¯èĥ½
Ġç ĭ¬
å¤ļ æ¬¡
ä¹ĭ å¤Ħ
Ġga u
åĮĹ ç¾İæ´²
Ġclassi fy
é£Ł åĵģ
éĢĤå½ĵ çļĦ
æĹħ è¡Į
åĵ¥ä¼¦ æ¯Ķäºļ
x rightarrow
| <\
åĲ ŀ
^* -
um er
Ġsi licon
åīį éĿ¢
å¾® å°ı
èĭ± éĽĦ
Ġspace times
åĪļ ä½ĵ
c lassical
Ġ èĩ³
Ġ èĢĥèĻĳ
Ġw it
èĢ Ģ
éĽ Ģ
Ġuni queness
Ġdop ed
Ġcyc les
çŃīç¦»åŃĲ ä½ĵ
c luster
æķ° åĪĹ
ĠI ts
res sible
åĲİ éĿ¢
åħī çº¿
)) -\
å¸ĥ æĭī
ä½¿çĶ¨ äºĨ
ç»Ĩ èĬĤ
æĳ© å°Ķ
çļĦçŁ ³
Ġregular ity
æĭĵ å±ķ
è¶ĭ åĬ¿
Ġinteger s
j lim
^{ {
åľ¨ éĤ£éĩĮ
æī ģ
å¸ĥ é²ģ
åĽ¾ çīĩ
åıį é¦Ī
Ġinter section
lecu lar
Ġmany body
å·¨ åŀĭ
bos on
gligi ble
g x
Ġ äº¤
åı¯ çĶ¨
Ġcomp r
so ci
Ġlo ok
Ġtrig ger
Ġs ke
åĴĮ å¤§
li k
Ġv on
ĠS L
big vee
Ġdis ordered
Ġç ±³
Ġcha nging
èĤ ¾
Ġ\; .\)
\; ,
ä»ħ ä»ħ
æŃĮ æĽ²
è¯» èĢħ
Ġsitu ations
çļĦ è·Ŀç¦»
çļĦ æķ°åĢ¼
an cy
åĩº çĶŁäºİ
us ing
ä¸ĸçºª ä¸Ń
ä¼°è®¡ åĢ¼
Ġç² ĴåŃĲ
Ġcali bration
Ġa ir
å¹ ½
ä»¥ åħ¶
Ġquan tity
Ġdata b
åįĹ æĸ¹
æķ°æį® åºĵ
äº§çĶŁ äºĨ
åľĨ åĳ¨
ç¿ ģ
å®¡ åĪ¤
G u
w king
± ä¹Ĳ
Ġ energe
çļĦ ç»ĵ
çļĦ å¥³
çļĦ æķ°éĩı
ä¸Ģ å¥Ĺ
^* =\
è¢ ĭ
con st
ç»ı èĲ¥
Ġsub space
ä¿® éģĵ
å¹³éĿ¢ ä¸Ĭ
ĠSU SY
ĠçĦ¶ èĢĮ
Ġquas ar
vio let
éĢļè´§ èĨ¨èĥĢ
}\ ;\
)\ }.\)
nu lar
var kappa
ç§į æ¤į
^* .\)
Ġsol iton
Ġproje cted
Ġcommon ly
å¹´æľĪ æĹ¥
B i
b ounded
Ġ åĬ¨æĢģ
}\ }.
}\ ,\,
ç§ Ģ
éĽ ĩ
Ġfa int
å¦Ĥæŀľ æĺ¯
other wise
Ġvic inity
] ]
åı¯ éĿł
è½ °
}}\ ,\
åħ¬ æ°ĳ
åĨħ åľ¨
åħĭ æĭī
}] ,
Ġcontribu te
ii i
çĬ¹å¤ª äºº
Ġsumma ri
Ġspar se
cryst al
' ).\)
t v
Ġ éĩıçļĦ
å¯¹ é½Ĳ
Ġan tic
èī² å½©
åŃĹ èĬĤ
çº³ ç²¹
æīĭ æľ¯
å®ŀéªĮ ä¸Ń
èģļ éĽĨ
pical ly
bur g
çļĦæ¯ı ä¸ª
Ġfrag mentation
T o
çļĦ åħ¨
Ġe asy
Ġm m
æĪĲ äºĨ
ĠR iver
Ġpo wers
çĶµ æŀģ
åĬł å¼º
Ġac cep
æĿŁ ç¼ļ
åºĵ ä¼¦
Ġcolle ction
Ġheli um
C E
p un
Ġ åħĪ
çļĦ çĶµåŃĲ
Ġde formations
çĮ «
é¼ »
' )\)
R O
çļĦ æľīæķĪ
be tween
ĠM ar
ä¸į åıĹ
Ġdiffere nti
çĻ Į
ç®Ģ è°Ĳ
æ±Ĥ å¯¼
yn man
Ġprotocol s
Ġrough ly
Ġhu man
è®½ åĪº
L X
s ha
Ġc lari
åĪ Ģ
cal cu
åĴĮ åľ¨
åı¯ çĶ¨äºİ
åĲĳ éĩıçļĦ
ul t
æ¸© åº¦çļĦ
Ġthere by
ful ly
\ }^
w w
Ġ= \,
hi fted
æĺŁ åĽ¢
ex ten
Ġhigh energy
äºĭ ä¸ļ
Ġsingle t
æī¹ è¯Ħ
è¡į çĶŁçī©
Ġag grega
Ġ åĵģ
Ġ è¡¨ç¤º
çļĦ åŃĲ
}{ }_{
Ġe ll
ĠM ott
Ġdis continu
è± Ĩ
quen tial
ç¬¬äºĮ æ¬¡
ç§ĺ å¯Ĩ
} ~~
Ġis omorphic
\, {\
ç¨ ¿
çķĮ éĻĲ
çļĦä¸Ģ ç»Ħ
ĠRe la
çļĦç´ §
Ġinstru ment
Ġresi dual
= |\
] )\
m x
Ġ ^{(
me tic
Ġin er
æ³ µ
æĮ ª
Ġj unctions
åħ¬ å¼Ģ
æłĩ è®°
å¾® è§Ĥ
åĽŀ å½Ĵ
åľ£ ç»ı
æĪĳä»¬è¯ģæĺİ äºĨ
vil le
ĠBan ach
b ers
Ġa ct
Ġa ges
åĬł æ³ķ
Ġsc at
ç»Ļ å®ļçļĦ
ish ing
Ġformu lated
Ġquali tatively
Ġhierarchi cal
d F
Ġ ç»Ń
Ġ æĺŁç³»
çļĦ åı¯èĥ½æĢ§
åľ¨ è¿ĻäºĽ
åľ¨ æŁĲäºĽ
Ġm en
ä¸Ń æīĢ
è¯ ŀ
Ġon eloop
çļĦç ķĮ
^* +
ca se
å»º æ¨¡
æ» ´
è¿Ļç§į æĸ¹æ³ķ
ç¨³å®ļ çļĦ
Ġindic es
éŃ Ĥ
Ġsubse quent
ĠObserv atory
Ġexpa nding
ovi an
M u
R es
T X
åĴĮ S
ä¸Ń è¢«
pe ak
ĠM ag
ä¸į è¶³
äºº å·¥
ä¸Ģä¸ª æĸ°çļĦ
æľĢ çĿĢåĲįçļĦ
æ° ®
åī§ æľ¬
åĭĴ æĸ¯
ĠCon sider
çļĦæ² ³
èĬŃèķ¾ èĪŀ
L D
M ark
ta bility
le an
ä¸Ģ åĪĩ
Ġma nipu
Ġsu ms
ç»ĵ å©ļ
Ġen velope
è¾¾ å°Ķ
å¿ħ çĦ¶
que e
éĿĻ çĶµ
Ġinterpre t
Ġprobab ly
Ġvir tual
A D
d or
y e
Ġ ç§ĳ
Ġ- {\
Ġpro ject
ĠB ra
çļĦæ į
è¡¨ è¿°
å®ŀ è¡Į
çĲĨè®º åĴĮ
Ġcol ors
çº¿æĢ§ ç©ºéĹ´
åĲ« éĩı
åİĦ ç±³
+ [
L ie
Ġb oo
å¯¹ æµģ
åŀ Ĵ
Ġcalcu lus
èĲ¨ æĸ¯
ĠSi milar
Ġaccurate ly
Ġempha sis
K B
P b
p en
Ġ }\)
çļĦ ä¸ī
me ters
Ġd g
ĠR u
Ġparame teri
Ġta ble
åıĽ ä¹±
Ġ å¯¹ç§°
åº ĩ
Ġmodel ling
æĢ» åĴĮ
ĠDi richlet
Ġholog raphic
Ġ ä»»
Ġ èĻĳ
ch er
ĠC os
Ġfi de
op ti
å®ŀ ä¾ĭ
æį® è¯´
Ġeffe ctively
Ġstar forming
Ġindependent ly
Ġæ° ĳ
Ġcre ation
Ġcoo pera
triang leq
B bb
M ar
b r
çļĦ è§Ĥæµĭ
le f
è¿Ļ ä¸¤ç§į
nu ll
ä»ĸ ä¸İ
åĲĪ éĩĳ
æ¬§ åĩłéĩĮ
ns tein
ç»Ŀ ç¼ĺ
ĠæĮ ģ
Ġpecu liar
Ġfle xi
) $
B o
R R
\ #
x F
Ġ ä¸ļ
Ġe ra
æĺ¯ æĹł
ä¼ Ļ
}= [
çĶµ åĬ¨
åı¯ä»¥ æĬĬ
åĪ© æĸ¯
ther n
ding er
ĠAs suming
ev y
çİ¯å¢ĥ ä¸Ń
çļĦæĬ ķ
Ġag ents
Ġpromis ing
Ġfru stra
) }^{\
Ġ ç§¯
er re
el ler
Ġmean ing
å¢ĥ åĨħ
Ġmis sing
Ġerg odic
Ġmirr or
P E
Ġ ä¾ĭå¦Ĥ
ä½ĵ éķ¿
ys te
low ing
Ġnon relativistic
Ġcor ona
æ¶ Ĥ
èĩ´ åĬĽ
å¼º å¤§
^{* }=
)! }\
Ti O
çºº ç»ĩ
çļĦ éĥ¨åĪĨ
ä¸Ģ æ®µ
Ġma x
æĪĳä»¬ è®¤ä¸º
nu mber
ĠB ell
ff er
å¤ļ æł·
æ¶ ¯
æ¼ Ĥ
äºī è®®
ä¼Ĭ æľĹ
åıªæľī åľ¨
åģ¶ æŀģ
c ous
p les
Ġ hat
çļĦ è¡Įä¸º
an ge
Ġcon e
å¯¹ æĬĹ
ces sible
å¾Ĺ åĩºäºĨ
åı¯ä»¥ å¾ĹåĪ°
ĠJ osephson
äºĮ åıī
Ġgra in
ä¼ł éĢģ
éĢī åıĸ
å®ŀéªĮ æĢ§
\; ,\)
Ġæ¨¡ å¼ı
Ġsyste matically
art ree
Ġcount ing
åįİçĽĽ é¡¿
k f
r hd
Ġ è®®
Ġin comp
lon e
ç§° ä¹ĭä¸º
æ± ¤
Ġgeneral izes
æīĵ è´¥
Ġbran es
çªĹ åı£
A dS
a po
Ġin duce
æĪĲ ä¸Ģä¸ª
Ġpre liminary
éĶ Ĳ
åı¤ æĸ¯
Ġet c
triangle right
èµ¤ éģĵ
Ġunusu al
q p
s ho
Ġ éĻĲåĪ¶
Ġ\ |^
mu la
ĠS peci
å¤§ èĩ£
æŃ¤ åľ°
å½ĵ ä¸Ķä»ħ
ä»»æĦı çļĦ
åıĳçĶŁ åľ¨
åħ´ å¥ĭ
éĿ¢ç§¯ å¹³æĸ¹åħ¬éĩĮ
Ġvanish es
F F
| +\
Ġ è¿ĲåĬ¨
ä¸º ä¸Ģä¸ª
æŁ Ķ
å°± æľī
ç¼ Ģ
}| {\
åľŁ å£¤
åºĵ ä»ĳ
æ¯Ķè¾ĥ äºĨ
æ³¨æĦı åĪ°
é»Ħ éĩĳ
é©± åĬ¨çļĦ
èģĶç³» èµ·æĿ¥
Ġwin dow
M I
T C
| ^{-\
çļ Ĩ
^{\ ,
Ġse g
çĤ¹ åĴĮ
Ġab st
eli ke
U S
Ġ çĽ¸åħ³
æĽ²çº¿ çļĦ
Ġdistor tion
Ġ )\)
çļĦæ ¬¡
^\ #
men su
åĪ¶ å®ļ
ç¡® å®ŀ
je t
^{* }_{
çĵ ¶
Ġfu sion
ĠMe th
model s
Ġfaci li
F W
T s
Ġ ~~~~
Ġe pi
}} }.
Ġal ignment
åıĳ çĶµ
Ġl l
åĨħ æł¸
æ¸ Ĺ
æķĻ å£«
è®¾ æĸ½
çĿĢ ç§°
æĮĩ éĴĪ
åĳ½ é¢ĺ
ä¼łç»Ł çļĦ
ĠNew ton
Ġopp ortu
èµ·æºĲ äºİ
è©¹ å§Ĩæĸ¯
d ra
Ġ åħ±
Ġ ä¸ĢäºĽ
çļĦ éĩį
cal es
Ġma ser
äºº æīĢ
Ġdis tant
æ³° åĭĴ
Ġç¡® å®ļ
Ġaxi al
Ġemit ted
d H
i H
Ġo be
åľ¨ å¤§
ä¸Ń åŃĺåľ¨
Ġex ception
}{\ |
æľĢ éĩįè¦ģçļĦ
Ġnew ly
har monic
çİĭ å®¤
Ġconclu sion
G M
k t
} *
Ġ ).\)
Ġ æĿ¡ä»¶
çļĦ å¯Ĩåº¦
Ġas semb
Ġsta tus
ph onon
'' ,
ĠEx peri
en ess
Ġb la
è¿Ļ æĺ¯ä¸Ģä¸ª
ĠF u
}}{ |
å¾· æĭī
Ġhigh resolution
)| _
çĸ ı
Ġfactor ization
è¡Ģ æ¶²
Ġexplo red
Ġthermodyna mics
Ġmargin al
Ġ æµ·
ur s
var Lambda
çļĦæ ¬§
)) }\
Ġper co
cri ption
ç¼ĸ ç¨ĭ
ç½Ĺé©¬ å¸ĿåĽ½
ĠRic ci
ellu lar
Ġ è¯Ń
Ġ åĽ´
Ġ\( +
çļĦ æĹ¶
Ġi tera
æĿ ¨
åĽ½ çļĦ
ä»ĸ è¢«
ĠN on
åĪ¶ çº¦
éĩĮ éĿ¢
ç¬¬ åĽĽ
Ġcor onal
Ġinclu sion
Ġcar rier
bo ration
ĠGau ss
Ġdissipa tive
g le
t g
Ġin v
åĲ ¹
è¡ Ĺ
ces sion
}\, (
lin es
éļĲ èĹı
åĲĮä½į ç´ł
çļĦ èĩª
çļĦ æĺŁç³»
ri city
ä¸Ģ å¯¹
pe cted
çļĦæ ºĲ
å¥ ł
Ġè¿Ļ æĺ¯
Ġcounter part
Ġresis tance
K a
Ġ ä»»ä½ķ
de ca
math tt
Ġre tur
ä¸º é£Ł
Ġmo menta
ä¸» å¸Ń
æ» ¨
åį¡ æĭī
çĭ¬ çī¹çļĦ
åĪĩ åĲĳéĩı
^{+ }
ĠæĶ ¶
Ġ(. ),
çĳŀ å£«
J X
h b
Ġ æķĪ
or ting
ä¸Ģ çĻ¾
}} },
ĠS ystem
è´ ¾
Ġla bora
the less
)| .\)
Ġdetermin es
ä¸Ģèĩ´ æĢ§
çĵ¦ å°Ķ
Ġquanti fy
çļĦæĮ¯ å¹ħ
P M
Ġ åĮºåŁŁ
ä» Ļ
Ġcon st
ĠM A
åıĳ åħī
ä¸¤ æĿ¡
op tical
åºĶ åĬĽ
æľŁ æľĽ
Ġgra phi
åĮĹ æĸ¹
Ġcalcu lating
æĬĢ å·§
omi al
èĴĻ åı¤
Ġari th
F ock
K lein
d Y
Ġc us
å¾ ¡
éĻ ª
æĿ¥ è§£éĩĬ
ç¨ ł
ĠK u
è´¨ çĤ¹çļĦ
\{ -
å¾· åįİ
ä¸ľ è¥¿
ä¸ĢèĪ¬ çļĦ
system s
Ġveri fy
o ra
ĠS m
ĠS tr
\\ -
æµģ åĩº
å¼ķ è¿Ľ
Ġfer romagne
æ¯ķ ä¸ļ
æ¨ª åĲĳ
æī« æıı
Ġinteri or
çļĦ æľīéĻĲ
re hen
Ġw al
Ġe limin
-\ !
ct ro
ĠA x
ĠS wift
\| (
ä¹Ł ä¸į
ĠæĪĳä»¬ ä¸º
è¯¥ æĸ¹æ³ķ
æĦı å¿Ĺ
è¿ŀ éĢļ
}] _{
Ġanaly se
h dots
Ġ è®©
ho m
ĠC he
å®ĥ åľ¨
æľº ä¼ļ
po tent
Ġæķ° åŃĹ
Ġmon op
Ġch rom
Ġinver sion
åĳ¼ åĲ¸
Ġsoci al
é¬ ¼
F M
{ }_{
Ġ éĢł
Ġ è§Ĥæµĭ
Ġa zimuth
Ġ& (
çļĦæ £
ĠD ue
Ġæ ĵįä½ľ
ĠæĪĳä»¬ ä»İ
çº¦ æľī
å½¢å¼ı çļĦ
åĽ½å®¶ åħ¬åĽŃ
æ´¾ çļĦ
ep he
' ).
Ġf riction
Ġde fect
ab ilities
åŃ¦ ä¸Ń
åħī éĢŁ
åħĭ äºº
nder son
çº¦ ä¸º
Ġbi fur
å¦ Ļ
Ġinfinite ly
Ġquad ru
Ġpuls ars
Ġsemicon ductor
uka wa
; \,
a de
b or
p ul
Ġ è¿ĻéĩĮ
ma ssive
çļĦ åİŁ
äº ¥
åľ° ä¸ĭ
Ġpo or
)) ,\
æĪĸ åħ¶ä»ĸ
Ġter min
Ġanaly zing
}^* \
çļĦå¤§ åŀĭ
èĦ± ç¦»
æ°¢ åİŁåŃĲ
Ġæ¸ ©åº¦
Ġç¼ ĸ
ĠChern Simons
! [
A O
H T
j math
Ġ å¾ģ
ä» Ķ
Ġt s
Ġb on
çĽ Ĺ
åĲĪ éĢĤ
pro per
å¸ĥ æĸ¯
æł¼ æŀĹ
top es
fine ment
Ġæ² »
Ġdeno te
' +\
c table
ĠM HD
ĠThe ir
ell ing
æ³ķ åĪĻ
å¤ļ éĿ¢
ç§° ä½ľ
ç¡® ä¿Ŀ
èĬ ³
å®Į å¤ĩ
å£° æ³¢
é¢Ħæµĭ çļĦ
}^* (
Ġten sion
Ġç¼ ©
ĠCol lider
Ġarchi te
çļĦ éķ¿åº¦
Ġre ad
æľī çĲĨ
ch arge
åĮ ł
ĠS a
ds or
sta ndard
Ġte nds
æĭī çī¹
æµģ çļĦ
æĶ¾ åľ¨
Ġcompu tations
éħį æĸ¹
Ġphysical ly
Ġmagnitu des
Ġæ· ·
\ }^{
g low
Ġ ä¾ĭ
Ġ å°ĳ
Ġc li
æĭ Ĩ
ä»£ çĲĨ
Ġsha pes
çĽ´åĪ° å¹´
æŃ¦ åĻ¨
wor ld
Ġgeode sic
ti ves
si des
ĠA T
)! }{
è®ºæĸĩ ä¸Ń
Ġwall s
D NA
z w
Ġcon duction
çİ ī
to pe
å¾® ç²Ĵ
Ġvis ual
SN R
FeAs O
M c
p osed
¿ Ĵ
Ġ åĳĺ
Ġw h
æµ ¸
di re
é¢ ģ
ĠV ari
å½ĵ ä½ľ
Ġop tics
ä¿Ŀ éĻ©
æİ¨ ç¿»
E V
p n
Ġb en
ä¸Ĭ ä¸ĭ
åĲİ è¢«
Ġç ¥ŀ
åĮĸ çī©
éĥ¨ ä»¶
åŀĭ çļĦ
cha rac
æķ£ æķ£
å·´ åĭĴ
æĻ® é²ģå£«
äºī è®º
åħĥç´ł åĢ¼
cop ic
pr inci
Ġaccele rated
IM P
polar ized
' _\
A belian
Y ang
çļĦ è¯Ŀ
Ġo w
åĲ ĥ
è¿Ļ æĦıåĳ³çĿĢ
ine ar
ä¸į å¹³çŃī
ne ighb
Ġne t
å¹¶ ä¸įæĺ¯
tro l
å°ĺ åŁĥ
åĺ ´
åįļçī© é¦Ĩ
\ !\!\
çĶ ľ
ĠA b
çļĦç Ń
å¸¸ å¸¸
Ġun con
æĽ´ å¤§
è®¤ è¯Ĩ
äºĶ ä¸ª
åįķä½į åĪ¶
Ġyi el
Ġcommu tative
Ġfocu sing
Ġmar ket
æ¯« ç±³
B r
in a
ä¸Ń åĩºçİ°
vi er
æĸ¯ æīĺ
åħ¬ çĲĨ
åīį èĢħ
Ġflu ids
Ġestima tors
éĢļå¸¸ æĺ¯
å¤įæĿĤ åº¦
Ġinsta bilities
å¹´åľ¨ ä½į
åıĺå¼Ĥ æĢ§
Ġins ight
å°ļ æľª
åĨł åĨĽ
. (
n b
Ġn il
ĠB u
Ġsta ges
å» Ĭ
å·¥ ä¼ļ
æ´Ľ åħĭ
æ¶Ī éĻ¤
Ġpropaga ting
Ġcap able
Ġwidth s
Ġwri te
Ġ leq
ä¸Ģ éĺ¶
li cities
æĹ ģ
ãĢģ ãĢĤ
æĦŁ åħ´è¶£
çı į
Ġcross ing
H V
N I
k h
Ġ åĥı
in z
Ġin duces
)= &\
ĠC en
å¯¼ çĶµ
éĵ º
å¿ĥ èĦı
ĠBe cause
Ġoc cup
u ally
å®ļ ç§¯åĪĨ
ms tellar
å¯¹ç§° çļĦ
æ´» æĢ§
æĳ ĩ
Ġassoci ation
ä¹ĺ ç§¯
Ġtimes cale
lator s
Ġarbit ra
Ġreco mbination
Ġins pi
mini mal
ä¿®éģĵ éĻ¢
, +\
Ġ ä»İèĢĮ
Ġ ~~~
Ġp arent
Ġde ci
çĽ Ĩ
çĲĨ æĢ§
Ġar ri
Ġval ence
æıı ç»ĺ
Ġformula e
pres ent
è´¢ æĶ¿
åī© ä½Ļ
Ġdec ision
çļĦç« ĭ
qua res
] \,
r times
s cu
Ġ èĻ½çĦ¶
çļĦ åľ£
åĬ¨ èį¡
å°Ķ çī¹
è®¡ æķ°
æĸĩ æľ¬
è½¬ åĲĳ
Ġlar g
é² ¸
ç¼© å°ı
æľĢå¤§ åĢ¼
ĠæĬ Ĭ
Ġtarge ts
Ġhorizon tal
tific ial
çļĦæĳ ©
Ġunivers ality
vie wed
H ilbert
Ġ åĬŁèĥ½
çļĦ åĨħå®¹
^{ +\
Ġc i
ĠH er
å®ļ ä½į
å½¢ è±¡
æıĲ ç¤º
Ġdynamical ly
ĠæĶ ¯
çļĦç¨ĭ åºı
F P
ª ģ
_{ <
le ts
åĪĨ ç»Ħ
è¦ģ ç´ł
èĩª èº«
ctr al
åĪĹ è¡¨
)] .
Ġdu ration
}^{* }\
lin ed
æ³Ľ åĩ½
ĠMo st
æ£® åł¡
Ġquasi particle
Ġori ented
Ġsubstantial ly
å½ĵä¸Ķä»ħ å½ĵ
L et
O s
Ġ æĸ¹ç¨ĭ
Ġf ab
æĭ ±
æĭ ĸ
å¹¶ æ²¡æľī
æĮ ĸ
å¾· éĩĮ
åľ°åĮº çļĦ
ĠéĹ´ çļĦ
k q
p seudo
Ġ æĿ¡
Ġ è±¡
ä¸Ń å¾®
äºĨ è®¸å¤ļ
çĶŁ çļĦ
å¹¶ éĿŀ
å¹¶ åħ¥
è¯¥ åŁİ
åĻ¨ å®ĺ
åıĸ æ¶Ī
çĭ Ĥ
Ġuni ts
æĺ¾ç¤º åĩº
Ġcom ing
Ġä¸Ģ èĪ¬
èģļ åĲĪçī©
é¸ ¡
' -\
Ġ å¯¼èĩ´
}) )\
Ġis os
Ġde formed
æĪĲ æŃ£æ¯Ķ
Ġcomp li
å¤ļ éĩį
å®ĺ åĳĺ
åħŃ ä¸ª
èīºæľ¯ å®¶
Ġbary ons
åľ°ä¸Ń æµ·
Ġto t
sta t
}] .
mical ly
00 0
ay lor
Ġgrow ing
Ġæ´ »
éĺĪ åĢ¼
) )\\
B er
Ġ æĢ»
_{ [\
tion ed
å¹´ èİ·
ci r
og en
çĲĥ ä½ĵ
Ġsc an
ord on
ç½Ĺé©¬ äºº
é»İ æĽ¼
èľ ¡
èĦĬ æŁ±
MN ew
Ġreco gni
Ġ ç®Ĺæ³ķ
Ġ\( =\
Ġin stant
ho ton
}_{ [
æŀ ļ
åľ° å¹³
ç§į åŃĲ
Ġkn ot
Ġdefin ing
åĨľ æ°ĳ
Ġbackground s
comple x
' }=
] (\
ha d
du e
str ing
)] .\)
æģĴ å®ļ
æĻ¶ æł¼
å¼ķåĬĽ æ³¢
çİĽ ä¸½
åģľ æŃ¢
Ġattribu ted
7 2
f rame
Ġ ä¹ĭéĹ´çļĦ
ti a
le st
Ġi ce
ĠC D
ĠC R
ĠH II
)) |
Ġnon de
èĭ± æĸĩ
ä¹Ĳ åĽ¢
Ġ\\& +
pu ts
Ġcounter parts
åģ¥ åº·
Ġsq rt
Ġdiscri min
Ġa dsor
mu lated
ct o
Ġor bi
èĢĮ è¢«
åİŁ ä¸º
æł¼ æĸ¯
id en
éħ ¶
Ġdefin i
Ġfer ro
çļĦçĿĢ ä½ľ
ha s
æĺ¯ éĿŀ
åĪĨ æ³Į
ä½ľ åĩº
é«ĺ æ¸©
Ġobserv ing
å¸¦ å®½
çı Ģ
å¨ģ å°Ķæĸ¯
å¼± çļĦ
ĠçŁ ³
Ġrepro duced
Ġmajor ity
èŀį åĲĪ
çļĦæ¯Ķ è¾ĥ
o res
Ġ éľĢè¦ģ
Ġa lone
mi lli
ĠE qu
åı¯ä»¥ å°Ĩ
éĻĲ äºİ
æ³¨ éĩĬ
å¥ĩ å¼Ĥ
ä¸ĵ ä¸ļ
å°ıè¯´ å®¶
\ },\\
Ġ éĽ¶
Ġre lies
for d
çİ° ä¸º
{( }
Ġver sions
)] ^
Ġkn ots
Ġgo es
Ġnonlinear ity
Ġachi ev
çĬ¹å¤ª æķĻ
èĤĸ åĥı
Ġremn ant
Ġkin ds
åľ¨ å¹´ä»£
Ġra nges
çĶŁ æ¶¯
è¥¿ æł¼
è£ ¸
ä¿¡ å¾Ĵ
éļı æĹ¶éĹ´
æ¢ ģ
æŃ» äºİ
æĪĲåĬŁ åľ°
Ġdemonstra tes
çģŃ ç»Ŀ
Ġthough t
çļĦæĽ² çº¿
å¦» åŃĲ
Ġinci dent
B D
X X
] },
çļĦ è¿ĩç¨ĭ
re lated
æĿ ī
æĪĲ çĨŁ
Ġ| _{
æľ¬ è´¨
duc tive
Ġun til
åī§ ä½ľå®¶
Ġclassi fied
\; .
stru cted
æ ¿Ĵ
Ġ å®ļä¹ī
çļĦ ä¿¡æģ¯
çĶ ³
Ġ1 3
è¡Į èµ°
åĲİ åľ¨
ç»ĵæŀľ çļĦ
Ġsub groups
'' \
å§ĭ ç»Ī
æĺ¾ç¤º äºĨ
Ġout burst
åĤ ¬
Ġvie wed
Ġç¬¬ äºĮ
Ġhetero gene
Ġfide lity
A g
o per
u k
re dshift
åľ¨ ä½İ
ver sion
æľī çĶ¨
å¹´ äººåı£çº¦
ĠX M
çļĦç ł
çī¹ å®ļçļĦ
åĪ¶ åĵģ
å¹³ åĿ¦
æŃ¤ ç±»
å§ »
éĢļè¿ĩ ä½¿çĶ¨
Ġsimu late
ç¥ŀ ç§ĺ
è§£åĨ³ äºĨ
ĠSu b
Ġ(. ).
Ġæ± Ĥ
Ġpos terior
è¿Ħ ä»Ĭ
' )}
' }{\
P oisson
a ctor
}{ }^{
Ġg rid
æľī äºĨ
æĸ¯ æĭīå¤«
}=\ {\
ç³»ç»Ł ä¸ŃçļĦ
Ġli es
ç¬¬ä¸Ģ éĥ¨
emp h
Bigg r
èģĶåĲĪ åĽ½
diff usion
L o
N o
n at
p ower
ç§ ĭ
+\ ,
Ġde al
éĩı ä¸º
Ġco mes
end ing
åŃ¦ è¯´
co herent
nab le
åĵ º
ĠK K
åĨħ æĪĺ
åĩ½æķ° åľ¨
è®¾ ç«ĭ
åĻ¨ åĴĮ
æŀģ æŀģ
Ġsc atter
åĪĨå¸ĥ äºİ
ish er
Ġ: \
é¥ ²
ĠSch warzschild
MNew ton
[ (\
a cu
th s
æ³ ī
æ² ī
Ġqu ar
ç©º æł¼
ĠJ psi
Ġen coun
æŁ¥ çľĭ
äºĴ çĽ¸
åįĬ å¯¼ä½ĵ
éĴ ¥
æľª å®ĮæĪĲ
comp u
roma tic
Ġrepro duces
pho to
Ġcondens ation
Ġactu ally
C B
Ġ éĺ¶æ®µ
Ġ æĸ°çļĦ
çļĦ æłĩåĩĨ
ä½ Ĳ
ĠH ST
ne ar
Ġsta ck
Ġse mis
å¹¶ ä¸İ
os sible
ä½Ĩ ä»ĸ
åĽ¾ æĽ¼
Ġval ida
éŁ ©
æ°Ķ åĢĻ
Ġsecond order
ner gy
è¯¸ å¦Ĥ
å¼ºçĥĪ çļĦ
Ġwin ds
n h
u x
Ġ åİŁåŃĲ
ti e
Ġre semb
åº Ĩ
ĠH z
Ġk appa
Ġne ver
å¥ İ
Ġobtain ing
ç±³ å°Ķ
åĵ¥ å¾·
çļĦæİ ¥
çļĦç½ ĳç»ľ
éģµ å¾ª
C MB
c b
} })=
ma gn
çļĦ ä»»ä½ķ
Ġs quee
åľ¨ éĿŀ
è¿Ļ å°±
éĹ´ è·Ŀ
å¤ļ çļĦ
bu t
è¯¥ åĽ½
çİĩ é¢Ĩ
ç¥ŀ åľ£
Ġtimes cales
Ġbuil d
B T
] -\
åľ¨ ä¸į
Ġon ce
ĠB oltzmann
ĠP hy
pa ss
èĪ Ĵ
è¿Ļä¸ª éĹ®é¢ĺ
ä¹Ĳ éĺŁ
æĸ½ åĬł
spe ci
å½© èī²
å±ı éļľ
. }\
0 2
R W
k ed
en cies
Ġf b
el ves
ĠM ulti
Ġsta tem
åŃ¦ åĲį
åŃ¦ ç§ĳ
æ¸ Ķ
Ġen able
äº¤ äºĴ
åŃ¦å®¶ åĴĮ
ç²¾ç¡® çļĦ
Long leftrightarrow
Ġdegene racy
n f
Ġd V
æ³ Ħ
pp ler
tu ally
åĩº åıĳ
Ġfla re
çļĦçĪ ±
æĮĳ æĪĺ
S tokes
æľī æīĢ
ĠM any
ĠN body
å®ŀ åľ°
æĭī æĻ®
Ġga ps
Ġro om
)] ,
å¸Į å°Ķ
Ġgenera tes
è¥¿åħĥ ä¸ĸçºª
Ġdetermin ant
æĤ ī
éļĶ ç¦»
Ġbuil t
Ġrepresent ing
= }\
e ven
f ert
| }{|
çļĦ è§Ĵ
is tor
æĪĳä»¬ åĪ©çĶ¨
ĠM O
è° ¨
Ġda te
Ġli e
gre di
æĦŁ åºĶ
Ġrelev ance
abi Yau
åĲ» åĲĪ
Ġune x
Q C
æĺ¯ ä»¥
çĶ¨ éĢĶ
è¿Ļ ä¸¤
ĠH y
çļĦæ ļĹ
ĠD ark
Ġç ¨³å®ļ
æ³¢ å£«
åİŁ æľ¬
åħĭ ç½Ĺ
Ġ3 2
star s
)] \)
æľª èĥ½
åįł æį®
è¿ŀæİ¥ çļĦ
é¸ Ń
Ġbul ge
Ġhis tor
é¸Ł ç±»
Ġgover ned
Ġamb ient
Ġwire less
gho ut
Ġperco lation
' }}
G ra
Ġb ases
ri ties
Ġx i
)} _\
Ġas ymmetries
åĬł åĪ©
å·¦ è¾¹
Ġfit ted
+ }\
V O
c over
i med
z en
Ġex otic
to leading
ĠC r
ç³» ä¸Ń
æĮ Ĥ
ran ce
æıĲ çĲ´
Ġsp heres
çĲĨè®º ä¸Ĭ
str ong
we ak
æ²Ļ æ¼ł
ĠEx p
Ġcircu mstellar
æľ¬å¾ģ æĢģ
inc are
! \)
g luon
Ġ å·´
Ġre ver
Ġse quential
åĬł å·¥
pro duction
åĽ¾ æ¡Ī
æ· ĭ
å½¢å¼ı ä¸»ä¹ī
æ¨¡å¼ı çļĦ
Ġsimpli fied
æĮª å¨ģ
< |
z o
th ese
_{\ {\
äºĨ ä»ĸ
æŃ §
ĠM inkowski
ä½ľ çī©
çĽ¸ ä¿¡
Ġdi lu
Ġç Į
Ġcomp ression
åħī çİ¯
Ġfa ce
äº¤ éĢļ
Ġover lap
åĲĦ èĩª
val ue
sp an
Ġexpla ins
Ġstrength s
èĪª ç©º
F E
G W
I a
p lus
th ins
çļĦ ç®Ģåįķ
frac tive
åĴĮ ç¾İåĽ½
åı¯ è¾¾
é¢ ĩ
ĠN P
}+ (\
åŁº åľ°
us ed
çº¦ å¹´
{( }\
æł¹ æľ¬
Ġuni ta
æĶ¾ å¤§
å®ī æİĴ
Ġmanif es
Ġrequire ments
æł½ åŁ¹
æĸĩèīº å¤įåħ´
T V
Ġ å±ŀ
ti vities
Ġn umer
ä¸į ä¸Ģå®ļ
ci an
åĩº æĿ¥çļĦ
æİ¥ çĿĢ
Ġdyna mo
æ£ ĭ
æ¯ı æ¬¡
é£İ æĻ¯
èĵ Ħ
çļĦæ¡ Ĩæŀ¶
O r
Z n
d rical
Ġre v
}} ^\
æĪĳä»¬ éľĢè¦ģ
æİ ĺ
rou ghout
Ġnon negative
è®¾ ä¸º
çľ ł
èĤ Ŀ
æĭŁ è®®
æĶ¶ ç¼©
ç¡®å®ļ çļĦ
Ġä¸Ģ èĩ´
}\| _
Ġquanti zed
æ¿Ģ ç´ł
Ġion ized
Ġvis cous
Ġextre mal
{ .
é ¤Ĳ
Ļ ¾
Ġan ten
ĠM Hz
ĠB ur
è¾ Ł
Ġç ľŁ
Ġcomp rehen
å¹¶ ä½¿çĶ¨
å¹³ ç§»
ĠæĪĳä»¬ å±ķç¤ºäºĨ
Ġvari es
èĩ³ åħ³
å®ī å¾·
Ġ\(\{ {\
Ġcircu it
Ġsyn thesis
); \)
Ġcondens ates
R ay
S ha
}\ },
Ġpro min
nu s
åı¯ä»¥ è¯ģæĺİ
åĢ¼ ä¸º
Ġspa c
æĬĬ å®ĥ
åºĶçĶ¨ åĪ°
åĻª å£°
Ġactu al
Ġattemp t
a ction
åį Ĵ
ä¸į åĪ°
ä½ľ äºĨ
Ġç ¾İ
ĠO ri
Ġgra ded
Ġad ditive
åĲİæĿ¥ æĪĲä¸º
)&= (
è¡¨è¾¾ æĸ¹å¼ı
è°· çī©
Ġdiver gence
ass oci
Ġscre ening
A f
Ġa grees
çļĦ åĽĽ
ä¸Ģ è¯į
åĴĮ æĹł
Ġsta rt
Ġl ist
Ġinter vals
æķ°æį® çļĦ
sing le
çļĦæĬ Ĺ
Ġoff ers
åħĭæĸ¯ éŁ¦
å¼łéĩı ç§¯
ç° ĩ
æĸĩçĮ® ä¸Ń
Ġbal ance
pun ov
h n
r ons
Ġ èĪ¬
Ġs li
ro ben
}} |\
éĩı åĴĮ
æł ı
è¿Ľ å±ķ
Ġcan cel
åĻ¨ ä¸Ń
åĪĻ æľī
åı£ åĳ³
çģ ¾
_- ,
Bigg l
Ġafter glow
ĠSN R
] ;
Ġ ï¼Ľ
ol lar
ĠW igner
åľ° éľĩ
åĩº ä¸Ģä¸ª
æ¬ ²
å¾® æī°
ç½Ĺ å¾·
Ġun de
å·® åĪĨ
ik x
é£Ł çĶ¨
^{+ }(
nk ov
èĴ¸ æ±½
nucle on
åĢĻéĢī äºº
çļĦæ°Ķ ä½ĵ
Ġlabora tory
L BI
S c
Ġ è®¨è®º
Ġ å·²ç»ı
ãĢĤ (
ĠC H
ĠC auchy
ĠM u
åľ° çĤ¹
ĠE ach
åĲĮ æĢģ
)) }{\
:\ ;
Ġcre ate
Ġ... ,
Ġdiscrepan cy
èĩ´åĬĽ äºİ
P Q
T D
Ġ å®ĩå®Ļ
æĺ¯ çĶ±äºİ
at o
Ġr isk
ä¹ĭ åĴĮ
ten ing
od al
çł Ĥ
é¦ĸ çĽ¸
Ġmin or
Ġsimple st
çļĦæĶ ¾
åĶ¯ä¸Ģ çļĦ
åıĻ è¿°
çŀ¬ æĹ¶
ited imensional
R h
}{ =}
Ġin gredi
st ri
æľº çļĦ
å¯Ĩ çļĦ
bra ted
çİ¯ ç»ķ
åĭ ĺ
Ġæİ ¢æµĭ
Ġconserv ed
theore tic
ĠSpeci fically
thins pace
F A
P hys
r ig
Ġ æķ´
Ġ æĹ¥
Ġ= {\
Ġne gligible
Ġqu a
å¹¶ çĶ¨
tain ing
æŃ£ æķ´æķ°
éĵ Ŀ
åĨĽ å®ĺ
éĴ Ļ
é² į
Ġfla vour
æ¸©åº¦ ä¸ĭ
æł·æľ¬ ä¸Ń
Ġconside ration
åľ°éĿ¢ çĬ¶æĢģ
Ġspre ad
ä»»åĳ½ ä¸º
Ġperspe ctive
M HD
T ho
z q
çļĦ å¹³åĿĩ
çļĦ é¡ºåºı
ck e
åı¯ä»¥ ä½¿çĶ¨
con stant
ding ton
åħ¨ ä¸ĸçķĮ
æ¶ µ
éĴ ©
æĺŁç³» ä¸Ń
åĵĪ ä½Ľ
çĵ ·
Ġmost ly
Ġdefin ite
Ġç´ ¢
' ,\)
H ar
S h
i ding
| }{\
Ġ å®Ļ
Ġ æłĩåĩĨ
ä» ĵ
gin ary
çĽ¸ åĮ¹éħį
åĬĽ çŁ©
è§£ æĶ¾
å±Ĥ æ¬¡
åĬŁèĥ½ çļĦ
èĭı ä¸¹
ç£ģåľº çļĦ
Ġfour th
dyna mic
Ġconve ction
' |^
C al
{ ,
å Ĺ
Ġ å¾Ħ
ve ctors
Ġpro tons
ä»¥ ä¸ĬçļĦ
ĠH ence
æĪĲ éķ¿
çļĦç ¾¤
Ġfin ally
\{ |
æĢ» ç»ĵ
]\ !
è§£éĩĬ äºĨ
Ġevol ving
P u
V ol
i B
}\ ;\;
åĴĮ M
æľī çķĮ
big wedge
ä¸į ç¡®å®ļæĢ§
åįķ è°ĥ
å¯¼ çº¿
å°± è¯»
èĢħ åĴĮ
gra vi
Ġcomplex es
Ġweak er
è¡¡ éĩı
éļ¾ ä»¥
ey fert
åĬ³ å·¥
éŃ ģ
ä»¿ å°Ħ
resis tance
P lanck
Ġ\ },\)
Ġa p
Ġ& -
Ġb it
he et
è¿Ľ æĶ»
ä»£ æĽ¿
Ġ\(( {\
è§Ĥ å¿µ
}| _{\
Ġga mes
_+ }
dis tribution
Ġcent re
Ġcontain ed
Ġmodi fications
çİ» èī²
Ġanalog y
å°ºåº¦ ä¸Ĭ
ĠNew tonian
æķıæĦŁ åº¦
è¯Ĭ æĸŃ
Ġultrac old
Ġb is
ä¸Ń æĸŃ
lo an
Ġma rk
ĠS t
Ġh und
Ġy r
åĮĸ åĴĮ
åħī çļĦ
Ġac cessible
_{- }(
ç¾¤ ä½ĵ
åıĮ æĽ²
åĪĽ å§ĭ
æİ¨ æµĭ
5 2
a ts
}) /
Ġm ig
æľī åĪ©
è¿Ļ æĹ¶
Ġmo der
éĩĮ çļĦ
ç»ĵæŀľ æĺ¯
ä¼ł å¯¼
Ġcol li
çļĦæĶ ¶
DE s
Ġsatis fied
Ġbo dies
ä¼ģ åĽ¾
Ġrece iver
domin ated
Ġbot tom
i w
Ġ éĻħ
Ġc ut
Ġd ic
ç» µ
Ġde b
ĠA c
è´ ¦
é¢ Ĥ
æŁ¥ æī¾
éĴ ł
Ġsimilar ity
åĮħåĲ« äºĨ
èģĮ åĬ¡
çļĦçŁ Ń
åĮĢ éĢŁ
Ġrobust ness
é³ ŀ
åĸ·æ°Ķ å¼ı
B on
s r
x q
é ī
Ġ éĢļå¸¸
Ġ ç»ĦåĲĪ
ra b
çļĦ åħ³éĶ®
Ġe cli
Ġ\\ (
Ġpro ven
æĪĳä»¬ å·²ç»ı
du als
çļĦç ¾İ
}}\ ;
Ġcont in
é¦ĸ èĦĳ
ä¿® å»º
éĵ¾ è¡¨
Ġdiag nos
Ġdeco ding
éī ´
* }\
v v
{ }\
| ,\)
Ġ åŁºæľ¬
Ġre viewed
çī ²
Ġpro ducing
\| =\|
Ġle ptons
ç»´ çļĦ
ges t
æ¡ ĥ
èĢĥ å¯Ł
çĽ¸äºĴä½ľçĶ¨ çļĦ
Ġproced ures
Ġcaus es
Ġearly type
åĲ¯ åıĳ
ĠLy man
æĺ¾å¾® éķľ
' }(\
D P
Ġ }^
te re
åľ¨ ä¸İ
ä¸º æŃ¤
Ġde duce
ä»¥ ä¸º
ĠM S
^* _\
ĠK o
ĠæĪĳä»¬ å°Ĩ
Ġdes pite
åĽŀ çŃĶ
åı¸ ä»¤
åĲ¸ å¼ķåĬĽ
Ġgrow s
Ġinvol ve
K o
s ymmetry
Ġ ä¸ĸ
ä¸ Ļ
re ly
ĠA A
ĠS igma
ĠG u
åħĭ æ£®
çİĩ çļĦ
åħ· ä½ĵçļĦ
}| |
æĦı åĽ¾
Ġar rays
èģĶ ç»ľ
çİ¯ å½¢
å¥¥ å°Ķ
Ġformu late
Ġpara dig
Ġarbitra rily
) }),
in su
ä¸Ģ å¹´
ä¸Ģ éĥ¨
Ġde con
å®ļ éĩı
Ġ{ }
åĪ© çĽĬ
Ġfa ir
fin ing
})= -
åıĳçĶŁ çļĦ
ĠCo mbin
Ġband width
çĨ Ĭ
Ġrecon struct
B M
H F
M an
X ray
Ġ( {
åı¯ åĪĨ
Ġæ ĳ
åīį å¾Ģ
éĤ£ æł·
Ġover view
Ġconver ges
' })
Ġ è¿ľ
çļĦ åĽ½å®¶
Ġs ched
Ġis omorphism
ĠM or
ci te
çļĦæ ¿Ģ
éĩį åıł
æĸĩ æĺİ
åıĬ åħ¶ä»ĸ
ç»´ åº¦çļĦ
ç»ĵæŀľ æĺ¾ç¤º
åħ¨ éĿ¢
cc or
Ġproper ly
éŁ µ
Ġup da
æĲ º
åİļ åº¦
Ġtriang ular
) ãĢģ
i X
p ter
çļĦ è¯ģæį®
Ġp si
Ġin fer
)\ },
tic ity
ĠQ ED
åİŁ äº§äºİ
å§ ĵ
åŁŁ çļĦ
æºĲ èĩª
Ġinvestiga tions
Ġappli es
Ġquanti tatively
Ġcar riers
oun ced
çŃ¾ è®¢
Ġtriple t
ĠGal ois
æ±¡ æŁĵ
K er
x g
Ġ å°¼
Ġæ ¢
åħī æĿŁ
æĺŁ ç¾¤
è· µ
æķ°æį® ä¸Ń
Ġnear infrared
åŁĥ å°Ķ
æī©å±ķ åĪ°
å¼Ĺ éĩĮ
Ġæ¯ı ä¸ª
Ġlarg ely
Ġachiev able
< -
B y
L y
v u
º ¶
Ġ åĽĽ
ti mate
al la
se quence
éĹ´ æİ¥
çĽ¸ å®¹
æ¸ ł
è®¾ æľī
æĦı ä¸º
è¯´ æ³ķ
Ġreg u
çº¿æĢ§ åıĺæį¢
æ½ľ åĬĽçļĦ
appro xi
çİ» å°Ķ
Ġextra po
Ġconside rably
Ġoutflow s
ç§© åºı
N b
S t
w in
Ġ }+
æĺ¯ åħ¶
Ġpro spe
Ġma na
ĠI C
ĠC om
Ġdis t
vi ce
æ² ¼
èĢĮ éĹ»åĲį
Ġtw ist
åľº çĲĨè®º
Ġcur ved
^+ }\
ä¾Ŀ æ¬¡
Ġmodu lus
dr ons
çªģ åĩº
è¿½ æº¯
æľĢæĹ© çļĦ
æĭ¼ ä½ľ
Ġ è°ĥæŁ¥
å¤ ķ
æĺ¯ åĽłä¸º
)^ +
Ġne ural
12 8
äº¤ åĵį
åĩºçİ° äºĨ
Ġtra vel
å¼¹ ç°§
Ġevol ve
D C
G o
Ġ ç®¡
Ġ åĿĩ
Ġ åº¦çļĦ
me asure
ho st
åŃĲ åĴĮ
è¿ĩ æĿ¥
çº¿ æĿ¡
èī ĩ
æķĻ å¸Ī
Ġac ts
èĻ İ
_- ^
åİŁåŃĲ æł¸
Ġbehavi ors
Ġperform ing
Ġmonit oring
V I
j n
Ġ å¼ķ
Ġf ront
or ov
da tion
ce q
ge ometric
å¹´ æĭħä»»
Ġæ ½ľ
Ġdis pla
Ġnon thermal
è®¾ å®ļ
èĥ ģ
èĥ ĥ
æĸ¹æ³ķ æĿ¥
èĤ ª
dis tance
Ġbi partite
è¡Ģ ç®¡
çĲĨæĥ³ æ°Ķä½ĵ
diag onal
çļĦçĭ¬ ç«ĭ
çļĦæ¶ Ī
è¯¾ ç¨ĭ
L P
S B
s l
äºº æķ°
åĩº èº«
åħĥ ç»Ħ
our se
Ġmu tual
Ġsuper position
èģĶ ç»ĵ
Ġgas es
å¥³ ç¥ŀ
_{+ }(
ĠDi ffere
åħį çĸ«
stu dy
lef tarrow
Ġmoder n
( ),
K M
S o
\ ;\;
c ra
Ġ åħ¸
Ġ éĩĬ
Ġ è®¸å¤ļ
text tt
Ġpro ceed
ĠI V
çĽ¸ åĬł
çĽ¸ ç»ĵåĲĪ
æĸ¯ å¡Ķ
éĿ¢ ä¸Ĭ
éĩį äºİ
éģ ®
æĹł çĹĩçĬ¶
ä»» èģĮ
åħĭ åħ°
ç«ĭ åį³
Ġta sk
å¯Ĩåº¦ çļĦ
åĵĪ åĭĥ
Ġoscillator s
Ġinsu lating
ĠLo cal
Ġrepul sive
è¡ĮåĪĹ å¼ı
åĵº ä¹³
' },
ļ ´
do u
ĠB oo
var Phi
åĩº åı£
ĠX Y
ä»İ ä¸Ģä¸ª
om er
Ġda y
æ¶ ¦
äº¤ æĽ¿
åĲİæĿ¥ åľ¨
éģį åİĨ
Ġconject ured
çļĦæı Ĳ
åį± éĻ©
Ġmet als
Ġinclin ation
Ġarith metic
c frac
q r
lo ss
ĠZ n
éĢļè¿ĩ å°Ĩ
Ġver sus
åģļ æ³ķ
Ġavera ged
è½¬æį¢ ä¸º
ĠAr ray
æĭį æĳĦ
çļĦæĮĩ æķ°
ibb s
i lu
Ġ é¡¿
lo ch
ĠP b
ç« ĸ
åĮº çļĦ
è¯Ń åĴĮ
æķ£ æĸĩ
å·´ æĭī
Ġconver sion
æµ® çĤ¹
é½Ĳ æ¬¡
Ġfila ments
Ġresol ve
d b
f irst
w hat
al d
çļĦ åħ¶ä»ĸ
}\ !\
is ons
Ġ= {
Ġb ene
åľ¨ å¯¹
se mi
}, &
ĠG o
Ġæ ¤
ä»İ ä¸Ń
ĠMo tivated
gu ide
åį°åº¦ æķĻ
titu de
å© Ĩ
Ġsubse ts
éĦĤ åĽ¾æĽ¼
Ġazimuth al
' ),\)
: (
G ordon
Ġ è°ĥ
Ġ ç»Ļ
çļĦ è§Ĵåº¦
Ġd X
Ġpro xi
æĪĳä»¬ åħĪ
æĪĳä»¬ æıĲåĩº
cu ss
æ³ķ æ¡Ī
so me
çĿ ¡
åħ¨ ä½ĵ
æıı åĨĻ
æĳ §
Ġconstru ctions
éĹŃ åĲĪ
éĩĩçĶ¨ äºĨ
é³ į
ç§ģ äºº
z x
ra ndom
ol f
}} }}
æĸ¹ è¨Ģ
ä¸Ĭ æĸ¹
Ġr s
åĩ½æķ° åĴĮ
ç»ĵæŀľ è¡¨æĺİ
æŀģ åľ°
èĮ ħ
å®¹ éĩı
Ġgenera tor
Ġfrac tal
Ġimpro ves
æľĢå°ı åĢ¼
äº® çļĦ
Ġsee m
çĽĳ æµĭ
Ġdiver sity
ç¹ģ èį£
Ġregar ding
W il
] }=
s elf
Ġ åŁºäºİ
å® ħ
mb igu
an k
ir ing
æĭī èĴĤ
ä¹¦ ä¸Ń
Ġcommu nity
Ġcircu m
ĠSN e
Ġneed s
Car lo
Ġke ep
Ġabst ract
1 12
A t
i mple
Ġ å®Įåħ¨
ra m
Ġd w
ç» ©
Ġse man
^{( +
éĢļ çĶ¨çļĦ
os copic
Ġpar ti
ian ts
Ġdete cting
èĬĤ çĽ®
æīĭ ä¸Ń
åĵĪ æĭī
éĺŁ åĪĹ
Ġsupp orts
Ġextra galactic
Ġemer gence
Ġemploy ing
ç¢İ çīĩ
e ther
Ġco verage
çł ĸ
å¼º åĬĽ
Ġmethod ology
çĶµåŃĲ çļĦ
æīĭ åĬ¨
åĨį åº¦
,\,\ ,\
æ¶Ī è´¹
åħħ æ»¡
Ġargu ed
parame tric
èĶ ½
æıŃ ç¤º
mensu rate
] }{\
g onal
ar ds
ve x
Ġbe h
ä½ĵ éĩį
çļĦç ¬¦
ni ties
æĪĸ æĺ¯
Ġper mit
çĲĥ å½¢
'' }
Ġcomple mentary
è®° è½½
æĿ¡ä»¶ çļĦ
åľĨ éĶ¥
æĥ³ è±¡
Ġsepa rable
Ġtre nd
nic ti
Ġtor ic
è¯ģå®ŀ äºĨ
Ġcompli cated
O R
Ġ å¯Ĩ
Ġ çĽ´
Ġ éĺ¿
Ġ éħį
çļĦ ç®Ĺæ³ķ
}\ }\
Ġg h
åĬ¨ æľº
ä½ĵ åĴĮ
ĠE n
Ġor gani
è¯Ń æ³ķ
æµĭéĩı äºĨ
Ġhe avi
æ¢ µ
æīĵ çł´
Ġexplo sion
Ġans atz
ĠXM MNewton
& -\
) }},
N M
e h
p heres
ter ms
Ġse ven
Ġha pp
us dor
æĸ¹æ³ķ æĺ¯
ç»ĵæŀĦ åĴĮ
æķ°æį® éĽĨ
åħ¶ä»ĸ çļĦ
æĸ¹ç¨ĭå¼ı çļĦ
Ġæ¯Ķ è¾ĥ
Ġensemb les
Ġtechn ology
mecha nical
Ġv s
å¸ §
æĪĳä»¬ è°ĥæŁ¥
åľ° è´¨
åī ¥
è§£ çļĦ
åĪĹ é¢ł
ä¼Ĭ åĪ©
éĻĦ åĬł
åĲī å°Ķ
éĺ» åĬĽ
èĲ¥ åħ»
åĳ¨åĽ´ çļĦ
S b
} }).
ä¸Ģ åĲį
ĠD E
)+ (\
Ġper sis
limi ted
Ġspin or
Ġchar m
çīĽ æ´¥
ä¹Į æĸ¯
åĩĿ ç»ĵ
osi tions
Ġæĥ ³
éĶĢ åĶ®
äºļåİĨå±± å¤§
y i
Ġ æĹĭ
Ġ çĽĺ
Ġ ä¸¤ç§į
te ch
Ġde vo
ĠS olar
Ġh er
å¤§ ä¼ļ
Ġ2 4
åıĳ è¡Į
ĠæĪĳä»¬ åľ¨
'' =
'' _{
ps ing
ç¢ ĳ
)! (
Ġsuc cess
Ġemit ting
å½¼ æŃ¤
Ġavo id
Ġpropos al
Ġprogen itor
, ~~~~
q z
ä¸º åħ¶
Ġæ ĦŁ
ç¡ Ŀ
å¼º çļĦ
è¿° äºĨ
åľĨ çĽĺ
è¶Ĭ åįĹ
Ġexpan sions
ä¸´çķĮ çĤ¹
Ġreach ed
èĴ¸ åıĳ
Ġçł ģ
roben ius
ccor ding
G Hz
Ġde x
Ġmo bility
ĠC M
), &
Ġpo inted
çļĦç Ļ½
èĢĮ æĿ¥
æĮ ¤
ck er
ä½¿ æĪĳä»¬èĥ½å¤Ł
ot ing
Ġle d
ĠJ ohn
èī ĺ
åħĭ éĽ·
å£« åĿ¦
Ġdevelop ments
Ġtra pping
å¦ ¹
Ġide als
ç»ĵè®º æĺ¯
Ġblock s
ĠFi eld
) })\)
d E
n r
z f
æķ° éĩıçļĦ
ĠB o
Ġdis appe
Ġac qui
Ġnan ow
å®¤ åĨħ
éĢĢ åĩº
},\\ &
æŃ£äº¤ å½Ĵä¸Ģ
èĬ¬ åħ°
ä¸§ å¤±
Ġ è¿ĩç¨ĭ
Ġ éļıæľº
Ĭ ¹
åĴĮ åħ¶
lo v
ĠS ED
çļĦæ ¨ª
åľ° çĲĨ
chi tz
Ġ{ {{\
é« ĵ
æ³¢ ç½Ĺ
ä¼ł æĦŁ
è·¯ çº¿
çĭ¬ çī¹
åı¸ æ³ķ
Ġmic roscopy
äºĶ ä¸ĸ
Ġobje ctive
éĢĢ ä¼ĳ
Ġphoton ic
Ġindi rect
çĽ®æłĩ æĺ¯
Ġslow ly
Ġspherical ly
manif old
Ġçľ ĭ
ç»´åĲī å°¼äºļ
' ))
d n
s x
v ors
w hen
el li
)\ |_{\
Ġ+ {\
ct ures
éĺ ģ
Ġpre p
è¿ĻéĩĮ çļĦ
)\; .\)
Ġmultip licity
Ġadd ressed
Ġinflation ary
conne cted
Ġcomb ine
' d
V M
ro pies
}, ...,
ĠB R
éĥ¨åĪĨ çļĦ
éĩįè¦ģ æĢ§
é£İ éĻ©
åķĨ åĵģ
Ġser ve
æĬķ èµĦ
åĪĴ åĪĨ
çļĦæĦı ä¹ī
S m
r n
Ġin ference
ĠA mong
di o
åıĳ åĩº
çŃī çŃī
èĤ ©
çĮ ´
vers ely
Ġfla res
Ġexpe ct
tin y
æĺİç¡® çļĦ
éĽķ å¡ĳ
Ġvio lating
, ~\
H K
s w
th es
th ree
ed ge
åĲ Ĺ
ĠB ut
å¦Ĥ ä»Ĭ
Ġpla ced
)| .
è·¯ æĴĴ
_+ =
å¾Ī å°ı
ĠHamiltonian s
Ġæ´ ²
radi ation
ç¨ĭåº¦ ä¸Ĭ
Ġcoinci des
ĠAd ditionally
æ°¸ ä¹ħ
differe ntial
åİĺ ç±³
fermi on
Ġquoti ent
M T
i ma
Ġ })
_{ _{
Ġs ight
Ġp ix
çĶ¨ ä¸Ģä¸ª
Ġon s
ĠB PS
åľ° çļĦ
^* \)
ç½ Ĳ
æµģ éĩı
ĠY ukawa
ard in
oth ing
Ġad ded
Ġes cape
Ġsto rage
èħĲ èļĢ
æ¬§åĩłéĩĮ å¾Ĺ
f olds
w t
Ġ åıĺåĮĸ
çļĦ æŀģéĻĲ
Ġp or
la u
çº ·
to t
Ġne gle
åĿ Ŀ
ä½İ è´¨éĩı
æĽ² çİĩ
ç¼ĸ åı·
)! }{(
ele ctr
Ġtransi t
Ġdisc s
éģĹ åĿĢ
ma tical
me son
Ġco vers
çļĦç ĸ
}}\ |
ç«ĭ æ³ķ
Ġen rich
po or
å°¼ è¥¿äºļ
Ġun ity
æ°´ ä¸Ń
åįģ åħŃ
ç®Ģ å¹¶
åıĤæķ° åĮĸ
ç½ĳ æł¼
Ġcom ment
itu de
Ġregular ization
pol y
éªĳ å£«
è°Ī åĪ¤
had ron
N G
n an
Ġ ä»ħ
Ġ åĪ©çĶ¨
å® ľ
res pe
du ctors
æµĭ åº¦
æľ¬ æĸĩä»¶
Ġ} +\
Ġpre cession
åıª éľĢ
èĮ ¶
çī¹æĢ§ çļĦ
ĠBe the
bur sts
æĪª æĸŃ
Ġantifer romagne
Ġshor ter
Ġsolv able
Ġmemb rane
Ġ å¤©
ma teri
Ġe je
æī ĩ
çļĦæ Ĥ
çī© åĵģ
Ġl n
æ¯Ķ åĪ©
åĩł å¹´
Ġstar burst
æĽ´ å¤§çļĦ
æ¢ ¦
åºķ éĥ¨
æĹ¶æľŁ çļĦ
æ²¿ æµ·
åıĻ åĪ©äºļ
èĦĤ èĤª
(, )
Ġsemig roup
Ġdatab ase
O H
e u
g on
j unction
Ġ è¡¨éĿ¢
åĴĮ å¤ļ
å¯¹ åħ¶
}, ~
å¥ Ķ
Ġha drons
çĤ¹ å¤Ħ
12 0
Ġcou nts
å¾Ī å¤§çļĦ
å®ĩå®Ļ å°Ħçº¿
sp en
Ġself similar
è¶ħå¯¼ æĢ§
æĪĲåĬŁ çļĦ
Ġexc iton
) :\
m c
Ġ row
Ġ çī©çĲĨ
ti ble
çļĦ ä¸ª
åĴĮ K
æľī åºı
ĠA belian
res sing
ä¼ļ åľ¨
æģ ĭ
å¼Ĥ è´¨
Ġcomple ment
æĴ ĳ
}[ (
æ¼Ķ ç¤º
çĽ¸äºĴ ä½ľ
Ġæľī éĻĲ
Ġima ginary
ĠComp ar
å±ħä½ı åľ¨
Ġmeta stable
Ġimpu rities
Ġim mediate
Ġdisplace ment
n H
Ġ æŃ¥
Ġ åĪĩ
Ġn es
par ity
æĪĲ å°±
ç³ Ļ
åıĺ çļĦ
åı¯ä»¥ ä»İ
è§£ çłģ
Ġ} }{
æķ£ åº¦
equiv al
è·¯ çĶ±
bin ding
Ġclo sure
äº¦ æĭ¼ä½ľ
å¥³ çİĭ
ä¸ĩ äºº
æļĹ èĥ½éĩı
çļĦç±» ä¼¼
Ġreco vered
Ġlimi tations
modu les
æ© ¡
Ġmas ter
Ġcylin drical
X B
b oth
çļĦ è®¸å¤ļ
}) &=
qu ely
ĠC ephe
å¹¶ ä¸º
ä¸ĭ ä¸Ģ
us h
å¯¼ åĩº
æ± Ĳ
åħ¨ åĲį
Ġar tificial
Ġho pping
åĸ ī
_* (\
é²ģ æĸ¯
Ġprogram ming
æ®ĭ ä½Ļ
Ġsatelli tes
Ġbubb le
å·´åĭĴ æĸ¯åĿ¦
, ,ãĢĤ
B G
Ġ åŃĺ
Ġs s
Ġc ry
ĠC S
ĠM SSM
as sive
}_ -
æĿ¥ è¯ģæĺİ
çī¹ åĭĴ
åħī çĶµ
æłĩ çŃ¾
æĿ¡ çº¹
Ġprob es
è¯Ĺ éĽĨ
Ġrandom ly
è¡° èĲ½
Ġstre t
alu za
Ġconver ge
æĹ§ ç§°
è·³ è·ĥ
Ġinho mogene
C ol
H H
L orentz
i D
~ =~
ĠS W
åıĳ èĤ²
Ġres ources
æ¬¡ æķ°
å·² è¢«
Ġinclu sive
åī§ åĽ¢
æľĪ çĲĥ
èĳ Ľ
å¹ħ åº¦
Ġaccre ting
æĿĢ æŃ»
Ġhel icity
éķĩ åİĭ
Ġvi rial
èĴ¸ æ°Ķ
lica tive
analy tic
) }^{-
B ra
P N
b ic
Ġ è¡°åıĺ
en space
åħ Ĩ
å¯¹ ä»»æĦı
ĠS h
ĠI d
ĠB ar
Ġme l
åĮĸ çŁ³
çŃ Ĵ
ä»£ è°¢
è§£ çŃĶ
Ġimp osed
å¤Ħ å¤Ħ
çİ¯ çļĦ
Ġdete ctable
è¯º æĽ¼
èĳ ¬
ax is
ĠFe ynman
å»ºçŃĳ çī©
Ġanomal ies
Ġelectro static
Ġhydrodyna mics
å« ©
Ġdiffu sive
G r
f ound
g al
Ġ èİ·å¾Ĺ
Ġth roughout
math it
åĴĮ ä¸į
ter ing
å¹´ åĬłåħ¥
pa ration
], [
Ġtra ffic
çĪ± å¾·åįİ
rest ing
æ½ľ èĥ½
çļĦçŁ ¥
ä¸¾ ä¾ĭ
é¹ °
Ġæ¶ Ī
åĵ© åħ¬éĩĮ
stre am
Ġnanotu bes
5 3
Ġ å·ŀ
Ġ æĺĵ
èĢ ķ
çļĦæ ¢
ĠV ol
ĠæĪĳä»¬ éĢļè¿ĩ
Ġ) ^{-
Ġad ding
sup seteq
æĶ¯ éħį
ç²¾ ç»Ĩ
æİ¨ è®º
å£° èªī
åĲ¸ éĻĦ
Ġoccur rence
TE GRA
Ġaffe cts
é¡¾ éĹ®
arc tan
èħĵ åĬĽ
C or
F O
H ubb
P I
o ise
Ġ è¨Ģ
Ġ åŃĹæ®µ
_{ }(
en tangle
ur y
ĠL ag
ä½ĵ åĨħ
é«ĺ æķĪ
æ³¢ æĿŁ
å¾· åħ°
çĽ´ è§Ĥ
åįģ åĽĽ
çº§ çļĦ
pla cian
æ£ µ
åĽŀ è·¯
Ġphenomen ology
åİĨåı² ä¸Ĭ
çº¯ ç²¹
åĽºå®ļ çĤ¹
!\!\ !\!\
Ġtun ing
Ġinterfer ometer
æ°ĳä¸» åħļ
Ġcomprehen sive
k b
çĶ ¸
Ġpro grams
ĠM at
æ´ ª
è§Ĥ èµı
åŃĹ åħ¸
æĹĭè½¬ çļĦ
Ġdecay ing
æĤ ²
Ġoccur ring
çļĦç¡ ¬
ĠDo ppler
Ġtang ent
T y
n ers
n othing
Ġ }\,
Ġp ron
hi ps
ĠP hi
Ġpo p
çº¿ åĴĮ
é«ĺ ä¸Ń
æ± ģ
)| =|
Ġfunction als
^+ )
çº¿æĢ§ æĺłå°Ħ
Ġtechni cal
Ġcombin ations
ç¯ĩ æĸĩç«ł
Ġdra w
graph s
æĬµ æĬĹ
Ġoc cu
çºµ åĲĳ
Ġwar m
ä¸įçĽ¸ å®¹
c s
Ġ righ
Ġ èģĶ
çļĦ çĽ¸äºĴä½ľçĶ¨
åľ Ń
res ted
ĠB CS
å± Ĭ
Ġk a
Ġç ĥ
sta tis
ĠçļĦ ç»ĵæŀľ
ca st
æł· åĵģ
),\ ;
æ¯ı å¹´
å¥ĩ æķ°
å¦ ¨
Ġnormal ized
Ġconclu sions
çģ° èī²
ç¹ģ æ®ĸ
èµĭ äºĪ
çļĦæ± ī
hed ral
Ġstraight forward
åĽ¾ä¹¦ é¦Ĩ
Ġparadig m
Ġbeh ind
! }.
e lastic
Ġ å¯Ł
çļĦ åģĩè®¾
ĠS n
ĠF ried
ĠD ata
Ġç Ļ½
çĶŁ åŃĺ
ran a
con ds
å¾· æĸ¯
ger s
æ¨¡åŀĭ åĴĮ
åıĤæķ° åĢ¼
åħ´ èµ·
ä¸ģ åł¡
Ġmis sion
than ded
Ġprote ins
W F
e per
k T
k d
m ity
çļĦ åıĺ
çļĦ è¯ģæĺİ
,\ ;\
mb u
Ġre qu
æĢ ĸ
)} [
ĠG ro
æĸ¯ åį¡
èĢĮ éĿŀ
}- {
éĥ½ è¢«
ph en
Ġreg ard
Ġanalys ed
mpli tu
ç¬¬ä¸Ģ ä½į
è¯º æĸ¯
åĽ½å®¶ çļĦ
éº¦ åħĭ
æĿ¥è¯´ æĺİ
Ġba th
Ġconside rable
ono mical
Ġcup rates
) }}.
G O
a xial
ãĢĤ \
la ne
mu lations
Ġre lic
Ġqu ies
ç§ĳ å¤«
æ²³ è°·
dis k
å¨ģ å°¼æĸ¯
Ġrespe ctive
ord an
æ¸ħ æĻ°
æĹ©æľŁ çļĦ
éĤ» è¿ĳ
éĤ» åŁŁ
Ġemer ges
Ġultra violet
ĠCal abiYau
Wit ten
Ġtot ally
- [
B x
I s
S te
W A
Ġs olu
}{ }^
Ġe con
ĠT M
he ad
ĠC an
å®ļ åºı
åĩº ä»»
åħĥ é¦ĸ
é© ¶
éĵ ĥ
èĥ º
11 1
ç»ĵåĲĪ èµ·æĿ¥
åħ³éĶ® åŃĹ
Ġshe aves
Ġloss es
çļĦæĽ ¿
èĤ¯ å®ļ
Ġlink ed
{$ \
Ġsecu rity
Ġ å°±æĺ¯
Ġ éĻ¤
Ĳ ľç´¢
ĠT a
åĩ ¹
çļĦç ĭ
æ² Ł
çĶµ æºĲ
å¥ ¶
èµ ł
æŃ£ å¦Ĥ
æ²³ åĴĮ
),\\ &
èľ ľ
è¿« ä½¿
æĪĺå½¹ ä¸Ń
çĩĥ çĥ§
è¾ŀ èģĮ
çļĦ éĢļ
çļĦ åİŁåĽł
+\ !
di um
ĠH u
åľ° å¸¦
ĠR R
^* )\
tain s
Ġla bel
èĬ ¯
Ġgeneral izations
å·´ æ¯Ķ
}}( -
Ġste ep
Ġæľī æķĪ
lumin osity
èµĦ è®¯
å»ºçŃĳ å¸Ī
ĠæĬ Ģæľ¯
è¯± åıĳ
M sun
T F
T il
Ġ å·®
çļĦ å¤©
Ġc ellular
de f
se quently
äºĨ ä¸İ
mi tive
Ġwe b
åĽ½ åĨħ
çļĦæ »
Ġ2 0
sta nding
)( -
çķ Ķ
Ġte le
ç©ºéĹ´ åĴĮ
åħ¨ éķ¿åħ¬éĩĮ
Ġga tes
çĭ ®
çĽ¸åħ³ åħ³ç³»
ub ov
vari able
èµĭ åĢ¼
åĵª äºĽ
Ġpie ce
åįļå£« åŃ¦ä½į
b ing
Ġ æĸŃ
Ġ æķĪåºĶ
į çī©
_{ >
Ġd p
ol mog
st one
è¿Ļ æ¬¡
ĠB C
ad joint
Ġra nd
ä¸¤ ç«¯
éĩĮ è¾¾
ç¾İ æľ¯
åĪĻ ç§°
åıĹ åĬĽ
Ġsmal lest
ç¼ĸ åĨĻ
èı Ĭ
ç»Łæ²» èĢħ
ç´§ å¯Ĩ
çªģ çĦ¶
èı² å¾ĭ
ĠDy na
A b
E d
M eV
_{ (-
çļĦ å¤įæĿĤ
Ġb low
ĠS C
ne y
ĠD A
çī¹ å¹´
ä¾ ¯
ĠV LT
ç»´ ä¹Ł
ä½Ĩ ä¸į
éĻĲ åĢ¼
Ġres p
åį³ å°Ĩ
é¢ĺ æĿĲ
vec tive
ç½® æį¢
å¯Ĩåº¦ åĴĮ
æĪĺäºī æľŁéĹ´
æĲ ľ
æŁĵ èī²
éĻ· éĺ±
Ġsynthe tic
# \
F o
w all
çļĦ ç»ĦåĲĪ
Ġc t
Ġin jection
ĠF ol
ĠB L
çŁ ¶
åħ¥ å°Ħ
å±Ĥ ä¸Ń
åĮĹ æŀģ
Ġè¿Ļ æł·
æī§ æĶ¿
æĪĸèĢħ è¯´
Ġæ» ¡
åīĳ æ¡¥
äºĮåıī æłĳ
& :=
A e
d rop
Ġ æĺ¾
Ġ äºĭ
Ġ= \{
æľ ´
åľ¨ çļĦ
åľ¨ æ¬§æ´²
Ġre serv
åĴĮ å¹´
ĠA C
ĠE nergy
çļĦç Ĺħ
è¡¨ è±¡
åĬł å¯Ĩ
fi elds
je cts
æł¸ éħ¸
çī¹å¾ģ æĺ¯
çº³ç±³ ç®¡
Ġæ¶ ²
Ġrepla ced
Ġsynchron ization
Ġitera tive
A v
B P
I f
W Z
Ġ åĪĨåŃĲ
ti le
Ġ1 5
Ġ| |\
è¢« çĶ¨æĿ¥
è§Ĵ éĢŁåº¦
Ġad ju
mis try
au li
å²Ľ ä¸Ĭ
æıĲä¾Ľ äºĨä¸Ģä¸ª
Ġwave guide
Ġidenti ties
ĠSu pp
èĹ ¤
åĢį æķ°
æįķ èİ·
IM O
Ġrestri ction
Ġpack et
Ġexpec tations
æıŃ ç¤ºäºĨ
Ġquen ched
B EC
i ous
Ġ åħ¬
Ġ é¡¹
Ġ å¤Ł
Ġ\ ;\;\
ĠT u
Ġx ray
ĠS how
ĠS tar
çĽ¸ äº¤
ä»ĸ åľ¨å¹´
æį Ĳ
åĽł æŀľ
ĠTh ree
)| \)
ps chitz
ä¾Ľ åºĶ
èº« ä»½
æľ¨ æĿĲ
æĿĲæĸĻ çļĦ
å© ´
èĢ¶ è·¯æĴĴ
inte racting
æıĲåĩºäºĨ ä¸Ģä¸ª
len sing
p l
Ġ ;\
çļĦ ä¸ĭ
it ro
ĠI N
var nothing
}_ *
ad ron
Ġj us
éģ ¥
ex peri
çİĩ åĴĮ
æĢ» ä½ĵ
ç»ĵæŀĦ ä¸Ń
çĥŃ éĩı
ä¸ľ æĸ¹
Ġspeci fically
Ġç±» ä¼¼
æµª æ¼«
e ar
l ish
s pheric
Ġ )(
Ġ\( <
re lation
ä¸Ģ ç±»
}) }\)
æĺ¯ ä»ĸ
åŃ¦ æ´¾
æ² «
çī¹ æĭī
ant ly
Ġtra ining
è¿ŀç»Ń æĢ§
Ġperturb ed
éĿĴ å¹´
nat ural
> =
T Z
is y
çĽ¸ èģĶ
co th
ĠX rays
Ġpo le
çļĦç ľ
pa per
åĪ¶ çļĦ
åĽł äºİ
na te
é©¬ æĿ¥
Ġfa vo
Ġcont rary
åįģ åħ«
ä¹¦ åĨĻ
æ·± åħ¥
ä¸įåı¯ çº¦
Ġcaus al
sur faces
çī§ å¸Ī
Ġadop ted
= -(
a ctive
Ġ åħ³äºİ
}) ^\
ho to
Ġ\\ =&
æľĢ ä¸º
å°Ķ çļĦ
é«ĺ çº§
ç¤º ä¾ĭ
Ġper cent
Ġfun c
èİ ²
Ġgra nular
ç»Ļ äºĪ
Ġdiv is
Ġpreser ving
plan etary
S FR
g el
{ )}\)
çļĦ åħ±
Ġre ci
Ġ\\ =
it ch
Ġse cre
ad ic
Ġne ither
}}{ {\
æıĲ åįĩ
the re
ä¸ī éĩį
po ints
Ġcol lo
èĲ §
Ġopera ting
ç¯ĩ å°ıè¯´
å©ļ å§»
scripts tyle
ani ed
g iant
y c
Ġ éĢī
Ġ é¢Ħæµĭ
çļĦ åħĪ
ga nic
Ġse es
}. ..
)) (\
ç¡® ç«ĭ
æµ· æ¹¾
åįģ ä¸ī
Ġer gs
Ġmix tures
çļĦæ¨¡ å¼ı
no te
Ġç½ ĳç»ľ
å¯» æ±Ĥ
ĠAGN s
æĬĺ åıł
ä¿ĥ ä½¿
çļĦæ± Ĥ
å¨ģå°Ķ éĢĬ
fere nces
Ġmach ine
f eld
Ġ åĮħ
}\ :
Ġe lu
åľ¨ ä¸įåĲĮ
åĴĮ å°ı
ä¸º ä¾ĭ
Ġpro mp
ĠS ci
ä¸į çŃī
æĸ¹ åĿĹ
è´ ·
Ġæ ¬§
Ġra n
ir th
Ġen ab
Ġfa ilu
'' (\
çº¿æĢ§ æĹłåħ³
Ġinterac t
è½¬æį¢ æĪĲ
Ġground state
corre lated
ĠNa vier
Ġph on
é¼ĵ åĬ±
å« ģ
Long rightarrow
Ġzer os
Ġdesi red
ĠLya punov
. ),
N c
v olume
çļĦ éĽĨåĲĪ
^{- (\
)} |\
Ġmo tiv
éĻ ¡
col la
\{ -\
Ġev apo
è¿ĺ åı¯ä»¥
å¦Ĥæŀľ æĪĳä»¬
éĴ ®
åģļ åĬŁ
å®ĩå®Ļ ä¸Ń
bo lev
æİ¢æµĭ åĪ°
van ishing
é±¼ ç±»
Ġmer ging
Ġsph ero
çºł æŃ£
çº¬ åº¦
Ġchrom os
B O
N f
R X
] ,\\
Ġ è§ģ
Ġa tion
Ġm ild
}} }(
åĲİ æĪĲä¸º
åı¯èĥ½ ä¸İ
æķ£ è£ħ
æĹ¥ çĽĬ
Ġestima ting
åģı ç§»
æľĢè¿ĳ çļĦ
Ġapproxima ted
èī¯ å¥½çļĦ
multi ple
Ġaspe ct
Ġcompe tition
manif olds
Ġcas cade
æĢİ ä¹Ī
Ġenerge tic
opti mal
D V
p per
Ġ å°½ç®¡
Ġs ou
Ġin plane
Ġe ight
Ġd on
Ġv ac
ä¸į å¾Ĺ
æ³ķ åºŃ
Ġne ur
so ft
}}{ (\
ç»´ åħĭ
æµģ ç»ı
å·´ è¾¾
ration al
èµĦ æľ¬
Ġpropaga tor
lica te
Ġtu be
æĳ§ æ¯ģ
Ġpop ular
Ġpro ving
ĠF igure
Ġæ ļĹ
du ally
ĠK a
ĠK lein
ç¬ Ľ
æ¨¡ ç³Ĭ
ç¨ĭ å¼ı
éĩĮ åħĭ
ms elves
Ġev olved
çłĶç©¶ ä¸Ń
éĶ ¯
^+ (\
Ġtra de
ĠHa wking
çŃĸ çķ¥
æĬĽ çī©
Ġwal ks
5 8
W s
d R
g ral
Ġ åºĶçĶ¨
çļĦ å½¢çĬ¶
en ced
me an
åľ¨ è®¸å¤ļ
do x
æķ° åĴĮ
it ors
å¾· æĦıå¿Ĺ
ç©ºéĹ´ ä¸Ĭ
Ġimp lying
èĢĥ åı¤
çĬ¶æĢģ ä¸ĭ
åĥ §
åĪĿ æľŁ
åģı ç¦»
çĭĦ æĭīåħĭ
modu le
cripts tyle
Ja co
è¥¿è¥¿ éĩĮ
T N
b ally
Ġ å¤Ħ
Ġ å¼Ģå§ĭ
Ġ ä½ĵçļĦ
çļĦ é¢Ħæµĭ
en sity
æĹ Ĺ
æľī çĿĢ
åĪĨ éĴŁ
ĠS loan
åĽł åħ¶
ul ing
ä¹Ł å°±
æµģ åħ¥
ph erical
æŀģ ä¸º
åı¤ å¸ĮèħĬ
Ġini ti
ä¸´ æĹ¶
å®ŀçİ° çļĦ
Ġobser ver
Ġconcent rations
çļĦæ¯Ķ ä¾ĭ
ange vin
$ ,
A z
U E
] /
Ġ åĲ«
ä¸ ¢
çļĦ B
ta tes
er ies
Ġd ig
åĲ ķ
ä¸Ģ æĹ¦
ĠS c
ĠS te
åı¯ éĢĨ
pa city
æĸ° æķĻ
Ġfun ctor
å¼ķ åı·
Ġ\; ,\)
ä¿¡ å¥ī
å¦Ĥæŀľ ä¸Ģä¸ª
åįĹ ç¾İæ´²
åıĮ åĲĳ
å¯Ĩåº¦ çŁ©éĺµ
æ¸©åº¦ åĴĮ
Ġæ´ ŀ
Ġcrystal line
çº¢å¤ĸ çº¿
å¡ŀå°Ķ ç»´äºļ
Ġfore ground
çģĮ æľ¨
å·¡ åĽŀ
inz burg
F er
b ow
it H
)} =-
ç« Ń
ä¼ļ å¯¼èĩ´
é«ĺ åĪĨè¾¨çİĩ
æł¼ é²ģ
å² Ń
Ġro ots
yle igh
ĠæĻ ¯
æµĵ ç¼©
å·¥ç¨ĭ å¸Ī
å®¿ ä¸»
Ġdevo ted
N H
a tively
m ological
u ss
Ġ æĪĺ
Ġ è·Ŀç¦»
çļĦ ä»£æķ°
çļĦ è¡¨éĿ¢
çļĦ è½¨éģĵ
Ġd d
åľ¨ èĭ±åĽ½
ĠI ma
çĲ ³
æĸ¯ é¡¿
å¯¼ å¯¼
Ġcorre cted
èĩ³ å¹´
å¾Ħ åĲĳ
Ġwork ing
Ġsh ed
We yl
Ġear th
éĩİ çĶŁ
Ġdra wn
çĶ· çĪµ
ater ni
Ġgradi ents
Ġcoinci de
ella nic
Ġbifur cation
acu te
Ġpromin ent
usdor ff
H P
L I
U D
w inger
si a
Ġin tra
}) }=
ho p
Ġ- (\
äºĨ è¿ĻäºĽ
tri e
æĪĳä»¬ é¦ĸåħĪ
ĠC DF
di ed
ĠH O
bar y
^* )=
åįķ ç»´
æł¼ æĭī
æŀģ åĢ¼
Ġpla u
Ġrela y
å¯¹äºİ ä»»ä½ķ
å¤© æĸĩåŃ¦
åį° è±¡
å¨ģ èĥģ
ä¼Ĺ å¤ļ
Ġinstru ments
artree Fock
Til de
$ \
+ ~
p tions
Ġ å¾Ī
Ġ ç§»
Ġ éĿŀå¸¸
Ġ æī©å±ķ
ra tor
çļĦ è´¡çĮ®
ou ville
Ġ1 1
ĠM an
ĠE ven
å¤ļ ç»´
Ġ| {\
os cil
å»º äºİ
åıį æĬĹ
æŀģ å°ı
è¯Ń çļĦ
mo ving
å¼º åĪ¶
Ġli ft
åĵį åºĶ
Ġä¸Ń å¿ĥ
ç¢ °
Ġbi layer
çļĦæ¼Ķ åıĺ
æīĢåľ¨ åľ°
åįģåŃĹ åĨĽ
Ġske w
o ir
Ġ çº³
Ġ åį¡
Ġ æĸĻ
pi ter
ĠI nd
res sive
ĠE M
con e
ij e
lus ters
ç½ĳ è·¯
å¤« äºº
åŁºæľ¬ ä¸Ĭ
åĮºåŁŁ çļĦ
Ġcho ose
è§¦ åıĳ
ĠMa th
ä¸ĢçĽ´ æĺ¯
... +
æĶ¾å°Ħ æĢ§
Ġben ch
èı²å¾ĭ å®¾
> =\
] {\
Ġ åĪ°çļĦ
Ġ æľĢå¤§
^{- }(
ĠS tokes
Ġ. :
å¨ ±ä¹Ĳ
ä¹ł æĥ¯
åĲĽ å£«åĿ¦
Ġgreat ly
ĠPA H
scripts criptstyle
. ).
j s
n T
t X
Ġ ä¸ĸçºª
on ly
æĪ Ĵ
åĬ «
Ġi e
Ġde ple
)} }(
ore l
Ġsub spaces
ä¾Ŀ çĦ¶
ĠGeV c
éŃ ħ
æľĢåĪĿ çļĦ
ä¹Ķ æľ¨
çŀ¬ éĹ´
Ġclu mp
Ġexceed s
olmog orov
( .)
F s
n P
z ag
Ġ åĩłä½ķ
Ġa go
Ġd m
æĺ¯ ä½¿çĶ¨
ä¸Ń äº§çĶŁ
æĢ Ĵ
æĪĳä»¬ è°ĥæŁ¥äºĨ
å¤§ éĩıçļĦ
ĠC ur
ĠM C
ĠG roup
ĠD igital
ä»ĸ æĽ¾
ĠN ext
os yn
å»º è®¾
åľº è®º
ert z
å¯¹äºİ ä¸Ģä¸ª
æ¼ ı
çĹ ķ
ros co
çŁŃ æļĤ
å¹³éĿ¢ æ³¢
}~ .\)
IS A
Ġemer ge
Ġmess age
ĠDes pite
T g
n ow
u ter
Ġ ç³»æķ°
Ġc l
do main
}) ).
st in
çĽ ²
ne ction
Ġr y
ç¤ ģ
dx dy
Ġtrans forms
æµĭéĩı ä»ª
Ġframe s
Ġfour dimensional
mil tonian
Ġdri ve
åĲĮæł· çļĦ
Ġemer ging
Ġæ¸ ©
çļĦçģ µ
ĠMeth ods
) }).
H A
P W
m l
n l
p k
Ġ èĬĤ
al th
çļĦ çĽ¸å¯¹
es hb
}) {\
qu ate
åį ĳ
^{- |
Ġç ĵ
ç®Ĺ æľ¯
os cale
çĪ ª
æŁ¥ è¯¢
åĪĨå¸ĥ åľ¨
ä¸ĬçļĦ ä¸Ģä¸ª
å¡Ķ å°Ķ
Ġopti mized
åıĸå¾Ĺ äºĨ
Ġju mp
Ġtrajector y
Ġæ£ Ģ
Ġscat tered
Ĭ¹ å¤ª
) })^
b id
ha us
å¸ ½
çļĦæ ĦŁ
çļĦç ¥
èµ ¶
æŀľ å®ŀ
æĹ¶éĹ´ åĨħ
æµĭéĩı ç»ĵæŀľ
Ġmulti dimensional
åĽº æĢģ
che mical
ee man
æĤ¬ æµ®
Ġaccomp anied
k g
p op
y d
Ġ è¶³
Ġ éĩįè¦ģ
Ġ è¾Ĳå°Ħ
Ġ ä»£çłģ
Ġthe mselves
åĴĮ B
Ġsu spen
è¿Ľ æŃ¥
con f
è¿ĳ è¿ĳ
çķĮ å®ļ
Ġpossi bilities
Ġdomin ate
spe ct
ï¼Įï¼Į ï¼Įï¼Į
çļĦæ¸ ¸
Ġir regular
super con
æŃ£ç¡® çļĦ
= ~\
m t
s che
Ġ å¹³åĿĩ
çļĦ åĲĦç§į
rac tions
an ced
li ff
Ġex e
å¹´ B
çĽ¸ åıĺ
åħ¶ é¡¿
åĲİ æŀľ
ĠV ir
ä¸ĭ è½½
æ¨¡ ä»¿
æŃ£ ç»Ł
èµ· ä¹ī
Ġinter faces
'' )
})= -\
åıĮ æĸ¹
æĢĿ è·¯
ĠFe H
Ġmagneto resistance
è¿½ è¸ª
Ġadvan tages
cti ves
çļĦæĶ¹ åıĺ
Ġenco ding
] _\
b t
d c
g lo
n mid
s tein
w ri
Ġ å¤į
Ġ åĩºäºĨ
re pres
la nds
Ġd c
}) }(
Ġan ne
çļĦç Ĩ
å®¶ åħ·
å¸ĥ éĩĮ
Ġinter se
oun ts
Ġlangu ages
Ġspan ning
Ġyiel ding
J e
[ [
Ġ éĩĳ
Ġ æīĭ
Ġe la
do m
Ġcon crete
ä¸į çŃīå¼ı
ne twork
ĠR X
è¶ħ è¶Ĭ
Ġsub trac
ä½İ èĥ½éĩı
æķ´ é¡¿
Ġsome what
èĢĥèĻĳ äºĨ
Ġintro duces
èģļ åĲĪ
åħ¹ æĽ¼
åīĤ éĩı
)^* \
)& :=\
åĪļ æŀľ
sa mple
å¥¥æĸ¯ åį¡
Ġæģ ¯
Ġpub lic
èĢĢ æĸĳ
Ġscan ning
o mp
Ġ },\
Ġ åħ¬å¼ı
çļĦ çĽ®çļĦæĺ¯
Ġo m
Ġ= (\
Ġin trac
Ġre ducing
ho mogeneous
çī¹ èī²
ä¾ ı
åı¯ä»¥ çĶ¨æĿ¥
æ³¢ æµª
è¯¥ å¸Ĥ
è¿ĻäºĽ æ¨¡åŀĭ
éĢļè¿ĩ å¯¹
Ġsimple r
Ġstatis tically
Ġprac tice
Ġmid infrared
G E
T R
\ }}(
k v
Ġ è¾¹
Ġ ä¸ĸçķĮ
re ci
ar se
ig g
Ġin dependence
æķ ¬
æĪĳä»¬ åıĳ
ĠF re
Ġal igned
çļĦæ ģ
æĸ¯ åħĭ
è¿ĩ çļĦ
æ° Ł
å¤ĸ çļĦ
éĥ½ ä¸İ
po ts
è¾¾ æĪĲ
éľĢ æ±Ĥ
èº« åĪĨ
ä»ĸçļĦ ä½ľåĵģ
å¥³ æĢ§
è¯· æ±Ĥ
elect ro
)\; .
Ġrequire ment
åĲ¯ åĬ¨
æİĮ æı¡
inclu ding
ç»´ä¹Ł çº³
I A
I r
q t
| )\
Ġ æĿŁ
te nu
)\ |\
ĠA nderson
æĪĳä»¬ çŁ¥éģĵ
å¯¹ çļĦ
è¿Ļ ä¹Ī
å¹´ åĽł
Ġ1 8
ĠG C
è¯¥ å²Ľ
ex ci
ä¸ŃçļĦ ä¸Ģä¸ª
Ġsuper massive
æĶ¹ ä¸º
éĢŁåº¦ åĴĮ
_* ^
æ¶Ī æķ£
ber ts
å·¨ æĺŁ
æħ Ī
éĺ» æŃ¢
ĠçŁ ¢éĩı
ĠæĬ ¥
æ¡Ĩæŀ¶ åĨħ
èĿ ¶
èĢ¶è·¯æĴĴ åĨ·
W W
Ġ èĩªçĶ±
Ġ çī©è´¨
Ġ+ {
ho les
æĺ¯ ä¸ºäºĨ
li tz
Ġm y
ä¸Ń æĺ¯
lo c
ä½ĵ çİ°
ĠN A
çī¹ åħ°
ĠV er
åĬł å°Ķ
éĥ½ ä¸į
Ġspa cing
éģĵ çļĦ
å¦Ĥæŀľ åľ¨
bi ased
æ´Ľ ä¼Ĭ
è¯Ħ ä»·
AB C
æ¹ĸ æ³Ĭ
çĽ¸ä¼¼ çļĦ
Ġç« ¯
ç¬¬äºĮæ¬¡ä¸ĸçķĮå¤§æĪĺ æľŁéĹ´
Ġchalle nge
ĠPre vious
neighb or
D a
E nd
U ni
i E
i I
Ġ è½´
Ġ éĵ¾
Ġ åĲĮæĹ¶
Ġc ourse
ä¸Ń åı¯ä»¥
æĪĳä»¬ æł¹æį®
}= &
çļĦç Į
Ġqu asis
ca vity
æŃ¤ å¤Ħ
)}{ (\
ç»´ çĶŁç´ł
ç®Ģ ç§°
^{* *
åŁİ åł¡
åľĨ çİ¯
çļĦæĥ ³
éĺ¶æ®µ è¿ĩæ¸¡
if shi
æķ°åŃĹ æ¨¡æĭŁ
åĮ» çĶŁ
åĪ¶éĢł ä¸ļ
Ġextrac tion
ĠUni versity
ä¸įç¨³å®ļ æĢ§
Ġveri fied
ĠAnal ysis
Ġbubb les
Ġmana ge
dou ble
' ]
, &\
X Z
i J
l ds
Ġ æĪĲçļĦ
Ġ é»ĳæ´ŀ
ga uge
åľ¨ æīĢæľī
åľ¨ æ³ķåĽ½
å½ Ń
æī £
be am
Ġdi polar
åŁº æĢģ
åĨħ æľī
éķ¿ åº¦çļĦ
ç¥ ·
ä»· åĢ¼çļĦ
æ¶Ī åĮĸ
éĢīæĭ© çļĦ
è®¾è®¡ çļĦ
Ġti ming
Ġbroad ening
)\; ,
è´Ń ä¹°
GRB s
observ ed
Ġquadru pole
Ġreserv oir
. \\
C V
} '\
Ġ éŁ³
Ġ ä»£è¡¨
Ġ æĿ¥è¯´
çļĦ æīĭ
ta ng
si vity
}) &=\
co mes
æľĢ ä¼ĺ
æīĢ å¾Ĺ
åĮº åĿĹ
åľº åĴĮ
èµ· çĤ¹
Ġvari ant
ç§ĳ åŃ¦å®¶
Ġuni quely
æłĩåĩĨ çļĦ
Ġpri ori
ev olution
æľĢå°ı çļĦ
Ġcen tered
çĽĳ çĿ£
å¤º åıĸ
nucle ar
jo rana
Ġnil potent
i or
p ing
Ġ è·¯
th en
in car
tic ular
ab elian
å± ł
åŃ¦ æľ¯
åħ¶ çĪ¶
Ġdi laton
)) _
åŁº éĩĳ
åįķ ä½ĵ
ĠæĪĳä»¬ çļĦç»ĵæŀľ
ç»´ å¤ļ
çº¦ çĳŁ
åıĸ åĢ¼
mo des
Ġrela ting
æ²³ åı£
ç»Ļ åĩºçļĦ
å®ŀéªĮ æķ°æį®
åĪĨåŃĲ çļĦ
çļĦæ¦Ĥ æĭ¬
åħīåº¦ æµĭéĩı
å¼§ åº¦
Ġdra g
åĢ¾ è§Ĵ
å£ģ çĶ»
æī©å¤§ åĪ°
Ġspre ads
6 3
a mples
Ġ åĨĽ
Ġ æĢ§çļĦ
Ġ è¿ŀæİ¥
Ġ é¦ĸåħĪ
ħ §
in dex
ed inger
Ġg r
Ġde ma
ĠA ccording
å¸ Ĩ
åĪĨ éļĶ
ä»ĸ ä»¥
çļĦç ŀ¬
å¹¶ ä»¥
ĠV ery
ç¼ Ķ
ton oise
çĲĥ çĬ¶
è¾ĥ å¤§çļĦ
}] (
Ġst range
ä¹¦ ç±į
}^{* }(
ç½ĳç»ľ çļĦ
éĤ¦ èģĶ
Ġhyper fine
Ġrecon structed
æ³¡ æ²«
åºŁ éĻ¤
åľ¨æľ¬ æĸĩä»¶ä¸Ń
åıįæĺł äºĨ
Ġproxi mity
c tiv
Ġ å®ī
Ġ åĽŀ
Ġ ç§°ä¸º
th ing
ä¸Ģ å®¶
Ġre ionization
ĠT ran
ge red
å¯¹ æĺĵ
è¿Ļ æĿ¡
åı¯ å¾®
å¤§ åľ°
ĠçļĦ æĺ¯
åĲĳ ä¸ĭ
åħ¨ å±Ģ
æºĲ åĩº
xy z
åĬ¿ éĺ±
èĢģ æ±ĩ
Ġvi able
Ġevent ually
Ġautom orphism
Ġfeasi ble
! }{(
' )^{-
c ell
t q
| (\
æ ª
Ġa de
åĴĮ C
æľī ä¸ĢäºĽ
ĠB r
çİ° ä»Ĭ
å°± åĥı
çĬ¶ åĨµ
å®Į åĸĦ
^{* ,
dis t
æĿĥ å¨ģ
æľĢåĲİ ä¸Ģä¸ª
ĠLa place
å¦ ®
LA ST
æľ¬å¾ģ çŁ¢
è¯¸ å¡ŀ
lay ers
Ġpen et
åĢº åĪ¸
Ġgrav it
Ġastr onomical
K A
}) )=
ĠS FR
å¹´ æĿ¥
å¤§ æķĻåłĤ
Ġme V
çļĦç ¨
Ga As
çĤ Ń
the ir
åıį å¯¹ç§°
éĢī ä¸º
åıĮ åĢį
çº¢ ç§»
èĭ±åĽ½ äºº
æĵ İ
}\| _{\
Ġmanif est
èģĮ ä½į
Ġins ights
Ġneighbor hood
Ġmark ed
i S
i res
k z
l j
Ġin herent
åĲ Ĳ
Ġg er
mp a
^{- }
åĲĮ æĢ§
å» ĵ
äºĮ æ°§åĮĸ
çº¿æĢ§ ç»ĦåĲĪ
å¢ŀ å¤§
Ġmulti variate
Ġsol ids
Ġä»¬ åıĳçİ°
å¼Ģåıĳ äºĨ
åĳ½ä»¤ è¡Į
Ġmaximal ly
Ġside s
Ġconside rations
ĠAdS CFT
çļĦç½ Ĺ
Ġuna mbigu
meth od
Q R
S ta
d Z
} }),
æ ĩ
è Ł
Ġ èĥ½å¤Ł
Ġf al
å® °
éĩı éĩı
}= |
ĠL MC
ä¸Ģä¸ª ç®ĢåįķçļĦ
^* }\
ĠK illing
éĢļ è®¯
con sis
ĠæĪĳä»¬ è®¨è®º
éĥ½ åľ¨
ç¾İåĽ½ çļĦ
Ġcont our
æĻ® é¡¿
)] =\
å¾Ī éļ¾
åħīè°± ä»ª
val ues
ven tional
éĻĲåĪ¶ çļĦ
ä»Ĭ å¤©
æĪĳä»¬çļĦ æĸ¹æ³ķ
çľģ çķ¥
range ment
èĥľ åľ°
Ġcolla boration
èĥ¶ çīĩ
åı¤èĢģ çļĦ
eshb ach
D L
N d
n or
Ġ ä¿¡
Ġ åĽ½å®¶
Ġ åħ±æĮ¯
Ġf ro
Ġt ry
Ġw ord
Ġd k
è® ¶
big otimes
äºº éĢł
å¹¶ å°Ĩåħ¶
çķ ħ
å½ĵ ä»£
é¢ĺ åĽ¾
_+ (\
æ°ĳ éĹ´
æ¸© å¸¦
25 6
æıĲä¾Ľ çļĦ
^- )
Ġmetal licities
éĻĨ åľ°
çļĦåĪĨ ç±»
Ġpu zz
çĲĨè§£ ä¸º
æľĢé«ĺ æ³ķéĻ¢
è¶ĭ äºİ
æĿ° åĩº
éĢĴ å½Ĵ
ĠæĽ² çº¿
Ġpermu tation
lik ely
dire ction
Ġmig ration
Ġpromp t
N F
V LT
x v
z ar
Ġ çĶ»
Ġp y
Ġre ly
Ġre versal
é¢ ĸ
ĠIn stead
åŁº è´¨
pro vi
éĿŀ è´Ł
å¾· çļĦ
Ġhigh l
é©¬ åĪ©
çĮ ª
åģı æĮ¯
isi ble
}~ ,
è¿Ļæĺ¯ åĽłä¸º
è¡¨çİ° ä¸º
Ġcle an
ç»ıåħ¸ åĬĽåŃ¦
å¤©ä½ĵ çī©çĲĨ
ĠAu Au
ĠMag ellanic
Ġarchite cture
D w
P t
Ġ ä»»æĦı
Ġ ä¹İ
ä¸Ń æľŁ
éĢ ¼
åĪĨ å¼Ģ
ĠS ha
ĠI s
å¤§ æī¹
ä¸į ç¡®å®ļ
Ġdi mer
con vex
åĢ¼ åĴĮ
ç»´ æĸ¯
ç»´ æĬ¤
12 5
å»º äºİå¹´
æĮĩ å¯¼
æķ´ åĲĪ
Ġdete ctions
Ġrelations hips
Ġopen s
èĪª è¡Į
åħ±åĴĮ åħļ
oh m
anal ysis
çľŁå®ŀ çļĦ
çļĦæİĴ æĶ¾
soci ation
çļĦçŁ¥ è¯Ĩ
Ġpron ounced
B PS
H B
P ar
Ġ æĸ¹æ¡Ī
ĸ æ°ĳ
çļĦ å¼Ģ
æľī åĬĽ
Ġv ar
ĠM ini
ĠB s
éĥ ģ
ä¾ £
^* ,\
åĲĪ æ³ķ
},\ ;
åį³ ä¸º
Ġad joint
_{- }\
Ġuni fication
çľĭ èµ·æĿ¥
Ġconsis t
Ġbi ts
åĩºçİ° çļĦ
Ġaccou nts
ç´§ å¼ł
åįĩ é«ĺ
è½½ ä½ĵ
åĬ³ åĬ¨
æĬ½ æł·
Ġrestri ctions
trical ly
Ġapplic ability
Ġligh test
h f
p redic
x is
¹ ĸ
Ġ æĸ¹åĲĳ
ig zag
ä¸Ģ åº§
ĠS eyfert
æĸ¹ ä½į
Ġal ge
æľĢ ä¼Łå¤§çļĦ
pa th
çİ° åŃĺ
ä¹Ł åı¯èĥ½
éħ ·
æĦŁ è§ī
dic ated
ç®Ĺæ³ķ çļĦ
èįī åİŁ
èĢ³ æĽ¼
Ġconfirm s
Ġnext toleading
Ġequi variant
æ²¼ æ³½
D o
K P
Q U
b q
c les
Ġ éĩĳå±ŀ
Ġthe sis
Ġf r
åĴĮ çĥŃ
å· «
ĠR S
min o
Ġ| (
ä¸¤ çĤ¹
od ge
é«ĺ éĢŁ
il ing
ç¦ ½
Ġcha os
Ġno tions
åįģ ä¸ĥ
ç»Ī æŃ¢
è®© æĪĳä»¬
ç¡¬ çĽĺ
çļĦæ¸ ħ
Ġinten se
ä¿ĿæĮģ ä¸įåıĺ
SU SY
Ġnano particles
Ġprima rily
Ġclu mps
fere ntial
Ġrepul sion
ĠSchro dinger
çļĦæ´» åĬ¨
ä»Ķ ç»Ĩ
Ġ åĿĹ
si mple
Ġb ol
Ġd q
li ary
ĠA R
ur istic
ĠH ermitian
)=\ |
æĸ¯ åĬł
for ce
Ġob scu
ĠO ver
äº§ éĩı
æµģ æµģ
åĪĹ åĩº
Ġno isy
æ¡ Į
Ġ}\ ;
èĬĤ å¥ı
çŁ©éĺµ åħĥ
^- ,
val ent
}^{+ }\
æľīæķĪ åľ°
Ġoscil lating
çļĦåĪĨ è§£
èİ« æĸ¯ç§ĳ
Ġpara magnetic
éĨ Ĵ
Ġmultip licative
çĩ ¥
å°ģéĹŃ çļĦ
å¿ĥçĲĨ åŃ¦
çļĦç¦» æķ£
ĠæİĴ æĶ¾
break ing
åĤ¬ åĮĸ
A V
Q SO
s m
v w
| |_
Ġ æĿĤ
æľ ĭ
su c
li ved
Ġde duced
æĪĳä»¬ ä¹Łåı¯ä»¥
æĪĳä»¬ è®¡ç®ĹäºĨ
å½ Ĺ
mi dt
ä¿ ĺ
ä¸» æĮģ
å®ŀ è·µ
å¸ĥ ç½Ĺ
)}\ ,\
çº¦ ç§į
Ġres ource
ç¾¤ ä¸Ń
åĲĦ åĽ½
Ġidentify ing
Ġalter n
Ġastro physics
Ġmorph ological
Ġentire ly
Ġwar ped
çľŁæŃ£ çļĦ
Ġmonop ole
Ġferro electric
TEGRA L
" )
7 8
d ance
e b
e ter
}) :=
ĠA g
pi on
ĠC ox
ĠP T
ç³» çļĦ
æĪĸ ç§°
å¸¸ å¾®åĪĨæĸ¹ç¨ĭ
å¯Ĩ çłģ
éħ ¯
^{* }(\
è´¨éĩı ä¸º
respon ding
Ġnucle ation
å¢ŀåĬł èĢĮ
Ġdiff ers
Ġcharacteri zing
}; \)
è´¢ å¯Į
Ġæ´ Ľ
çļĦçģ «
æ³ķåħ° è¥¿
æ³¢å£« é¡¿
Ġparti tions
ä¼łæĦŁ åĻ¨
thes es
6 8
C y
E L
O n
Ġ ç»ĵåĲĪ
ä¸ Ī
Ġb rown
ing ular
åŃ ķ
xi liary
as hi
ä¸İ éĿŀ
æĿ¥ çº³
çī¹ éĩĮ
ä¼ļ äº§çĶŁ
Ġle tter
ari ties
æµģ äº¡
æĹ¶éĹ´ åĴĮ
Ġdo cu
Ġta chy
åģı åĲĳ
Ġsen sing
æľį å½¹
^{+ }_{
æĬķ ç¥¨
ä¾§ éĩįäºİ
æŀĦæĪĲ ä¸Ģä¸ª
Ġwor m
flu x
ä¿ĿæĬ¤ åĮº
çĭŃ çªĦ
Ġremn ants
7 3
S pe
e re
s pi
u gh
ç ŀ
Ġt ru
=\ {(
åľ¨ ä½į
åľ¨ ä»ĸçļĦ
æķ° çĻ¾
ĠS S
Ġan tis
ci d
ä¸İ ä¸Ģä¸ª
ĠP i
ĠR n
æİ ł
æīĢ ä½ľ
è®¡ éĩı
è¯¥ åħ¬åı¸
12 4
å§ĭ äºİ
æ¡Ī ä»¶
çī©çĲĨ åŃ¦å®¶
å¸Į ä¼¯
Ġdeca de
qui ds
_{+ }\
éº¦ åħĭæĸ¯éŁ¦
Ġcontinuous ly
ä¼´ éļı
ĠKe ple
Ġcoexis tence
Comp ton
magn itude
ollar y
Ġeje cta
Ġsees aw
} *\
on ov
çļĦ åİĨåı²
æľ µ
ä¸Ģ çĶŁ
ĠH adron
åı¯ä»¥ çĽ´æİ¥
po les
fi er
cha nged
Ġspeci fied
åı² ä¸Ĭ
éĽ· æĸ¯
èįī æľ¬
mod al
Ġtensor s
çī¹æ®Ĭ çļĦ
texts f
Ġcorrect ly
' }_{
A GB
z u
Ġ è¯ģ
Ġ ç»ľ
Ġ çĽ´æİ¥
Ġ è¡Įä¸º
Ġb rac
Ġde fic
lon ga
ĠM c
Ġgeneral izing
äº¤ éĶĻ
å·´ æĭ¿
Ġso le
åķĨ äºº
å¤ĩ ä»½
Ġbroad band
Ġç² Ĵ
éĿĴ éĵľ
èĪ° éĺŁ
Ġchalle nges
Ġbelie ved
æ¸Ĺ éĢı
princi ples
W al
b an
j p
l r
è ¤
Ġ åħ·
çļĦ åĲĮ
çļĦ ç»ıæµİ
çļĦ é¢ĳçİĩ
}^{ }
qu as
ä¸º æŃ£
éĢ ®
ĠI SM
åħ¶ åĲİ
ä»ĸ æĪĲä¸º
^* .
æµĭ å®ļ
æŁ Ħ
ome ters
é©¬ åħ¶é¡¿
ç£ģ åĬĽ
fin d
çĲĥ éĿ¢
Ġpol ic
çº§ åĪ«
å¾Ī éĩįè¦ģ
yn olds
åĭ ĩ
æĭŁ åĲĪ
æİ¨ åĬ¨
son ic
åĽłä¸º å®ĥ
Ġpri ce
Ġtri angle
ĠçŁ Ń
Ġeff ort
å±ĭ é¡¶
Ġregar ded
Ġincomp ressible
çļĦç¬¦ åı·
Ġphon ons
F L
N LO
Ġ åıª
çļĦ èĩªçĶ±
Ġd A
Ġto mog
åĴĮ å¹´ä»£
éĢ Ŀ
æĪĲ ä¸Ģ
ä¸Ĭ éĿ¢çļĦ
çĶŁ æ®ĸ
å¹¶ è¢«
om ers
å¤ĸ ç§ĳ
Ġla nds
è¯¥ åľ°
å°± èĥ½
ç»ı çĲĨ
cent ral
bi le
æİ¨ è¿Ľ
åģļ çļĦ
çı Ĭ
åıĳçĶŁ äºĨ
ç¤¾ åĮº
æ¶² æĢģ
æĿ¿ åĿĹ
ĠSta rting
zz y
Ġç´ §
Ġconven ient
multi p
ç¤¼ æĭľ
ĠPo incare
vio lating
ĠJaco bi
Ġdefini tions
aluza Klein
ifshi tz
V ar
Ġ å®ļçļĦ
Ġ åºıåĪĹ
çļĦ å¯¹ç§°
ĠS F
å¤§ ä¼Ĺ
big triangle
äºº å£«
åŃ¦ ä¼ļ
pro paga
Ġca vities
å¾® ç±³
Ġmeasu rable
éĶ ĭ
ä¾Ŀ éĿł
æī©å±ķ äºĨ
åĮĸåŃ¦ åıįåºĶ
åıªæľī ä¸Ģä¸ª
Ġgravi tation
Ġorbit als
é¾ Ł
çļĦæĬ ¥
åħį è´¹
éĺ¿å°Ķ æ³ķ
ä¸°å¯Į çļĦ
ä¼Ł å¤§
æĤ£ èĢħ
ĠUn like
è¢Ń åĩ»
Ġgene tic
Ġunex pected
èĩ³åħ³ éĩįè¦ģ
W i
n as
Ġ åħĥç´ł
Ġ åĬ¨çļĦ
ra nd
çļĦ åħ¬
Ġin tu
æĺ¯ å°Ĩ
ĠB EC
Ġas tero
çĽ¸ ä¸Ģèĩ´
ĠD uring
ĠD branes
ä»ĸ åĴĮ
éĥ½ èĥ½
åħ± äº«
mon ot
ç½® äºİ
):=\ {
^- =
Ġrepresen tative
åı³ æīĭ
èĪ¹ åıª
çļĦæ¸ ©
æĹłéĻĲ çļĦ
é¢Ĩå¯¼ äºº
Ġelectro dynamics
Ġconjuga te
ä½Ľç½Ĺ ä¼¦æĸ¯
çļĦæ²³ æµģ
C X
Z e
} '_
æĺ¯ å¦Ĥä½ķ
qu et
Ġi th
Ġde dicated
å¯¹ æĴŀ
æľĢ çĿĢåĲį
)) &=
åıĬ åĪ©äºļ
æĹł æķĪ
äºĭ çī©
åħĪ åĲİ
éĴ ¦
Ġout line
ä»ĭ äºİ
ĠæĬ Ĺ
å®£ ä¼ł
éľį å°Ķ
æŃ¦ è£ħ
æĬĺ å°Ħ
Ġexclu sive
çļĦç¨³å®ļ æĢ§
Ġiner tial
V i
\ }|
f v
Ġ éķľ
Ĵ æĥħ
in vestiga
in finite
çļĦ åĦ¿åŃĲ
or pho
ä¸Ģ å®ļçļĦ
åľ¨ ä»»ä½ķ
åĴĮ åıį
st rom
Ġon going
res p
ĠC har
ä¸į åĬ¨
Ġsta nd
ĠR and
)) ^{\
ä¸ĸ ä¿Ĺ
con trol
éģ Ĥ
åįķ ç²ĴåŃĲ
ä¼ł å¥ĩ
den ts
'' -
æ¢ Ń
æĥ³ è¦ģ
_- (\
éĺħ è¯»
æľĢåĲİ ä¸Ģ
å¥ĩ çĤ¹
|= |\
åĲĳéĩı ç©ºéĹ´
çĭ¬ç«ĭ äºİ
{{ {
Ġasympto tics
Ġglo bally
è¯´æĺİ äºĨ
Ġfocu sed
è¯ģæį® è¡¨æĺİ
Ġplan es
Ġtun ed
Ġposi tron
æ²Ī ç§¯
å½ĵéĢī ä¸º
Ġprep ared
B N
V e
] ).
Ġ ç»Ĩ
Ġ åĪĿ
Ġ çĽ¸å¯¹
çļĦ è§£åĨ³æĸ¹æ¡Ī
is ha
is mic
å¤ ·
)\ }\)
st on
ĠW IMP
pe re
ä¸į åĪĹé¢ł
çĲ ¼
Ġç ¿
Ġcomp ens
Ġexp o
Ġappro x
åĿĩ ä¸º
åĵĪ éĩĮ
è®¤ä¸º æĺ¯
åĩłä½ķ åŃ¦
ç»Ī çĤ¹
æĵįä½ľ åĻ¨
ç»ĺ åĽ¾
èĥĮæĻ¯ ä¸ĭ
èĦīåĨ² æĺŁ
é¹ ħ
tili ty
Ġoscillator y
çĩĥ æĸĻ
Ġeccent ricity
Ġsurprising ly
Ġnumer ous
Ġprospe cts
( ).
M axwell
M SSM
Ġ }-
Ġ ign
Ġ æłĳ
çļĦ S
çļĦ èĥ½åĬĽ
Ġo ve
ro un
Ġg y
æĪĳä»¬ èİ·å¾ĹäºĨ
tu ning
Ġdis ru
ä»ĸ æĬĬ
ä¼ļ è¢«
Ġ{ }^
ke ts
æĶ¿ åħļ
ç®Ģ æ´ģ
æĮ¯ åŃĲ
å½¢å¼ı ä¸º
å¥¥ è¿Ĳ
åį° å°¼
åįł çĶ¨
Ġtor que
)& :=
Ġdra matically
åĿĲæłĩç³» ä¸Ń
èħĵ çī¹
æ§ ½
æĿŁç¼ļ æĢģ
Ġaltern ating
5 1
9 2
D W
] }.
c f
t p
Ġ æĿĥ
}\ |^{
}) :=\
æĪĳä»¬ ä¹Ł
ĠB el
ä¸İ ä¹ĭ
åıĳ æºĲäºİ
èĩª æĿĢ
èī ³
om o
åħĭ å°Ķ
çĽ´ è§ī
åĩł åĨħ
)| _{\
åŁŁ ä¸ĬçļĦ
cy cle
Ġreal ize
é£İ çĲ´
æľª æĿ¥çļĦ
æĸĩä»¶ åĲį
Ġdefin es
åģı å¿ĥ
æ¨¡æĭŁ ä¸Ń
Ġlong term
çŁ¢éĩı åľº
çļĦæİ ¢æµĭ
çļĦåľ° ä½į
åĮ» å¸Ī
Ġcen ters
Ġsquare d
Ġplay ed
illi am
å®Ŀ çŁ³
ucle ar
Ġdispla ys
$ .}
A y
R V
| /
Ġ è¿ŀç»Ń
pha sing
dots b
è¿ĩ åº¦
)^{ *
ç¨ĭ åº¦çļĦ
é«ĺ åľ°
Ġ) ,\)
Ġen u
éĽĨ æĿŁ
Ġho me
æİ¨ åĩº
Ġmodu lo
å¢ŀåĬł äºĨ
æĢĿ èĢĥ
çķĻ ä¸ĭ
Ġsignal tonoise
Ġpu mp
quark s
åŀĤçĽ´ äºİ
åŃ£ èĬĤ
çĨŁ æĤī
ĠæŁĲ äºĽ
Ġclari fy
ĠNavier Stokes
2 11
M W
R C
h g
h x
n v
n taneous
v ich
Ġ }_
Ġ äºī
Ġ å¼ł
de ed
,\ ;\;\;
æľī ä¸¤
Ġan t
be ha
pro b
ä¹Ł è¢«
åıĤ è®®åĳĺ
)| =\
èĭ± åĨĽ
åĨĻ å®ŀ
åł ¤
èĭ±åĽ½ çļĦ
æĬ¥ çº¸
Ġfol i
æ½ ĺ
}/ {
Ġmagne tism
Ġam ounts
æ°§åĮĸ çī©
çĮľ æĥ³
- .
K s
Q P
] :=
Ġ èµĸ
Ġ èĮĥåĽ´
Ħ æ¸ħ
Ġs ym
de gree
ro tating
Ġb ije
åĴĮ D
li quid
int o
)} :=\
æĹ¶ éĴŁ
ç»ĵ çĤ¹çļĦ
æĬ ¼
åĨħ èĥ½
å¯Ĩ éĽĨ
è§Ĵ åĬ¨
åĸ »
èĮĥ æķ°
Ġreson ator
ç»Ī äºİ
Ġdomin ates
dyna mical
mer ic
sen sitive
çº½çº¦ å·ŀ
éĨ ī
çļĦæ¶ ²
Ġvibra tional
6 1
N u
h m
} ãĢĤ
Ġ åįĹ
Ġ å¸Ĥ
Ġe ver
}( {
ĠT rans
ĠW i
ĠA GB
Ġmo ves
å¹´ æĪĲç«ĭ
æĸ¯ æ´Ľ
å°Ķ å¤«
é«ĺ åİĭ
ç»´ ç»´
è½¬ åĮĸä¸º
åĪ« åĲį
Ġåľ¨ æŃ¤
fin ition
Ġun bounded
çº³ è¥¿
éĴ ī
Ġmulti wavelength
å¸Į çī¹åĭĴ
æ´ŀ ç©´
ä»£è¡¨ äºĨ
Ġquasi particles
Ġbreak s
æµģä½ĵ åĬ¨åĬĽåŃ¦
å¥ı æĽ²
ER N
å®¢ æĪ·
èĦļ æľ¬
orbit al
æĪĳä»¬æıĲåĩºäºĨ ä¸Ģä¸ª
ĠåĨµ ä¸ĭ
Ġautoma ta
ĠEd dington
Z Z
çļĦ éŁ³ä¹Ĳ
er g
Ġde li
åĪĨ åĮº
Ġon line
å¯¹ æīĢæľī
are n
çĶµ åĬ¿
ni kov
å¹³ æĿ¿
åĢ¼ æĺ¯
åİŁ äº§
æķĻ æ´¾
çº¦ åħ¬éĩĮ
èĬ ½
å¼ķ æĵİ
Ġpha ntom
å°ĳ éĩı
çŁ¢éĩı ç©ºéĹ´
å»¶ éķ¿
ĠMa jorana
inter text
crystal line
äº¥ ä¿Ħ
åĵĪä½Ľ å¤§åŃ¦
, |\
L IR
Ġ æł¹
Ġ æŀĹ
ra ph
)\ !
li a
ä¸Ń ä½¿çĶ¨
ĠF o
åĬ¨ çĶ»
Ġme mber
é¢ ļ
Ġqu ick
bu tion
og oli
åħ¬ ä¼ļ
ç»ı çĶ±
ç«ĭ ä½ĵ
è¿Ĳ ä½ľ
åĪĻ åľ¨
çĶµåŃĲ åĴĮ
éĩįè¦ģ ä½ľçĶ¨
è¿Ļä¸Ģ ç»ĵæŀľ
Ġä»¬ è¿ĺ
ĠLa placian
Ġå¯¹ åºĶ
æ¿Ģ è¿Ľ
Ġmedi an
æľĹ åħĭ
ĠHamil ton
Ġinten sities
åĤħéĩĮåı¶ åıĺæį¢
g end
| -\
çļĦ D
çļĦ åľº
ta ted
ta bular
åĴĮ äºļ
åĽ ļ
li e
tu red
ĠB al
ĠG r
åı¯ä»¥ çĶ±
é«ĺ çŃī
con serv
Ġj o
os si
è®¾ æĥ³
tribu tions
å¥¥ åı¤æĸ¯
çĮ ©
ä¼¯ åĪ©äºļ
éĵģ çŁ¿
å±Ģ åŁŁ
æħ ķ
è¥¿è¥¿ æ¯Ķ
reson ant
Ġunita rity
åĪĽå§ĭ äºº
a gree
b z
f s
| }.
Ġ å¤§çļĦ
Ġ åħīåŃ¦
çļĦ åĮºåŁŁ
ro xi
åĴĮ è¶ħ
åį ĵ
è¡ Ķ
di ly
ĠR b
Ġse ve
^* }(
Ġqu i
å¤ĸ åĬĽ
)- (\
è¯¥ å·ŀ
ç¡® åĪĩ
Ġenergy momentum
Ġho urs
'' +\
Ġflu ores
è®° ä½ľ
å°±æĺ¯ ä¸Ģä¸ª
Ġmodi fy
Ġground based
\\& +\
\! -\!
no ise
ĠæĻ ¶
å¤¹ è§Ĵ
ME LA
Ġmes oscopic
ĠçĪ ±
ĠCos mic
Ġflexi ble
åľ°å¹³ çº¿
$ }.
' )(
H opf
K i
çļĦ æ³ķ
Ġp lot
ä¸Ń è¿Ľè¡Į
Ġfor cing
^{- }_{
ä¸į çĽ¸åĲĮ
åľ° ç£ģ
ys on
}=\ |
ä¹ĭ æ¯Ķ
\| .\)
os es
æ±Ĥ åĩº
ç½ĳ ç«Ļ
åİŁåŃĲ çļĦ
åĽ½å®¶ åħĥé¦ĸ
pre ced
Ġcross section
}\; .
Ġti p
æĺİæĺ¾ çļĦ
çļĦç¼ º
çģ° å°ĺ
éĢĤåºĶ æĢ§
Ġcompan ions
Ġremark ably
èĤ¿ çĺ¤
Ġnebula e
' }+
P L
p th
| }.\)
Ġa y
{\ {
}( (\
ä¸Ń å¾Ĺåĩº
çº ±
ĠM ach
pro jlim
è¿ĺ åĮħæĭ¬
è¿ŀ è´¯
ess el
Ġderiv ing
,\,\ ,\,\,
Ġorigin ally
çģ« è½¦
}:=\ {
çļĦçĶµ åľº
Ġax es
ä¸ŃåŃĲ æĺŁ
Ġreach es
çļĦæ¼Ķ åĮĸ
çļĦç´ ¢
Ġpermu tations
Ġmilli on
ĠRela tivity
Ġæ·· åĲĪ
åĵºä¹³ åĬ¨çī©
liff ord
éĢ® æįķ
E W
H ol
M s
O O
m f
n R
x p
Ġ äºĭå®ŀ
me asu
be en
Ġæ ģĴ
Ġç ı
æ° ¦
}+ |
åħ³ å¿ĥ
åĲĳ åįĹ
ex c
Ġinte rested
åħ¨ æģ¯
çĥ ·
å¼ķ å¯¼
éĤ£ ä¸ª
åĮĹ éĿŀ
èĲ¨ æĭī
Ġshe et
ĠDe ep
è·¯æĺĵ æĸ¯
ĠQSO s
proper ties
D T
F C
F i
P V
V er
x ag
Ġ å£«
Ġ å¿µ
Ġ è§£åĨ³æĸ¹æ¡Ī
çļĦ äºļ
çļĦ å½¢æĪĲ
çļĦ åĿĲæłĩ
}\ }.\)
ĠT hi
da ble
lo cation
Ġde gra
)} ]
ĠI mp
æĹ¶ éĴĪ
ĠG UT
ä»ĸ ä¹Ł
ä½¿ ä¹ĭ
ten sor
è¢« è¯ģæĺİ
èĭ Ĺ
ä»» åıĸ
Ġnon Abelian
åĮħ è£ħ
åħ¶ä¸Ń ä¸º
èĬĤ çĤ¹çļĦ
æĶ¯ æı´
èĲ¨ å°Ķ
æīĵ åĩ»
ski i
Ġpseudo scalar
Ġkernel s
hal o
pol ynomi
çļĦæ´ ŀ
çļĦçķĮ éĻĲ
æĲº å¸¦
& :=\
f our
s gn
Ġ å¾ĹåĪ°
Ġ çīĩ
Ġ\ }\
ä» ģ
is tically
Ġ( "
åľ¨ ä¸¤
ĠT aylor
qu anti
æĪĳä»¬ æıĲä¾ĽäºĨ
ĠC yg
åŃ¦ åĲįä¸º
åıĳ æķ£
Ġob vious
çİ° æľīçļĦ
ĠO B
éĩį ç»Ħ
æ³¢ åĬ¨çļĦ
äºĮ èĢħ
12 2
çĬ¶ çļĦ
Ġlo o
)| }
peri od
æµ· æ£®åł¡
ä½İ èĥ½
stra tes
Ġtherm o
Ġconne ctivity
å¦ ¥
Ġæİ §åĪ¶
ç¤¾ä¼ļ ä¸»ä¹ī
}~ .
Ġtor oidal
Ġtrac k
ĠæĽ ¼
sh ort
ä¸īè§Ĵ æ´²
Ġæĥ ħ
çļĦç« ŀ
Ġpin ning
' }=\
9 3
H Z
J L
U U
c at
w as
Ġ å°Ħçº¿
Ġ è½¨éģĵ
çļĦ é¦ĸ
Ġs quares
Ġb io
æĹ ±
Ġcon vective
äºĨ è¿Ļä¸ª
Ġma pped
æĪĳä»¬ å¾Ĺåĩº
ĠB loch
ä¸Ĭ ä¸İ
ĠD brane
Ġqu aterni
ot note
here nkov
é© ¯
}+\ |
}\, ,\
æĸ¹æ³ķ ä¸Ń
Ġun less
Ġwell defined
åį¡ æĸ¯
Ġdevelop ing
Ġpri mitive
Ġmini mization
æĥħ ç»ª
Ġmagne tized
Ġexplo it
éģĹ è¿¹
Ġconden sed
åı¥ è¯Ŀ
æ© ĺ
æīĢéľĢ çļĦ
Ġassemb ly
Ġplau sible
B ose
H y
p T
Ġ ä»ĸçļĦ
Ġ éĹ¨
Ĺ ĩ
çļĦ éĩĳå±ŀ
Ġ& \\
cal l
}^{ {\
åľ¨ å¤Ħ
Ġcon ducting
Ġex terior
|\ ;
ĠL A
var projlim
ä¸Ĭ è¿Ľè¡Į
åĪ° ä¸ĸçºª
co o
çĲĨ çĶ±
Ġmodel led
åīį åĲİ
éĥ½ åħ·æľī
den ces
Ġad j
Ġtheore tic
éĻ¤ ä»¥
çĻ¾ èĢģæ±ĩ
çŁŃ çļĦ
}/ (
æ³¨æĦı çļĦæĺ¯
çĶŁçī© åŃ¦
æĬķ åħ¥
æ··åĲĪ çī©
Ġproje ctions
Ġcho ices
Ġconduc ted
Ġvacu a
ç¢°æĴŀ ä¸Ń
ĠMonte Carlo
Ġperfect ly
Ġbrigh test
S n
b n
j f
| }(
Ġ åıĺæį¢
th rough
on y
çļĦ ç»ĵåĲĪ
ha ps
)\ :
Ġcon volution
æĪĳä»¬ ç¡®å®ļ
ĠC C
ĠD R
ĠN S
Ġpa y
åı¯ä»¥ å¯¹
og raphy
åĲĳ ä¸Ĭ
Ġtwo level
åĩ½æķ° æĺ¯
ak i
Ġgener ically
Ġfa vor
Ġcla im
Ġover come
åĽĽ ç§į
ins ki
èĥ½éĩı åĴĮ
éĻ¢ åĪ¶
mog en
Ġmedi ated
Ġreach ing
Ġ(, )
Ġchalle nging
ja cent
Ġorbi fold
7 4
] }_{
t ting
Ġ åľ°åĮº
Ġ æĸ¹éĿ¢
Ġ åıĺéĩı
te l
åĴĮ éĺ¿
Ġu v
ss on
è¾ Ĩ
èĩ Ń
ä»ĸ å°Ĩ
ä¸¤ ä¾§
å¸¸ çĶ¨çļĦ
åħĭ æľį
Ġlo cations
ä¼ł åħ¥
ä¿¡ éģĵ
èĩ³ äºİ
å¤« æĸ¯åŁº
èĩªçĦ¶ çļĦ
æĺłå°Ħ åĪ°
ä½ı åľ¨
\}} |
Ġç¨ĭ å¼ı
tific ations
çļĦæĶ¿ åºľ
brid ged
IG O
ĠæĥħåĨµ ä¸ĭ
Ġisos pin
' /
E F
E r
d l
r ts
ta ev
Ġ= &\
Ġ( [
åľ¨ æĹł
å¾Ĺ è¯ģ
è§£ åīĸ
å°ı ç»Ħ
ç©º åĨĽ
Ġnon vanishing
æł¼ å°Ķ
åįĹ æŀģ
ä¼Ĭ æĭīåħĭ
cou nt
çļĦå¤§ è§Ħæ¨¡
ĠåĪĨ åĪ«
Ġdimensional ity
ĠBe sides
Ġlay ered
Ġrecover y
metal licity
å®ĺæĸ¹ è¯Ń
åĩłåĨħ äºļ
D y
d M
Ġ åľĨ
Ġ åıĳçĶŁ
çļĦ è¾Ĳå°Ħ
Ġn i
åĴĮ æĺ¯
çī µ
ĠP ol
çĽ¸ ä¹ĺ
sta bility
)| }{
=- {
çī©çĲĨ éĩı
å¥³ åĦ¿
Ġ~ ,
Ġæķ° éĩı
Ġsen si
ä½ľåĵģ åĮħæĭ¬
æķ°éĩı çº§
)~ .\)
éº» èĲ¨
Ġrun s
è¹ Ħ
çĬ¯ ç½ª
Ġrecor ded
è¥¿æł¼ çİĽ
ĠCompar ison
çļĦæĽ¿ ä»£
= [\
o S
Ġ è£ħ
çļĦ åħ¬å¼ı
çļĦ æķħäºĭ
Ġs wave
Ġc ardin
Ġp at
}) .\
-\ ,
æľī ä¸¤ç§į
æķ° ä¸ª
Ġco arse
ĠS tu
ĠC l
ĠC hi
ĠC as
ĠB orn
ĠN LO
çĶŁ çĲĨ
æľĢ éĩįè¦ģ
å¹³ åĩ¡
Ġpres entation
Ġla test
æıĲ åĢ¡
)}\ ;
çº¦ å®ļ
Ġsa y
ak u
})\ ;
.. .\
å¼º åº¦çļĦ
åĲĦ å·ŀ
è®¤ çŁ¥
ä¸ľ å°¼
Ġcoup le
utr ino
å½¢æĪĲ ä¸Ģä¸ª
bi ted
Ġæľī åħ³
çľŁ èıĮ
ä¼ĺ ç¾İ
Ġampli fication
cur v
Ġsha re
éĢĲ åĩº
è¿½ éļı
è´£ ä»»
ç²Ĺ ç³Ļ
Ġseparate ly
åı¬ å¼Ģ
ĠäºĴ ä½ľçĶ¨
åį¡ç½Ĺ æĿ¥çº³
åģ¶æŀģ åŃĲ
Ġexception al
milli meter
h is
h ler
s cript
Ġ textit
Ġ å±±
Ġ ä»¤
Ġ èĭ±åĽ½
Ġ çī¹å¾ģ
Ġ ä½įäºİ
Ġ åħģè®¸
çļĦ åľ°åĮº
re p
Ġin vo
Ġu lti
æķ° ä½į
Ġde posi
pe ctrum
ĠF a
ĠG en
Ġfi x
çº¿ æ®µ
Ġ{ -
åħĭ åĪ©
Ġper sistent
ç¬¬ ä¸īä¸ª
è®¾ åľ¨
åĲį è¯į
Ġen velop
mo lecular
å¼º è¿«
æĮ¯ åĬ¨çļĦ
Ġlinear ized
Ġconsider s
çĻ½ äºº
çª Ŀ
Ġcontinu ity
_{+ }\)
å°¾ éĥ¨
æļ´ åĬ¨
äºĮæ¬¡ åŀĭ
Ġmagneto hydro
Ġbary onic
Ġglu ons
Ġbo ok
çľĭä½ľ æĺ¯
K E
L B
M OS
N s
T Q
o ted
Ġ ''
Ġ tag
Ġ åľ£
Ġ åĮħåĲ«
in v
Ġa ims
Ġf ading
ï¼Į \
åľ¨ æ²¡æľī
åĴĮ H
æķ° çĽ®
ĠA X
å¸ Ĳ
Ġco dimension
ĠF isher
çĽ¸ ç¬¦
ä¹ĭ ä¸Ń
der iv
&= -\
åĨ³ å®ļçļĦ
Ġli quids
ä¸ļ åĬ¡
Ġta ils
au x
22 2
Ġsh allow
20 0
æ³ķåĽ½ çļĦ
fer ro
Ġmic rons
åģı å¯¼
éķľ åĥı
ä¿Ħ äº¥ä¿Ħ
^{+ }\
åħ·ä½ĵ åľ°è¯´
Ġrefle cted
åħ³èģĶ æĢ§
Ġmultip lication
çĶµç£ģ æ³¢
Ġamb igu
ĠInte resting
åįĴ äºİ
itro gen
' )^{
E n
F re
Y X
b ian
u f
Ġ }{(
Ġ åĨį
çļĦ å®ĩå®Ļ
çļĦ éĺ¶æ®µ
ar l
æķ° æĺ¯
pi pi
ç¤º æĦıåĽ¾
ĠæĪĳä»¬ æĬ¥åĳĬ
æĥ ©
and s
Ġåľ¨ ä¸Ģä¸ª
æĹ¥ å¸¸
å®ŀéªĮ ç»ĵæŀľ
å¹² çĩ¥
åıĳå±ķ åĩº
å½Ĵ åĽłäºİ
åĳĬ è¯ī
è¡Ģ çĲĥ
)> \
Ġexhibit ing
Ġhar mon
ç§ĺ é²ģ
Ġadap ted
Ġrecur sive
Ġmess ages
æİ¨å¹¿ åĪ°
è½° çĤ¸
çļĦæĬķ å½±
' ^{
G al
K D
M or
d L
i Y
o y
| -|
Ġ ?
Ġ åĩı
Ġ å¢ŀåĬł
ç§ Ł
ĠS er
Ġsu dden
ĠD D
Ġæ ¿Ģ
Ġç ĸ
con stra
Ġ&= (
è¯ģ åĪ¸
èĪ Į
çĶ» åĩº
ç®¡ éģĵ
;\;\ ;\
gorith m
å¥³ åŃĲ
å»ºç«ĭ ä¸Ģä¸ª
Ġinf all
Ġavera ging
Ġintegra bility
cele ration
Ġrecon nection
Ġcu mula
Ġappear ing
ä»¤äºº æĥĬ
èĿ ĩ
çļĦçĪ ¶
Ġcompe ting
å¿ł è¯ļ
fla vor
æ£ķ èī²
èħĵçī¹ çĥĪ
preced ented
) ;\
| }\)
Ġ æĹı
Ġ ä¼°è®¡
ha nd
hi on
Ġç Ĺħ
åĬł åĭĴ
Ġla tent
Ġequ ality
é© ¾
çº¦ åħĭ
å¾® å¾®
_{- }\)
è¾¹ å¢ĥ
ç®¡ å¼¦
ç®¡ è¾ĸ
]= [\
Ġsupercon formal
Ġau xiliary
Ġtre nds
æħ §
çļĦæĬ Ģ
ç»Łä¸Ģ çļĦ
ĠMe asure
Ġag ent
Ġsucces sive
æľºåĻ¨ äºº
Ġdeno ted
Ġæ· ±
Ġsti ff
Ġengine ering
Ġsubstitu tion
Ġtwop hoton
O T
S H
d ark
m q
r in
| ~
| ,\
Ġ è§Ĥ
Ġ å½±
çļĦ C
çļĦ æĸĩä»¶
da sh
ä¸Ń ä½į
he ating
Ġcon g
Ġde f
ĠS gr
ur us
åıĳ å¸ĥ
Ġqu e
ck et
ĠJ e
å¤ĸ å£³
æĭī å¤ļ
æĥ ¨
Ġscal ars
ä¸įåĲĮ äºİ
Ġun resolved
Ġta s
Ġinvestiga ting
Ġclo ser
åĵĪ å°Ķ
åı² åīį
åķ ¡
å¯Į æľī
Ġcap abilities
Ġcomputation ally
Ġattrac tor
clo sed
bound ary
Cha ndra
ç®Ń å¤´
Ġmen tioned
mplitu de
) )=(
\ }\\
n ano
r z
Ġ å®¹
Ġ å¾ĭ
in til
_{ _
ar Xiv
la ble
Ġt ub
Ġ( (\
æĺ¯ ä¸Ģèĩ´çļĦ
^{\ {
Ġh yste
çļĦç ªģ
min is
è´¨ çļĦ
ç¦» å¿ĥ
è°ĥ è¯ķ
çĲĥ è°Ĳ
æĹ¥ èĢ³æĽ¼
Ġæķ° çļĦ
è½´ çļĦ
ĠFe As
Ġfil ters
è¥¿çıŃçīĻ äºº
æĿ° åĩºçļĦ
ãĢĤãĢĤ ãĢĤãĢĤ
Ġpseudo gap
Ġstri king
Ġimprove ments
Ġç¦» åŃĲ
Ġgover ning
åŃ© åŃĲ
Ġmel ting
* (
a tio
t b
te en
Ġb x
åĴĮ æĸ°
}) +(
æĺ¯ ä»Ģä¹Ī
ä¸Ń åıĳçİ°
çī¹ äºº
éķ¿ è·Ŀç¦»
ut ting
éĥ½ åı¯
}}{ {
:=\ ,
èĦ ¸
]\ ;
åĥ µ
ä½ľåĵģ æĺ¯
Ġini tio
Ġconsistent ly
Ġmagne tically
ç½ĳç»ľ ä¸Ń
}' (\
Ġeigen states
ĠSi O
}> \
æµģä½ĵ åĬ¨åĬĽ
æĸĹ äºī
éģĩ åĪ°
ĠJu piter
æģĲ æĢĸ
çļĦç¼© æĶ¾
Ġnonde generate
ĠFol lowing
R b
] }\)
} })^{
ra d
Ġb re
Ġb are
ri t
ĠT f
ch s
æĪĳä»¬ æīĢ
ĠM I
çļĦæ ģĴ
du st
æĿ¥ å®ļä¹ī
ĠN H
Ġpo les
ni um
ide s
ĠO f
æĸĩ ä¸Ń
åħ¬ è·¯
æİ¥ åı£
Ġcol linear
Ġ\| (
æ¸© åĴĮ
Ġout come
æĹ¥ åĨķ
è¶³ çĲĥ
Ġwave function
æŃĮ æīĭ
Ġshort range
å¼Ģåıĳ çļĦ
æī¹ åĩĨ
ä¸´çķĮ åĢ¼
ä»įçĦ¶ æĺ¯
èĤ¡ ç¥¨
ĠAnal y
åĨ¬ åŃ£
orpho us
P f
Ġ åİ»
en ha
Ġb r
æľĢ å¥½
Ġle aves
æŁ ´
éĿŀ å¯¹ç§°
Ġac tivation
&= &
åĩĨ ç²ĴåŃĲ
åįģ ä¹Ŀ
åı¤ å·´
éĻ¤ éĿŀ
çĽ¸åħ³ èģĶ
Ġmini mize
å¤ªéĺ³ ç³»
}\; ,
Ġdou bly
çģµ æ´»
Ġconcent rated
Ġhypo theses
å¹²æ¶ī ä»ª
æłĸ æģ¯
Ġpen al
çļĦæĻ® éģį
Ġpossess es
Ġnonuni form
equival ent
G G
I nd
O p
} })\)
Ġ åħ¬éĩĮ
Ġ éĢīæĭ©
çļĦ äºĮ
Ġs of
Ġ- .
ĠA F
æĪĳä»¬ åĪĨæŀĲäºĨ
å¤§ éĿ©åĳ½
), ~
ĠG W
^* ,\)
èµ Į
Ġqu ery
å¹¶ æĬĬ
è¿Ľ èĢĮ
pro blem
å¦Ĥæŀľ ä½ł
10 00
)] ^{
ç¥ŀ åŃ¦
è§ģ çļĦ
åı¶ åŃĲ
}\; .\)
Ġplasma s
wo od
Ġç£ģ åľº
Ġatmos pheres
ç²ĺ åº¦
Ġsel fin
Ġundergo es
Ġcompac tification
ç´«å¤ĸ çº¿
èİī èİİ
ä¸Ī å¤«
6 2
C L
e th
h k
s b
t L
x H
Ġ ))
Ġ åĮĹ
Ġ å¤±
çļĦ åĽ¾
çļĦ æķ°åŃ¦
åľ¨ æĸ°
åľ¨ æĹ¶éĹ´
ä¸Ń ç»§
äºİ æŃ¤
ĠL angevin
ĠG ibbs
ä¸¤ äºº
è¥¿ åħ°
åħ¬ åĽ½
åħ¬ çº¦
å¸ĥ èİ±
è½¬ åĮĸ
æº ī
)\\ =&
ç¬¬äºĮ å®ļå¾ĭ
}^{+ }(
Ġche mistry
æĶ¿æ²» å®¶
ä¼łç»Ł ä¸Ĭ
æļ´ åĬĽ
sc attering
Ġcollision al
rid ged
stu died
ĠGra ss
æ¡£ æ¡Ī
ä½Ľç½Ĺ éĩĮè¾¾
' t
M H
Ġ éĶ®
åĴĮ çĶµ
Ġg host
se ous
Ġco ales
ĠL inear
ĠP op
æĮ «
ä¸ĭ æĸ¹
åĢ¼ å¾Ĺ
æµģ ç¨ĭ
}_{\ {
èĬ Ĵ
})\ ,\
æ» ©
_+ )
è± ¹
æĶ¯ æĴĳ
çī©è´¨ çļĦ
vera ged
å°½ åı¯èĥ½
Ġcircu its
ĠæĽ ¾
åĩĨç¡® æĢ§
å®¾ å¤ķ
çļĦæŁĲ ä¸ª
é¢Ŀå¤ĸ çļĦ
æŁ¯ è¥¿
Ġdistinguish ed
åŃŁ åĬłæĭī
Ġfilter ing
è´¹ç±³ åŃĲ
ç¼ħ çĶ¸
ogoli ubov
F u
P U
Ġ çī¹åĪ«
Ġ å¼ķåĬĽ
çļĦ å±±
Ġd igital
ri l
åĴĮ T
å¯ ĵ
åį ¤
å¹´ S
cu l
éĩį çļĦ
op h
éĥ½ åŃĺåľ¨
æµģ æĶ¾
åıį è¿ĩæĿ¥
ak ov
å¾® åŀĭ
)}( -
é¢Ħ è¨Ģ
å¼ł åĬĽ
ever theless
ĠäºĨ ä¸Ģä¸ª
å£° ç§°
24 0
åħ¬åı¸ çļĦ
æĶ¿åºľ é¦ĸèĦĳ
ä½ı æ°ĳ
æĲ Ń
çļĦç½ ĳ
åĵª ä¸ª
çļĦæ¡ Ī
Ġutili ty
Ġgeometrical ly
cyc lic
Ġtrade off
' ;
, .
H er
R L
n S
¯ åº¦
ç Ģ
Ġ åºķ
on ically
(\ {\
ä¸Ģ åįĬ
li ers
å¼ ĵ
å¹´ å»º
å¤§ éĥ¨
ĠG Pa
åİ ¿
ä¸ĭ æĿ¥çļĦ
Ġnon a
ä¸Ģç§į æĸ°çļĦ
Ġun like
æ²³ çķĶ
å¤© çº¿
10 8
æ£ į
rop ol
Ġsupp orting
Ġphoto emission
éº¦ è¿ª
çģ« ç®Ń
çļĦæĬ ½
ä¹Łåı¯ä»¥ çĶ¨
æľ¬åľ° åĮĸ
æŀĦå»º äºĨ
åī² è®©
Ġaxis ymmetric
function al
Ġrece ived
Ġequi pped
Ġçķ ¥
ä¸ĸçºªä¸Ń åı¶
deca y
insu lator
A nd
r um
s yn
è ł
ti tive
or ner
åĴ ¬
}} .\
Ġ\\ \)
æĪĳä»¬ æııè¿°
æµ ¦
åŁ ĭ
ĠV e
åı¯ä»¥ çľĭåĪ°
æıĲ åĪ°
å¯Ĩ è¥¿è¥¿æ¯Ķ
èİ· èĥľ
^+ =
_+ -
Ġhe uristic
\{\ |
éĩıåŃĲ æĢģ
å¯¼èĩ´ çļĦ
è¥¿åħĥåīį è¥¿åħĥåīįå¹´
Ġent ries
èĵ ¬
é¢Ĩå¯¼ ä¸ĭ
Ġç¨ĭ åºı
Ġrenormal ized
ĠNo te
Ġaxi o
Ġpass age
ç´§åĩĳ çļĦ
differe nt
plan ar
dete cted
J Y
t ree
y u
Ġ åİĭ
Ġ éĺħ
Ġ èģļ
Ġ çĽ¸äºĴä½ľçĶ¨
Ġb illi
Ġ( |\
Ġto day
do ut
åĴĮ ä¸Ģ
ĠA le
å¯¹ è¿ĻäºĽ
å¤§ åİħ
ĠL ac
lu ng
ĠG A
æİ ©
ä¾ ¦
åı¯ä»¥ è¡¨ç¤ºä¸º
èĩª çĽ¸
Ġtwo body
å¸ĥ æ´Ľ
è®¡ç®Ĺ çļĦ
ke V
æł¹ å»·
åĪĨæŀĲ ä¸Ń
å¾Ī æľī
Ġwhen ever
Ġass ign
Ġcontinu ation
Ġå¤§ å°ı
ç¦»åŃĲ ä½ĵ
ç®Ĺç¬¦ çļĦ
è¯» åıĸ
fle ction
Ġabs ent
Ġbar riers
éŃ ı
whi le
æĢ¥ åī§
ĠSo bolev
ĠClo ud
rosco pically
D B
G F
K T
Y u
Ġ ig
Ġ åĩł
Ġ è§£éĩĬ
Ġf lo
ĠT aking
ho t
to f
çĽ¸ æĴŀ
Ġdis turb
equ ation
åĽĽ åħĥ
åĪĩ æį¢
èĲ¨ åħĭ
æľĢå°ı åĮĸ
çļĦåľ° å½¢
è½® å»ĵ
åĨ³å®ļ äºĨ
éĴ¢ éĵģ
Ġevol ves
Ġlater al
ĠæıĲä¾Ľ äºĨ
åıĹæ¬¢è¿İ çļĦ
ĠMA SS
æĭīæĻ® æĭīæĸ¯
) )\\&=
, )
9 8
E l
L v
M i
c p
k w
te t
Ġp le
åľ¨ æľī
ĠA P
it tle
åĪĨ å½¢
ĠS tein
æĸ¯ å±±èĦī
è¦ģ å¡ŀ
ĠçļĦ å½±åĵį
å¿ į
ä¼ļ åĩºçİ°
èĩª åıĺéĩı
å¼Ģ æĿ¥
ä¸ī æ¬¡
Ġno va
ç§ĳ ç½Ĺ
ä¹ĭéĹ´ æľī
Ġcomple teness
èĨ Ģ
ĠæĬ ķ
_{* }
Ġç¬¬ ä¸Ģ
Ġhydrodyna mical
Ġarc sec
Ġinterfer ometric
æĽ´å¤ļ çļĦ
åį± æľº
Ġcatalog ue
æľīè¶£ çļĦ
Ġç²¾ ç¡®
! },
c ise
j z
Ġ å¤´
Ġ éĩįæĸ°
ma g
}) ,\\
éĩı çº²
Ġex op
å¤§ å¸Ī
åº¦ è¿ĩ
pp ings
ĠB F
Ġse grega
çĶµ æ±ł
ca u
è®º çĤ¹
Ġpres cribed
Ġspe cu
åĩ½æķ° ä¸º
ä¼ł æķĻ
Ġun precedented
Ġsome times
çĬ¶æĢģ åĴĮ
èħ ¾
èº« ä¸º
éĢļå¸¸ çļĦ
æĵį çºµ
Ġmodu lated
çŁŃ æľŁ
å»¶ ç»Ń
Ġexpres s
å°½ éĩı
ilibri a
åħŃ ä¸ĸ
åįķä¸Ģ çļĦ
ĠCha p
æ±ĩ åĲĪ
Ġattrac tion
æŃ£å¼ı åĲįç§°
Ġsetting s
èª ĵ
ä¼Ĳ åĪ©äºļ
Ġcylin der
' }.\)
F ourier
\ }_
ä¸ ĳ
åĨ ¥
Ġat tenu
\, |\,\
å¾Ĺ åĲį
ul tra
é©¬ æĸ¯
har ing
çº¿æĢ§ ä»£æķ°
dis cuss
Ġdevelop s
æĸ¹åĲĳ ä¸Ĭ
sical ly
{- }
æłĳ æľ¨
Ġback ward
æĴŀ åĩ»
Ġnormal ization
Ġopen ing
ĠçŃī å¼ı
Ġcyc lo
ĠTi me
Ġrou ting
Ġcus p
Ġstatem ent
å·´æ¯Ķ ä¼¦
mpa ign
æľĭ åıĭ
' }\)
d N
h orizon
i tive
Ġ éĻ¢
ra bility
en se
la ter
pi ed
ĠP en
åĮĸ ç®Ģ
ĠK aluzaKlein
éĢļ è§£
ĠæĪĳä»¬ è®¤ä¸º
åİŁ æĿ¥
è¿ĳ çº¢å¤ĸ
}\, {\
é©¬ ä¸ģ
Ġ\| _{\
çĭ ¼
èĬĤ æĹ¥
ä½ľä¸º ä¸Ģä¸ª
sp ort
å¤§åŃ¦ åĴĮ
æĶ¿åºľ çļĦ
åıī ä¹ĺ
çļĦåľ° éĿ¢
Ġproto type
Ġdisper sive
pres er
è·¨ è¶Ĭ
å¿ħè¦ģ æĿ¡ä»¶
Ġpack ets
è°ĭ æĿĢ
Ġgeode sics
çļĦæ°ĳ æĹı
Ġheterogene ous
Ġrand omi
osyn thesis
/ |
B an
b v
g ar
i pa
u ser
| },
åľ¨ åĨħçļĦ
an cial
ĠA ims
ç³» ç»¼
vi r
sta bili
ä¸¤ æŀģåĮĸ
op hy
èĭ ¹
éķ¿ å¤§
æł¼ éĽ·
é©¬ éĩĮ
Ġlo ad
çłĶç©¶ æīĢ
cha in
å·² æĪĲä¸º
çº¿æĢ§ åĩ½æķ°
)] _
çĮ Ľ
å¿ħ å®ļ
åı² è¯Ĺ
ĠGa As
ĠHa usdorff
Ġimpro ving
Ġsele ct
è¯¦ è§ģ
Ġtopological ly
Ġmathema tics
Ġadvan ced
å¿ħè¦ģ çļĦ
ale ph
Ġvo la
Ġastr onomy
Ġretur n
ĠCombin ing
ç»´å¤ļ åĪ©äºļ
) !\
0 3
7 1
\ &\
{ }_\
Ġ åºľ
Ġt alk
æĺ¯ ç¾İåĽ½
ĠW ar
å¤§ å¾Ĺå¤ļ
gin o
}(\ {
åĲİ ç»Ń
Ġç ¦
å¤ļ ä¸º
\, (\
åĲĪ åĬĽ
ä¼ļ æľī
å¹³ åı°
Ġfin itedimensional
ç¾İ åħĥ
of s
è¾ĥ ä¸º
å½±åĵį äºĨ
åĽŀ æĶ¶
ç¢ Ł
å¨ ĥ
Ġbeha ves
14 4
ru pt
Ġ~ .
_{+ ,
box plus
Ġfami liar
Ġinsta ntaneous
Ġinfinite simal
å®¡ è§Ĩ
Ġpu mping
Ġheavy ion
ĠRa yleigh
Ġconta cts
HE CR
Ġreli ability
Ġfeasi bility
Ġtrun cated
Ġelu ci
å¸Įä¼¯ æĿ¥
H i
P h
R i
d warf
Ġ åĳ½
Ġ æīĢä»¥
çļĦ äº¤
Ġf m
åľ¨ å¤ļ
åľ¨ å¤ĸ
åĴ ĸ
lo re
Ġco vered
to mic
å¹´ å¾·åĽ½
mi le
ĠF robenius
çĽ¸ ç»§
Ġne ga
ni k
^* _{\
å¹¶ å¯¹
å®ŀ çĶ¨
æĮĩ çļĦæĺ¯
ä¿Ŀ ç½Ĺ
æ£ ±
)] (
mid dle
Ġup date
æĶ¶ åħ¥
ä¹ĭéĹ´çļĦ çĽ¸äºĴä½ľçĶ¨
Ġassoci ate
\}. \
war z
åıĪ ç§°
Ġgrow n
åĮ» çĸĹ
åħĪåīį çļĦ
è·ĥ è¿ģ
Ġdifficul ties
hal f
Ġrepe ated
åĢ¾åĲĳ äºİ
Ġopportu nity
cra ft
Ġquies cent
bigtriangle up
- (-
: ~
D G
E A
V V
r j
Ġ æľĪ
Ġ æŃ£åľ¨
çļĦ å®ĹæķĻ
}\ }=
}{ -
si bly
Ġb le
Ġre verse
ĠC T
}, -
ä¸İ è¯¥
è¡Į äºİ
å°ı çĲĥ
é«ĺ éĺ¶
æķĻ åŃ¦
ĠY oung
Ġsp ot
å°¼ ç½Ĺ
Ġcont raction
å·´ åŁº
æ°´ çļĦ
åħĪ è¿Ľ
top ic
å³ Ń
åĨ· åĩĿ
ç»Ħç»ĩ çļĦ
æľĿ é²ľ
ä¸ĵ å®¶
Ġhyper surface
ç¦ı éŁ³
inte raction
æĿİ ä»£æķ°
})\\ &
Ġconcer ned
ĠIRA S
Ġçĭ¬ ç«ĭ
Ġtas ks
I B
q f
r me
Ġ åĩ»
Ġ ä½įç½®
çļĦ éĺ¿
åĴĮ ç£ģ
ĠT hat
Ġde stro
ĠS ol
ĠM atter
é«ĺ è¾¾
æ³¢ æ³¢
Ġåľ¨ è¿ĻéĩĮ
èį Ĳ
éĶ ¦
Ġun likely
éĢī å®ļ
11 0
Ġpol ari
è¿ĲåĬ¨ åĳĺ
Ġ\([ -
Ġä»¬ çļĦ
èĩªçĶ± èĥ½
çī¹åĪ« åľ°
éĻį è§£
èµĦ äº§
ä¸¥ è°¨
ç±»ä¼¼ åľ°
ç²¾ç¡® åľ°
Si O
Ġconta mination
Ġwi res
gala xy
partic ular
Ġsimpli cial
Ġpass ing
Ġtrig gered
åĵĪå¯Ĩé¡¿ éĩı
ĠæĮ¯ åĬ¨
å¯Ħ çĶŁ
Hubb ard
' }^{
' }.
) _{(
F a
J o
M il
V a
] ^\
h t
l t
¼ çĹĽ
Ġ å·¥ä½ľ
ra t
^{ |\
ta ct
Ġo pe
ed i
åĲ ¨
Ġre vis
Ġde phasing
ab sor
æĭ Ľ
ĠN evertheless
å¿ ĺ
çŃ Ľ
Ġle pto
Ġequ als
Ġnon magnetic
çĪ ¬
Ġdescri ptions
åĲ« æĹ¶
æııè¿° çļĦ
èĭı éĩĮ
Ġcompar isons
!\!\ !
Ġenviron mental
Ġdemonstra ting
çĸĹ æ³ķ
æ¾ Ħæ¸ħ
çļĦæĻ ¶
~~~~~~~~ ~~~~~~~~
Ġbelong s
M f
N R
V s
a fter
c q
d U
} ~~~
Ġ åĽ¢
Ġ é¡ºåºı
Ġa do
^{ }
su mp
åľ¨ å·´é»İ
åĴĮ æµ·
}) |\
åĮ ¿
ĠC ou
ds on
Ġen sure
ä¼ł æŁĵ
Ġtime like
ä¿¡ ä»»
éĢŁåº¦ çļĦ
è¡¨ç¤º çļĦ
å°º åº¦çļĦ
ç«¯ åı£
å¤įæĿĤ æĢ§
jk l
æĻ¶ ä½ĵçļĦ
ĠAn other
è¿Ľè¡ĮäºĨ çłĶç©¶
æĮī éĴ®
é»ĳæ´ŀ çļĦ
è¿« å®³
)\\& +\
çļĦç¤ º
Ġspontaneous ly
èŃ¦ å¯Ł
ĠSchro edinger
çļĦæ¬§ æ´²
æľīçĲĨ æķ°
ä¾ı åĦĴ
éº»èĲ¨ è¯¸å¡ŀ
B CS
W hi
] }^{
d der
g m
s tically
Ġ è¯ķ
Ġ ä¿¡æģ¯
Ġ å·®å¼Ĥ
ra tio
åĴĮ åħī
}) )\)
ä¸Ń æıĲåıĸ
}} =-\
Ġi i
Ġde als
ĠB ack
ĠB ern
ĠL ab
ĠG old
ĠP auli
çĶµ ä»ĭè´¨
ç½ ¢
æ¨¡ éĩı
ĠIn deed
op ed
ĠæĪĳä»¬ åľ¨è¿ĻéĩĮ
æ³¢ å°Ķ
åĮħ åĽ´
Ġpre domin
éĢī åħ¥
Ġbi ased
ĠRe ynolds
åįł æľī
åĮºåŁŁ ä¸Ń
Ġtop ics
ç»Ŀ çĥŃ
ä½ı å®ħ
IS M
ä¹¡ æĿĳ
Rie mannian
Ġoxi de
Ġobe y
èĬ³ é¦Ļ
) }}=
9 1
F r
I sing
k B
m j
} })=\
Ġ )+
Ġ è®¸
Ġ çİ°åľ¨
çļĦ æł¹
çļĦ èīºæľ¯
re at
igh ting
ä¸ª ä½ĵ
æĪĳä»¬ è®¡ç®Ĺ
ur n
ĠC DM
åº¦ è§Ħ
be ck
æĪĲ å¹´
å®ļ æĢģ
çĲĨ æŁ¥
éĥ İ
çī¹ å°Ķ
ĠV I
ä¼ļ åĳĺ
å®ĥ åı¯ä»¥
èµ· çĿĢ
cent ric
æĹ¶éĹ´ å°ºåº¦
å£« åħµ
æııè¿° ä¸º
æļ ¨
Ġthree body
Ġprob ed
Ġsimilar ly
Ġcontro lling
igu ing
Ġrefle ct
åľ¨è¿Ļ é¡¹
nucle us
ä¸»å¯¼ åľ°ä½į
æİ¢éĻ© å®¶
Ġrigh thanded
Ġcong ru
: |
H om
e a
s ti
x U
Ġ ç®Ģåįķ
Ġ åĿ¦
in cre
çļĦ M
çļĦ è¡Į
Ġd ro
å° ¸
}_{ -\
ä¸į è¦ģ
ĠN d
æĸ¯ èĴĤ
:= -\
},\ ,\
åĨħ éĻĨ
ĠæĪĳä»¬ è¡¨æĺİ
Ġga seous
Ġdata set
Ġdata sets
Ġpre ferred
èĤ ĥ
å®ĥä»¬ ä¸İ
æī° åĬ¨çļĦ
è´¹ å°Ķ
Ġsha red
ĠEx ten
æĸľ åĿ¡
çļĦç£ģ çĽĺ
radi o
åĺ ī
èĦĬæ¤İ åĬ¨çī©
å½» åºķ
ç¨ł å¯Ĩ
æ¶µ çĽĸ
roun ded
å®¾å¤ķ æ³ķ
c end
k ine
x w
{ )}
Ġ mb
Ġ çİĭ
çļĦ åı¯èĥ½
Ġin consistent
}^{ |
Ġre sto
Ġre trie
Ġde position
it t
æĪĳä»¬ å¾ĹåĪ°
}, (
ĠF ano
çĲ ī
ĠP DF
Ġ2 7
co prod
ys tate
å¹¶ æĪĲä¸º
æīĢ åıĹ
åħ¬ å¸ĥ
åıį å¸¸
po sitive
^+ _{\
Ġhe xag
10 1
åį¡ è¯º
Ġclo ck
16 0
ä¼Ĭ èİīèİİ
èº« ä¸Ĭ
çĻ½ çŁ®æĺŁ
æĽ¾ æĺ¯
\; =\;
çīĪ çĶ»
ä»į æĺ¯
_{[ -
Ġeigen functions
medi um
æī¹ åĪ¤
Ġrapid ity
Ġconstitu te
éĻĢ èŀº
åıĤèĢĥç³» ä¸Ń
Ġmonot onic
sele cted
Ġrele ase
\!\!\ !\
æ¸ł éģĵ
bid den
R HIC
i F
r p
s he
Ġ è®¾è®¡
Ġ å¤¸åħĭ
çļĦ åºĶçĶ¨
Ġs tem
Ġs hifted
en o
ro pe
Ġ& -\
Ġb lu
at omic
ic o
æĪĳä»¬ åĪĨæŀĲ
è´ ª
çĽ¸ æľº
ĠN u
ĠæĪĳä»¬ å»ºè®®
Ġnon standard
Ġnon interacting
å¸ĥ åħ°
&= -
cc ccc
å¸Į æł¼æĸ¯
Ġelectron phonon
Ġdeca des
å¯¼èĩ´ äºĨ
ä¼ĺ äºİ
Ġpul sed
mit ted
çļĦçĶµ æµģ
ĠCar tan
æĬµ æ¶Ī
wor ds
çļĦéĩįè¦ģ æĢ§
åľ¨è¿Ļç§į æĥħåĨµä¸ĭ
|\\ &\
ä¹Ķæ²» äºļ
Ġsummari ze
Ġsched uling
L f
S Z
S f
S ED
t B
} ï¼Į
Ġ ä¼¦
Ġ å²Ľ
Ġ åĩºçİ°
al y
çļĦ æŀģ
çļĦ æł¸
Ġp s
åĴĮ æľĢ
Ġi an
ä¸Ĭ æ¸¸
co mb
ĠN ow
ĠE r
çļĦç Ĭ¹å¤ª
å½¢ å¦Ĥ
çĶ± ä¸Ģä¸ª
éĽ ¾
)( (
éģ £
Ġle a
Ġle mma
Ġtw ice
ç©ºéĹ´ æĹ¶éĹ´
éĢļè¿ĩ åľ¨
è°ĥ åĳ³
ke y
éĢī æīĭ
å·² æľī
æĻ® ç«ĭ
å®ī åľ°
æ¬§ æĭī
Ġinf laton
å¯¹åºĶ äºİ
åĪ» çĶ»
Ġhyper surfaces
Ġiso topes
å»¶ä¼¸ èĩ³
mate ly
éŀ į
æļĤ æĹ¶
Ġplate au
åľĨåĳ¨ è¿ĲåĬ¨
Ġfrustra ted
D v
K N
P ES
] }(\
i M
i lo
j r
m r
m kern
x T
Ġ åĬĽåŃ¦
Ġ å¢ĥ
Ġ å¹³è¡¡
Ġ éļıçĿĢ
çļĦ è¯Ńè¨Ģ
çļĦ éļıæľº
Ġt ro
å® ĭ
åĴĮ çº¦
æĪĳä»¬ åģĩè®¾
å¯¹ æīĭ
ab s
åŃĲ å®«
ĠL ow
çĶµ çº¿
å¹¶ åıĳçİ°
ĠV LBI
ä¸ĭ éĿ¢çļĦ
)) ^\
éķ Ģ
è§£ æķ£
å¸¸ è¢«
äºĮ åĪĨ
å§ ¿
é» Ľ
åĪĿ çº§
å¹¿ åĳĬ
Ġmetal poor
Ġsepa rations
æ¸ħ éĻ¤
Ġäºº ä»¬
oriz ons
çļĦç²¾ ç¥ŀ
ç»§æī¿ äºº
éĽĨä¸Ń åľ¨
Ġaxi on
Ġshell s
hal os
Ġeff orts
äº« æľī
Ġtransmit ted
Ġepoch s
Ġprogen itors
# \{
F G
T W
i P
Ġ è§£åĨ³
Ġ çĽ®åīį
Ġa imed
çļĦ è¾¹çķĮ
ĠT ra
se y
åĪĨ å±Ĥ
ĠC lifford
ĠD s
æĸĩ æ¡£
éķ¿ è¾¾
åįķ æŀģ
æŃ£ çļĦ
ä½Ĩ åħ¶
ä½Ĩ çĶ±äºİ
æº ¢
Ġ_{ -
çİ¯ çĬ¶
long mapsto
ç¥ŀ åºĻ
åĪĨå¸ĥ åĴĮ
wa ter
è¾Ĳ çħ§
å®½ åħ¬éĩĮ
çļĦå¤§ éĥ¨åĪĨ
Ġten s
we ighted
appro ach
æĪĳä»¬åı¯ä»¥ æĬĬ
èĪª æµ·
ç¯ ®
éĺ² å¾¡
æĭ¥ æĬ¤
å¯» å¸¸
tran sition
Ġdeno tes
ĠSpe cial
Ġincorpo rate
Ġenco ded
Ġsecu re
éķ¿çº¦ åħ¬éĩĮ
åıĳåĬ¨ æľº
Ġattemp ts
Ġautom orphisms
æĹħæ¸¸ ä¸ļ
Ġsurvi val
cir cu
ĠPhy sics
æ¯ĶåĪ© æĹ¶
Ġreci pro
Ġfailu re
Ġbench mark
A le
F X
G I
a X
h l
r b
Ġ èĢĥ
çļĦ ä»£çłģ
}{ [
Ġ\(\ ,
ä¸Ģ ä»½
_{\ |
ter na
äºº ä½ĵ
Ġor ganic
ç©º ä¸Ń
os able
ut onom
ĠZ eeman
den s
æĢ» éĥ¨
Ġtrans formed
ä¸ĸçºª æĻļæľŁ
Ġfirst principles
å¾Ī å¥½åľ°
é¢Ħ å¤ĩ
Ġge q
13 4
æĹ© å¹´
åħļ çļĦ
Ġorigin ate
bo ard
Ġconject ures
æº¶ åīĤ
Ġend s
éĺ´ è°ĭ
å³¡ è°·
ä¹Ļ çĥ¯
Ġarchi val
Ġdivi ded
æµ®çĤ¹ æķ°
C he
J q
\ }=\{
] :
Ġ åī§
Ġ éĿ¢çļĦ
Ġa per
Ġa rt
ma y
çļĦ çĶŁæ´»
ta il
Ġs on
de velop
å¹ º
ä¸º ä»ĸ
)= -(
å¸ ħ
ĠC A
as semb
Ġ. .,
ĠO ther
åºĶ å½ĵ
æł¼ éĩĮ
åħ± çĶŁ
Ġstruct ured
Ġlow temperature
Ġrela tes
ç»Ļ äºĨ
çº³ å°Ķ
Ġreal izations
Re v
Ġphoto sphere
rest rial
ĠCon sequently
ĠFermi lab
Ġdisper sions
èļ ģ
Ġstabili zed
æĢĢ çĸĳ
Ġinterpo lation
Ġinspi red
å¸Įå°Ķ ä¼¯çī¹
éī´ äºİ
ĠInteresting ly
Ġtub es
D H
d cases
t H
w an
Ġ /\
Ġ å¥½
Ġ è£Ĥ
Ġ ä»ª
Ġ åħ³éĶ®
çļĦ H
çļĦ æĿ¥æºĲ
çļĦ åħ¸åŀĭ
is ting
Ġin d
åľ¨ æľīéĻĲ
æĪĳä»¬ å¼ķåħ¥
åĪĨ è¾¨
di cally
æĭ ³
éĥ¨ ä½į
éĩį çĤ¹
Ġpres cription
åĻ¨ æĹ¶ä»£
åħ± åıĺ
bra tions
Ġgrou po
Ġscal ed
ä»¥åıĬ åħ¶ä»ĸ
Ġspin ning
æĶ¶ èĹı
å®ĥä»¬ æĺ¯
çĮ ¿
_{+ }^{
Ġconne cting
Ġkine tics
å®£ è¨Ģ
Ġbran ches
Ġç½ ĳ
ĠæıĲ åĩºäºĨ
Ġdra matic
Ġneutral ino
Sp an
å°ıæĹ¶ çĻ¾ç§ĳ
Ġmonot one
ĠBoo lean
Q D
[ {
b g
f ast
Ġ ]\
Ġ åŁºç¡Ģ
re lations
ä¸Ń çŃī
ä¸Ń ç«ĭ
}} _\
Ġ- -
ĠA e
)} =(
res tima
di zation
Ġse ed
:= (\
ĠK olmogorov
ä¸ĭ éĻĲ
å°Ĩ åľ¨
ĠæĪĳä»¬ çłĶç©¶äºĨ
åħ± èİ·
åį¡ è·¯
è®° èĢħ
ĠCo oper
åĩłä½ķ åĲĳéĩı
19 2
çļĦåľ° åĿĢ
Ġextra solar
Ġhel ical
sy st
Ġæ¦Ĥ çİĩ
Ġguarante e
Ġrequ iring
c lusters
½ ®
Ġ ä¹Ĳ
Ġ èį·
Ġ åħīåŃĲ
in ess
çļĦ èµ·æºĲ
en n
ç» Ĵ
+\ |\
æµ ı
tic les
åı¯ è§Ĥæµĭ
æĿ¥ ç¡®å®ļ
çĶŁ æĢģ
\, =\,\
åĵ ĩ
ĠU l
}| }
æĻ® éĩĮ
16 6
å¯Ĩåº¦ åĬŁèĥ½
13 5
çĵ £
ac cu
ject ure
èĩªçĦ¶ åľ°
ä»Ĭ æĹ¥
ç¦ı å¾·
Ġaccount ing
Ġbreak down
inter pre
æĸľ çİĩ
ç½Ĺæĸ¯ ç¦ı
åĿļ æĮģ
æĭĵæīĳ ç©ºéĹ´
æ³ķåħ° åħĭ
éķ¿çº¦ åħ¬åĪĨ
Ġfila ment
åīĬ å¼±
Ġparametri zation
çļĦæ¤ įçī©
Ġepi ta
' )-
A p
M at
M pc
c n
s d
Ġ æīĺ
Ġ æĭ©
Ġ ä¸įåĲĮçļĦ
al t
çļĦ çº¿
Ġin puts
es cence
ri cated
ä¸Ģ åľº
å¯ ¡
Ġcon s
éĢ ¸
ĠC F
be t
æ³ķ æĺ¯
sion al
æ³¢ åŃĲ
å¸ĥ éĽ·
Ġcor ollary
12 34
åıį ä¹ĭ
ton e
Ġsa id
é¢Ħ éĺ²
é»ĳ ä½ĵ
che t
è½¯ ä½ĵ
å®£ ç§°
Ġç¡ Ģ
æĪĳä»¬åľ¨ è¿ĻéĩĮ
ĠOn ly
çĶ· æĢ§
é¢ĦæľŁ çļĦ
Ġpreser ve
cen ter
å¯Ħ åŃĺ
æ£Ĵ çĲĥ
maxi mal
Ġfair ly
M U
P DF
k ins
n X
o xi
Ġ åĭĴ
Ġ çĶŁäº§
Ġ åĮĸçļĦ
Ħ ¦
ra tive
åľ¨ æķ´ä¸ª
nu m
åħ¶ å®ĥ
ad dle
éĥ¨ åĴĮ
rom ov
èµ ´
ĠçļĦ ä¸Ģä¸ª
ĠU psilon
èĩª è¡Į
Ġfin ancial
æŃ£ å¼¦
Ġtwo component
Ġca ta
duc tions
èī² çļĦ
åĩł æ¬¡
æĶ¿ åıĺ
éļı ä¹ĭ
åĭ ¤
Ġhy bri
Ġalgebra ically
å¹¿ ä¸º
åħīè°± åĪĨæŀĲ
14 2
ä¸ĩ æľī
Ġexplo iting
com mensurate
å¿ħé¡» æĺ¯
åĮ» éĻ¢
éĽħ åĲĦ
\\& +
ĠSe ction
Ġæ´ ¾
äº¤åıī çĤ¹
ç©Ĩ ç½ķ
éĢĴ å¢ŀ
æİĪ äºĪ
Ġlife times
Ġexclu ded
çļĦæİ¨ æµĭ
åĸ·å°Ħ æľº
èĭ¹ æŀľ
& \\
T w
b il
m z
Ġ çº¢
Ġ åıĤéĺħ
Ġ åĲĦç§į
Ġ æĪĸèĢħ
Ġb ring
Ġu t
Ġg iants
ĠS pin
}, {
di pole
Ġse ctors
Ġç ĭ
èĢĮ ä¸İ
æŀĦ ä»¶
Ġfa ils
å¸¦ é¢Ĩ
10 2
ç»Ĩ éķ¿
Ġcharac ters
sp lit
Ġhigher order
æļĹ æĿĢ
è¡¥ åģ¿
åĪĿå§ĭ æĿ¡ä»¶
texts c
ä¸Ģæł· çļĦ
Ġju mps
Ġred den
Ġelectro des
]- [
æ½® æ±Ĳ
Ġutili zing
ĠPA MELA
iss ner
ä¼Ļ ä¼´
Ġæ»¡ è¶³
T Y
Y an
b lock
i R
l times
} ',
Ġ åĲĦ
ri x
Ġre sum
åĴĮ ä¸İ
}} ]
æĪĳä»¬ å°±åı¯ä»¥
éĢļ èĪª
åħ³ èĬĤ
æĹł éľĢ
ç»´ åŁĥ
ä½Ĩ ä¹Ł
åľº ä¸Ń
Ġsuper potential
åħ± åŃĺ
Ġad jacent
è¿Ļä¸ª ç³»ç»Ł
æ» ŀ
åħĪ çŁ¥
å·ŀ é¦ĸåºľ
åĩı å°ı
Ġ,\ \\
çº½ è¥¿åħ°
Ġiso thermal
Ġè¡Į äºĨ
pres sure
æŃ£äº¤ åŁº
Ġhalo es
çĽĳ ç¦ģ
LE X
éĢĶ å¾Ħ
Ġball istic
Ġsensor s
çļĦæ½ľ åľ¨
ĠVari ous
Ġnanow ires
3 84
D g
O b
k N
k pc
Ġ ä¼ł
Ġ åı¸
Ġ å¤ĦçĲĨ
Ġ\ :\
re ll
frac tal
åľ¨ æŁĲ
åŃ ¢
æĹ º
ou l
ab out
ĠM W
ĠThe ore
ĠH artreeFock
åĬ¨ åĬ¨
ĠD el
åĩº åĲį
Ġfi bers
åħī æºĲ
ä»» ä¸Ģ
ç¬¬ äºĶ
å¼Ģ æĻ®åĭĴ
ound s
}| <
éľ ī
Ġsub strates
ç¥ Ī
æ°Ķ æ³¡
åıĤæķ° åĴĮ
Ġneutr ons
çĭ¬ è£ģ
å¼ł éĩıçļĦ
val an
Ġprob ing
åĲİæĿ¥ åıĪ
é¡¶ å±Ĥ
æ·± åĪ»
çļĦæİ ¢
cur ve
çļĦçŁ ¿
Ġperiodic ity
Ġadvan ces
gala xies
éģµ å®Ī
æĥ¯æĢ§ ç³»
Ġcollider s
Ġsemis imple
åĬłåĪ© ç¦ı
ĠOri on
berts on
å½Ĺ æĺŁ
å¥¥è¿Ĳ ä¼ļ
Ġrevis it
C hi
J x
M ac
\ &
] ).\)
h lung
p ot
z t
Ġ è§Ħ
Ġ èº«
Ġ è®¤ä¸º
çļĦ åħīåŃ¦
de finite
Ġin complete
ou nce
ä»¥ å¾Ģ
Ġv olu
æĪĳä»¬ ç»ĻåĩºäºĨ
å¹´ åıĪ
ĠH i
ĠB orel
ĠD F
åıĳ æĢ§
åıĳ çĥŃ
çĶµ åĬĽ
us es
åīį å¹´
Ġequ ilibria
éĵ ¬
Ġimp licit
}^{- }(
^{* })
Ġgen u
}\| \)
Ġeigen vectors
å¤§å°ı çļĦ
é»ĺ å¾·
æľ« ç«¯
Ġam orphous
Ġstri p
ç¥ŀç»ı åħĥ
å¡ĳ èĥ¶
ĠTho mas
çļĦæ¯ į
charac ter
Ġdeb ris
Ġpix el
Ġade quate
utting er
/ (\
M G
e igen
n ary
x n
Ġ åĬŁ
Ġ æĸ¹å¼ı
Ġ\ ,\,\
Ġ\ ;\;\;\;
al led
Ġp b
Ġ& {\
åľ¨ è¶ħ
åĴĮ è°Ĳ
at om
ĠL B
var in
çļĦæ ļ´
ä½ĵ åŀĭ
Ġz igzag
^* )^
çĶ± ä¸¤ä¸ª
åĲĳ å¤ĸ
Ġ} _{\
è½¬ è½´
mon ium
æķ£ å¸ĥ
æ¯ı ç§į
ä¸»ä¹ī åĴĮ
åģļ åĩº
}^{* })\)
éļıæľº åıĺéĩı
ç³»æķ° çļĦ
æī©å±ķ çļĦ
Ġabsor bed
)\; ,\)
Ġoff set
Ġconfirm ing
parame ters
éĺ¿æĭīä¼¯ äºº
Ġrecur rence
Ġfas hion
Ġconcep tual
ĠæĴ ŀ
ĠIN TEGRAL
D is
I X
Q ED
\ }+\
d K
m to
Ġ åıĸåĨ³äºİ
me ta
Ġw o
Ġb or
ä¸Ģ åº¦
ho ok
Ġcon fining
ĠM ac
bb ons
åŃ¦ ä¸Ĭ
åıĳ èµ·
çī¹ çĤ¹æĺ¯
å¤ļ å°Ķ
åıĺ æķ°
åĵ Ģ
un ch
æĢģ åº¦
col l
äºļ å½ĵ
æĻ ķ
uct ure
çĥ ĥ
éħ ī
ç§» åĬ¨çļĦ
æĶ¯ æµģ
æŀĹ èĤ¯
ä¿® æĸ¯
ki p
Ġgo ing
é¥ ¥
ympto tic
æĪĲç«ĭ çļĦ
éĢĲ æŃ¥
éĺ» å¡ŀ
Ġil lumin
)~ .
åĨ° å·Ŀ
Ġindivi duals
åĶ± çīĩ
æĭį æĪĲ
high er
Ġdifficul ty
éĴ» çŁ³
ä¼Ĭèİīèİİ çĻ½
' )+
C har
T au
a ded
m d
Ġ è´Ŀ
Ġ ä¸įæĺ¯
th in
th ick
ti g
ro se
Ġb c
Ġb ars
Ġd wave
Ġre for
åĴĮ æ°´
)} ;
ĠB ro
ä¸İ åľ¨
Ġdi d
æ¨¡ æĿ¿
è¥¿ èĹı
çķ ¸
æł¼ æĭīæĸ¯
å§ Ĳ
ç¥ Ŀ
Ġwell s
ä½ľçĶ¨ çļĦ
Ġout per
åħ¶ä¸Ń ä¸Ģä¸ª
æ´» åĬ¨çļĦ
Ġste ad
æ²¡æľī ä»»ä½ķ
è¯º å¤«
éĩĩ æł·
ric ation
}^{+ }
Ġorigin ating
è´¹ åŁİ
ä¹Į æĭī
ä¹Į åħĭåħ°
ä¾µ çĬ¯
æİĪ æĿĥ
ĠæĮĩ æķ°
magne to
neutr ino
ĠHE RA
Ġbas eline
sha ped
æ·ĭ å·´
ä»¤äººæĥĬ è®¶
çĢ ĳ
varin jlim
n N
Ġ tions
Ġ èĭ¥
Ġ\ !\
ma ted
çļĦ ç»Łè®¡
ä¸Ģ å°ı
Ġre fined
do teq
Ġi k
end s
di rect
ĠG ross
co ding
Ġse c
å¹¶ è¯ģæĺİ
è®º è¿°
ä¸¤ éĥ¨åĪĨ
æŃ£ æŃ£
Ġequ ally
Ġcha pter
äº¤ æµģ
æĹĭ å¾ĭ
æĶ¾ ç½®
äºĴ åĬ¨çļĦ
æĪĲä¸º ä¸Ģä¸ª
éĵ¾ æĿ¡
Ġcombin es
æİ§åĪ¶ äºĨ
åįĩ éĻį
åį« çĶŁ
45 6
can onical
Ġç¤º äºĨ
Ġcoinci dence
,~~ \
å¤©æĸĩ åı°
Ġrepla ce
Rie mann
ĠSimilar ly
Ġadsor ption
è¿Ħä»Ĭ ä¸ºæŃ¢
Ġmanage ment
Ġlands cape
A Y
H G
¬ Ķ
Ġ æŃ¢
Ġ ç»Łè®¡
Ġ æł·æľ¬
Ġth ous
çļĦ çī©ä½ĵ
Ġp ort
Ġt in
Ġin fty
cal ing
li zation
Ġcon junction
Ġpro ves
ĠS YM
mi zes
ĠM ax
ĠF lo
ĠB en
Ġr d
ç»Ħ åĪĨ
åĪ© å¥¥
åİŁ æĿ¥çļĦ
Ġper mits
ore nstein
å®Į æĪĲçļĦ
å¤© ä½ĵçļĦ
ä¸»è¦ģ çĶ±
çĶ» åĽ¾
äºī åıĸ
Ġsingle particle
one y
æī©å±ķ èĩ³
Ġion ic
é£ŀ å¼¹
çļĦåĪĨ æĶ¯
çļĦæĬ ĺ
å¤§å°ı ä¸º
çªģ åıĺ
Ġva por
è¿½ æ±Ĥ
})\\ &=
Ġauto matically
ĠHar dy
éĻĪ è¿°
æ¿Ĵ ä¸´
æ²ī ç§¯
O P
V S
Ġa da
Ġb irth
åľ¨ K
Ġm K
pi llar
ĠS outh
)=\ {\
ĠG R
ĠP N
åİ ¦
èµ Ķ
å¹¶ è®¨è®º
iz ability
åĢ¼ ä¸İ
åħ¬ åİĺ
åįķ åĲĳ
è¯¥ å¼ı
Ġca mpaign
çº¦ æĹ¦
å¾· ç½Ĺ
pend ing
å¯Ĩ è¥¿
æ¨¡åŀĭ ä¸ŃçļĦ
Ġvari ed
Ġcorre lators
ps es
ç»Ļ åĪĨ
pla s
ä¸ĸçķĮ åĲĦåľ°
ĠHe cke
æ³ķåĽ½ äºº
é£Ł æĢ§
åıĳå±ķ äºĨ
ĠæĢ§ è´¨
å½Ĵ çº³
Ġæİ ¢
com mo
ä¸¾ åĬŀ
ä¸ĵ åĪ©
Ġåŀĭ çļĦ
Ġç¡ ¬
Ġwi der
åĪĽä½ľ äºĨ
Ġincorpo rating
New tonian
æģ° å¥½
Ġcontin ue
Ġfal se
æĻ®ç«ĭ åħ¹
M y
] \\&=
h h
p b
Ġ éĺ³
Ġ æķ£å°Ħ
çļĦ æĪĲåĳĺ
re ds
en ti
or ho
Ġe q
cal ar
ä¸Ģ æĶ¯
åľ¨ ä½¿çĶ¨
åľ¨ éĩıåŃĲ
åĴĮ ä¸¤ä¸ª
}) }{(
ĠW a
æī İ
mi ly
ĠP oly
ä»ĸ æīĢ
ĠK s
æ³¢ å½¢
è¯¥ çĲĨè®º
)] ,\)
èĥ½éĩı å¯Ĩåº¦
èµĦ æł¼
Ġaccou n
lator y
Ġinsta nces
Ġtrac king
corre ct
éĻ¶ åĻ¨
åłĨ ç§¯
æĺ¾èĳĹ çļĦ
ç¼ĸè¾ĳ åĻ¨
çļĦç¨ĭ åº¦
çļĦæĻ® éĢļ
Ġcare fully
determin ed
Ġallo cation
ĠDiffere nt
æ©¡ èĥ¶
2 12
B z
U n
b la
i red
p v
p tic
~ }
Ġ è¾ĵ
Ġ é£İ
Ġ å¡Ķ
Ġ çĶŁæĪĲ
on ormal
or ge
ä¸Ģ æĿ¥
æ³ ³
è¿Ļ æ®µ
å± Ī
Ġç ¨
ä¸¤ çĻ¾
åĿ ŀ
os en
åħ¬ ä¼Ĺ
ĠæĪĳä»¬ å¯¹
ç¾İ åĪ©
Ġ) _{
Ġfa il
èĦ Ĩ
Ġpla tes
Ġsub algebra
åıĮ å±Ĥ
^- (\
Ġtherm ally
Ġè¿Ļ è¡¨æĺİ
é¸ ¦
Ġtransi ting
çļĦæ° §
æĬķ éĻį
åĪĨç¦» çļĦ
Ġcap ability
éļĲ åĲ«
éŁ¦ å°Ķ
Ġconcer ns
Ġæ¶ ī
Ġmeta materi
è¡£ ç´¢
Ġstabili zation
Ġatta ched
Ġbon ds
actor y
åĬłåĭĴ æ¯Ķ
. :
C x
M V
S al
Y Z
b as
c attering
Ġ åĬ¡
Ġ èĬ±
Ġ è´Ł
Ġ åĩłä¹İ
is sion
ro ll
si o
}) ),
-\ |
ä¸Ń ä»¥
Ġi a
ä¸º ä¸Ńå¿ĥ
)= +\
åı¯ è¡Į
ab cd
ĠC herenkov
ĠM R
ĠF W
Ġme sh
Ġk s
ç®Ĺ åŃĲçļĦ
)+ {\
ä»İ æľª
ex change
)\, =\,
Ġcla ims
åŁŁ ä¸Ĭ
Ġun biased
å¦Ĥæŀľ ä¸į
éĴ ¾
dis per
æĿĥ çļĦ
éĤ£ä¹Ī å°±
åĪĨåŃĲ äºĳ
æłĳ çļĦ
æľį è£ħ
è§Ĥå¯Ł åĪ°äºĨ
ä½įç½® çļĦ
Ġå¤§ åŀĭ
åĪ¤ åĪ«
polar ization
çļĦçŃī çº§
ç¬¬äºĮæ¬¡ä¸ĸçķĮå¤§æĪĺ åĲİ
\!\ !
Ġlepton ic
å¹½ çģµ
çļĦæ±ī å¯Ĩå°Ķé¡¿
) ~~
J A
s mile
t l
Ġ å·²
Ġ éĺŁ
Ġ ç»ĩ
Ġ å¥ĩ
Ġ è¿Ľè¡ĮäºĨ
çļĦ æĿĥåĬĽ
åĴĮ æľī
}) :
ou lli
å¾ Ļ
^{- }\)
æĪĳä»¬ å®ļä¹ī
å¤§ å¹ħ
mi xing
ä»ĸ è®¤ä¸º
ĠN MR
æĸ¯ å¾·
con ver
è¿ĳ äºİ
exp on
)| |
)^{- (
è°± çº¿
é¢Ĩ åħĪ
åĸ ĩ
çĸ Ĩ
Ġmini mizing
è¶Ĭ å¤§
Ġphoto spheric
Ġfluctu ating
Ġnan oscale
ĠçĽ¸ æ¯Ķ
ok ker
èĸĦ å¼±
ĠLi pschitz
æĪĳä»¬èĢĥèĻĳ äºĨ
çĦ¦ çĤ¹
Ġcolour s
çļĦç´§ åĩĳ
è¯ŀ çĶŁ
ĠExperi mental
Ġnegle cted
4 00
R f
c lassi
k R
çļĦ å¼ºåº¦
en tations
ar po
Ġp T
rac e
mb ic
}) ^*
}} }\)
ĠH ol
Ġk ink
ty pes
ment ally
å°Ķ åħĭ
}- (\
åīį æĻ¯
Ġtran sf
}| }\
å±Ĥ éĿ¢
Ġover la
ron e
çļĦä¸Ģ æ¬¡
Ġta n
å·ŀ éķ¿
èħ °
æĽ¾ ä¸º
23 1
Ġrandom ness
ber ger
Ġfollow up
ç»ıæµİ åŃ¦
nic s
ä¸ŃåĽ½ çļĦ
æľĢé«ĺ å³°
Ġpara dox
ĠRa dio
Ġconserv ative
ĠApp lying
çŃīä»· äºİ
Ġapparent ly
éĹª åħī
lepton ic
Ġvalu ed
Ġhund red
Ġevapo ration
, *
P G
l rc
Ġ )}\
Ġ å¥¥
Ġ æ³ķåĽ½
Ġ åĳĬ
Ġ åıªæľī
Ġ åĩ½æķ°çļĦ
}\ |=
Ġin ves
ä¸Ģ çº§
qu ality
se pa
)= |\
Ġ\\ -\
}_{ (\
ĠC luster
ĠF eshbach
as on
æĹ¶ æ®µ
ĠP al
æľĢ æĸ°
çĶµ å®¹
for gani
è° ´
ä¼ļ åıĳçĶŁ
æĺŁ æľŁ
Ġshow er
ä»İ æŃ¤
è¯¥ ç³»ç»Ł
Ġca mera
æ¡ ¶
ç¾¤ ç¾¤
è·¯ å¾·
çļĦä¸Ģ ç³»åĪĹ
æīĭ æ³ķ
çĽ¸åħ³ é¡µéĿ¢
åĩı éĢŁ
åı² è¾¾
å¥¹ åľ¨
å¤§åŃ¦ ä»»æķĻ
éĿĻ èĦī
ĠNe twork
åķĨä¸ļ ä¸Ńå¿ĥ
æ¯ģ çģŃ
Ġæ°Ķ ä½ĵ
çļĦç¢ °æĴŀ
Ġendo wed
é¢ģ å¸ĥ
Ġinstant on
ĠçĮ ®
ctiv eness
Ġfluores cence
curv ature
; (
H ST
J M
\ }\,
j h
q n
Ġ å¼±
Ġ å¤ªéĺ³
Ġ è¿ĩæ¸¡
çļĦ åİŁåŃĲ
or tant
si ded
ä¸Ģ åħĥ
}) >
}} [\
æ³ķ ä»¤
çº¿ åľĪ
å¹¶ æĺ¾ç¤º
æµĭ å¾Ĺ
çĤ¹ çĶµèį·
åĲĳ åĮĹ
äº§ ä¸ļ
ç¬¬ ç«ł
åĪĻ çĶ±
ĠĠ ĠĠ
æĦı è§ģ
åºı æķ°
è¯Ń ä¹ī
of the
man y
ov ich
\,\ ,\
äºĶ çĻ¾
ĠLa x
çĳ Ļ
ä¼¸ å±ķ
å¸ķ æĭī
ĠçĶ± æŃ¤
Ġpuls ation
Ġreco il
ĠPo incar
Ġfrag ments
ĠSpe ctro
èİİ å£«
Ġdiscontinu ous
æľīåĪ© äºİ
bary on
S y
i G
o id
u ri
v x
Ġ åı¶
Ġ ä»ĸä»¬
Ġ éĥ½æĺ¯
Ġ äºĭä»¶
Ġth i
te p
Ġo v
åĴĮ å¤ĸ
æľī åĬĽçļĦ
éĢ ¾
äºĨ ä»ĸçļĦ
it ous
å¤§ ä½¿
æĸ¹ å·®
Ġsta nding
Ġpo stu
æĸ¯ å·´è¾¾
è¡¨ ä¸Ń
ä¸ĭ æĸĩ
éª ļ
æĽ´ å¥½
æ³¨ å°Ħ
æİĴ åĩº
éĩĩ éĽĨ
Ġassoci ative
æľ¨ æĺŁ
è¯Ńè¨Ģ çļĦ
åĮħåĲ« ä¸Ģä¸ª
æī°åĬ¨ çĲĨè®º
åį· ç§¯
æĻº åĪ©
è¯Ħè®º å®¶
çļĦæĶ¹ éĿ©
Ġæ°´ å¹³
Ġquen ching
theore tical
ĠTau ri
lrc orner
_ !
x M
Ġ ä¸»ä¹ī
Ġ é¢ĳçİĩ
Ġe longa
åĴĮ åħīè°±
}} /
he avy
åĪĨ çº§
å¹´ åĩºçīĪ
ĠC CD
ĠF ock
åĽ½ åĬ¡
å¼ı åŃĲ
\\ =&
é«ĺ é¢ĳ
ä¹Ł èĥ½
ç¼ Ĩ
Ġsp int
å¯Ĩ èĭıéĩĮ
å°¼ å°Ķ
Ġexperi ence
ä¿Ŀ åĬł
åĪĿ çŃī
å®ĥä»¬ åľ¨
gen ces
åģı å¯¼æķ°
Ġfol ding
å¼¹ éģĵ
æķĪåºĶ çļĦ
å®ŀçİ° äºĨ
Ġexplain ing
Ġstring ent
genera ted
Ġåį³ ä½¿
æĹłç©· è¿ľ
ĠNa mbu
åº¦éĩı ç©ºéĹ´
çļĦæĶ¿ çŃĸ
å¹¼ èĻ«
ĠnonGaussian ity
dra wn
Yang Mills
é¥² åħ»
Ġhistor ies
Bon net
bow tie
0 5
K f
L U
P ol
b h
h r
Ġ vec
Ġ è¡¡
Ġ è½¬æį¢
te nd
ma jor
Ġd F
åĴĮ åı¯
åĴĮ ç½Ĺé©¬
Ġco gni
å¹´ å»ºç«ĭ
ĠM E
ĠH en
åľ° åĴĮ
Ġç Ĥ
è®º çļĦ
æĭī æ¯Ķ
Ġfin i
ä½Ĩ åľ¨å¹´
Ġhigh light
Ġinter mit
ç§¯ ç´¯
åħ± æľī
ç§ĳ å°Ķ
æµ· ä¸Ĭ
ä¹ĭéĹ´ åŃĺåľ¨
sor s
ä¼¯ éĩĮ
Ġ~ .\)
Ġsupp le
Ġpair wise
è·Ŀç¦» çļĦ
åĬ¨çī© çļĦ
35 2
äº² çİĭ
åŃĶ å¾Ħ
åºĶè¯¥ æĺ¯
Sch r
}_{- }\)
å°ĸ éĶĲ
Ġtwop oint
Ġseman tics
å©´ åĦ¿
B oo
C G
N x
p w
s ym
© çĮİ
Ġp lu
el vin
Ġn itrogen
åĴĮ æĹĭè½¬
åĴĮ æĶ¿æ²»
}} &
he im
ä¸ª åĪ«
è¡ ¬
ĠC FT
ĠC ERN
ĠL F
ĠP ic
æĿ¥ åĪ°
Ġse a
ĠE SO
ca ve
å¦Ĥ æīĢç¤º
é«ĺ èĥ½éĩı
Ġ} -\
Ġnon compact
ak a
Ġinter galactic
Ġsub structure
å¼Ĥ ç«¯
æł¸ ç³ĸ
é² ¨
pu b
Ġorigin ates
vol tage
Ġion izing
åĨ· åĨ»
Ġç¼ º
çŃ¾ ç½²
æĪ¿ éĹ´
èµŀ åĬ©
Ġempha size
éªĳ åħµ
Ġtight binding
æİ¨æĸŃ åĩº
çİ»å°Ķ åħ¹æĽ¼
Ġbol ometric
Ġexpo sure
hook rightarrow
C I
C W
j y
| )^{
Ġ éĤ£
Ġ åĨĻ
Ġ å¤«
Ġ çĶµèį·
Ġ åħīåº¦
ra s
çļĦ åŁİå¸Ĥ
Ġo t
Ġc d
Ġg i
Ġi ll
Ġma ppings
Ġmo tivation
ä¸į ä¸ºéĽ¶
Ġdis joint
åĲİ ä»£
éĥ¨ æĹı
ä¹ĭ ä¸Ĭ
\\ (
ç§° æĺ¯
Ġnon abelian
çİ¯ çĲĥ
Ġsc intil
è¾ĥ å°ıçļĦ
Ġsign s
è´Ŀ åħĭ
Ġestablish ing
band s
Ġachie ves
Ġimple men
Ġsui ted
Ġç£ģ çĽĺ
Ġpack ing
Ġpreser ves
Ġtu nable
Ġexceed ing
çļĦéĤ£ æł·
Ġcompac tifications
script size
Ġhyste resis
å·´åŁº æĸ¯åĿ¦
æµı è§Ī
B en
f h
u z
u te
Ġ å¤ª
Ġ æľª
Ġ èĩªçĦ¶
Ġ å¹³éĿ¢
Ġ lying
in ten
çļĦ èĮĥåĽ´
çļĦ èĩªçĦ¶
çļĦ åĮĸåŃ¦
Ġo pacity
Ġn ine
ä¸º åľ¨
Ġco pies
to tal
åı¯ è¿½æº¯
ĠF er
å®ļ åĪĻ
ĠD ar
ĠR ed
æĿ¥ è¿Ľè¡Į
ĠN ational
Ġç Ļ¾
åıĺ æĢ§
åĲĮ èĥļ
low er
è¥¿ ä¼¯åĪ©äºļ
åŁº äºº
ĠTh rough
ĠJ ordan
åħĭ æŀĹ
äºĮ çº§
Ġuni on
Ġalgorith mic
pre ceq
å£° åŃ¦
Ġstatis tic
èģļ åıĺ
ĠèĢĮ ä¸įæĺ¯
Ġrea dily
Ġrea dout
ä¸ĥ ä¸ª
ĠSta tis
ĠPro blem
å®« æ®¿
ä¼¤ å®³
æŁı æĭī
ash ba
è¾© æĬ¤
ä¸¤æŀģ åĪĨåĮĸ
åįĹåĮĹ æĪĺäºī
çļĦæ¤ ŃåľĨ
Ġdilu te
Ġupda ted
æĬĽçī© çº¿
Ġdeple tion
A N
D I
v s
v ised
Ġ éĺ¶
Ġ round
ti fy
ta tivity
Ġp assive
rac ies
Ġin ser
åľ¨ åĲĮä¸Ģ
lo u
+\ ,\
æĪĳä»¬ è¦ģ
ĠF ran
tu nate
åľ° è²Į
åħ¶ æ¬¡
åŀ «
æľĢ ç®ĢåįķçļĦ
åħ¬ è®¤
ĠæĪĳä»¬ æıĲåĩº
é© ³
å½± åĥı
Ġsub tle
è£ ķ
Ġcomple tion
ä¿Ŀ éļľ
éĴ ĵ
æ¸© æļĸ
åĲİæĿ¥ è¢«
18 0
æ¶Ī çģŃ
Ġfla vors
Ġsimilar ities
Ġsepa rating
çļĦç² ĺ
çļĦçĶµ ç£ģ
éĩİ å¤ĸ
ä»ĭè´¨ ä¸Ń
Ġæ¯Ķ ä¾ĭ
genera tion
ä¸įåıĺ çļĦ
Ġspeed s
Sp itzer
Ġarc min
æ¦ Ħ
é©¬åħĭ æĢĿ
æĴ° åĨĻ
çļĦæ® ĭ
Ġanten nas
Jaco bi
åĴĸ åķ¡
= :
G yr
S ol
] })
c as
x h
z aku
Ġ è®¤
Ġ å¦Ĥä½ķ
Ġs me
la net
ĠH odge
ĠN c
æ¯ Ĺ
ç±» åĴĮ
å¯¼ æķ°çļĦ
æŃ£ æĺ¯
Ġper haps
æł¼ åĭĴ
åıį è½¬
è¿Ĳ ç®Ĺç¬¦
mo di
}-\ {
}] }
Th ese
]= (
åħīè°± ä¸Ń
Ġbeha ve
ignific ant
åĬ¨æĢģ çļĦ
ä¹ł ä¿Ĺ
æ»ĳ åĬ¨
with in
æ¯į äº²
ĠçĽ¸ åıį
exis tence
ç¨Ģ éĩĬ
Ġinver tible
Ġtriang u
Ġatta ck
çļĦæ® ĸæ°ĳ
- )
I F
S ub
T b
Y a
y t
Ġ ted
Ġ å»ºç«ĭ
ra pid
çļĦ ä»»æĦı
Ġe re
)\ ;\
Ġto y
æĺ¯ å®Įåħ¨
ä¸º åħ¶ä¸Ń
Ġde coupling
æĪĳä»¬ ä»ĭç»įäºĨ
ä¸į å¤§
æĪĲ æŀľ
tr ons
ä½ĵ ä¸Ĭ
\, |
è¥¿ æ¬§
ĠTh eta
åĲĳ è¥¿
å®ĥ æĺ¯ä¸Ģä¸ª
å°Ĩ ä¼ļ
å½ĵ å±Ģ
ĠæĪĳä»¬ è°ĥæŁ¥
åıĸ æł·
mo lecu
Ġpre ferential
ll ll
ç¥ŀ çļĦ
æ¼Ķ è¿Ľ
_- )
Ġä»¥ ä¾¿
Ġbi polar
Ġthrough put
ä¹ĺ æķ°
èµĦ åĬ©
}~ ,\)
Ġtrac es
æ´»åĬ¨ æĹ¶æľŁ
Ġwor lds
çĶ· åŃĲ
æĪ¿ å±ĭ
è½¬åĬ¨ æĥ¯
æ¦Ĥæĭ¬ äºĨ
Ġcare ful
æµ·æĭĶ åħ¬å°º
ĠIRA C
Ġread er
ĠSupp ose
Ġquick ly
preser ving
C om
j t
k X
Ġ åı¤åħ¸
Ġ é¢ĳè°±
çļĦ éĽ¶
çļĦ è¿ŀç»Ń
çļĦ ç³»æķ°
^{- {
Ġh orizons
çī© åĴĮ
å¦Ĥ åĽ¾
åħī æĽ²çº¿
ç¬ ¼
\| <
åĲĳ ä¸ľ
åİŁ åŀĭ
12 1
Ġda mped
æ± ¶
}\, =\,
å¾® çĶŁçī©
gra de
æµ· æ¸¯
Ġrela xed
éĢī ä¸Ń
éĩĳ æĸ¯
çĥŃ åĬĽ
åĭ ¾
Ġbi linear
trac e
Ġoccur red
æĿ¾ æķ£
ĠEx amples
Co O
ĠNe ar
Ġæ² ¿
Ġdouble t
Ġmat ched
reg ion
å¯¹è§Ĵ çŁ©éĺµ
çļĦæİ¨ å¯¼
han non
ĠBer ry
çļĦç¦» åŃĲ
Ġçĵ ¦
åı²è¾¾ æŀĹ
) })=\
B ur
L s
d G
{ .}
Ġ è¯·
Ġ ä¿¡åı·
Ġin fe
ä¸Ģ åįĥ
çī ¢
^{- {\
ĠI nt
ĠB oh
ĠR i
æĿ¥ è°ĥæŁ¥
are a
åı¯ä»¥ ä¸İ
ĠO H
ç»Ħ ä¸Ń
é«ĺ ç»´
æ¯Ķ æĸ¯
éĥ½ å¸Ĥ
æľº åħ³
è¶ħ æĸ°
ian s
éĺ¿ æł¹å»·
åį° åº¦çļĦ
ple t
éĻĲåĪ¶ åľ¨
è½´ ä¸Ĭ
èĨ ı
The orem
æĬķ å°Ħ
èĪª å¤©
temp oral
æİĴæĶ¾ çº¿
inte ss
Ġbri dge
ä¸¥æł¼ çļĦ
ç»Ŀå¯¹ åĢ¼
çļĦçľŁ ç©º
Ġgrav iton
Ġpiece wise
isha ble
å®¾å¤ķæ³ķ å°¼äºļ
! }.\)
' :=
L TE
M K
f ront
m g
s olution
s hift
« å¤ĸ
Ġ æĸ½
Ġ è¯ģæį®
ł ç»ķ
ma ge
çļĦ æľĢä½³
ig er
ä» ĩ
åľ¨ ä¸ĢäºĽ
}) }(\
ä¸Ń è¥¿éĥ¨
éĩı çº§
æĪĳä»¬ ä»¥
ĠC ME
Ġ1 7
min al
è° £
ç±» æĺŁ
Ġpres sures
çķ ª
æ³¢ åĩ½æķ°çļĦ
Ġnon e
Ġimp lied
éħ ¿
æĻ® æľĹåħĭ
äº§çĶŁ ä¸Ģä¸ª
çŁ© å½¢
å¢ŀ çĽĬ
au er
ler s
Ġelectron electron
è§Ĩ é¢ĳ
çĸ ¯
æľį ä»İ
çİ°åľ¨ çļĦ
Ġfil led
çļĦçĶµ å½±
Ġanalog ues
Ġhand le
åĩ¯ æĴĴ
æ¯Ķå¦Ĥ è¯´
éŀ ĭ
ä¼Ĳ åħĭ
çģĮ æºī
Ġsemig roups
çļĦæ½ľ åĬĽ
Ġexe cu
> _{
H g
L x
N U
¯ æĢ§
Ġ åı²
Ġ åģļ
Ġ ä¹Łæĺ¯
Ġ åıįåºĶ
Ġ è¿ĳä¼¼
çļĦ æľĢå°ı
or ough
åĲ ł
Ġ+ (\
se arrow
ic ke
ent al
éĩı åº¦
ä¸į è®¡
Ġby product
ĠK S
ä¸ĭ ä¸Ģä¸ª
éħ ĭ
Ġpartic ip
é¦ ı
gra phic
éĺ¿ éĩĮ
å½±åĵį çļĦ
Ġfinite size
çŁ³ çģ°
æĥ³ æ³ķ
åĵĪ å¾Ĺ
Ġfre quently
Ġdetermin ations
ä¸ĢèĪ¬ æĿ¥è¯´
ä»ĸä»¬ åľ¨
è§Ĥå¯Ł èĢħ
Fe O
Ġpi ons
Ġcentral ity
äºĳ å±Ĥ
Ġshe ets
ĠLe gend
_{* }\)
éħĴ ç²¾
éĢĥ å¾Ģ
å¤ı å¨ģ
Ġexclu sion
bes gue
hed ra
åľŁèĢ³åħ¶ äºº
posi tions
Ġä¾Ľ äºĨ
ĠOp tical
Ġnanotu be
Ġbegin ning
Ġsymbol s
Ġaccoun ted
$ },
( (-
3 83
7 20
C as
F ran
O ur
S G
W igner
Z u
] |
] )=\
{ }^{
Ġ å·¥
æĺ¯ ä¸¤ä¸ª
ä¸Ń è½¬
se ctions
}} }=
æĪĳä»¬ åı¯
Ġex er
ĠC N
vi a
ĠK theory
è° ľ
æĬ Ĵæĥħ
åĨħ éĺģ
çŃī åı·
åħ¥ åı£
ç§ĳ æĻ®
èĮ µ
åįģ ä¸ª
åĪĨæŀĲ åĴĮ
25 0
é»ĳ æļĹ
13 7
æĸŃ å±Ĥ
Ġwave let
åľ£ æ¯į
çĽ¸äºĴ åħ³ç³»
Ġfu zzy
24 6
æŃĮ åĶ±
æĳ© æ´Ľ
Ġemp ty
99 9
æ¸ħ æ´ģ
çĶŁæ´» åľ¨
ä¸įåı¯ åĪĨ
Ġanisot ropies
åĩĿ åľŁ
ä¾µ çķ¥
æĹ¶ä»£ çļĦ
æĹłç©· å°ı
æĪĪ å°Ķ
å»ºéĢł äºĨ
æŃĮåī§ éĻ¢
å¹´åİŁåĲį ç¾İåĽ½
å¯ĨåĪĩ çĽ¸åħ³
Ġcarry ing
Ġæ¦Ĥ å¿µ
Ġtetra gonal
Ġtrun cation
Ġcoopera tive
Ġingredi ents
electr onic
Ġado pt
! )^
C an
M X
p d
~ {\
çļĦ åĩĨ
Ġs l
Ġt t
Ġ& &\
Ġb lo
su bar
el lip
åĴĮ ä½İ
çĽ İ
^{\ #
å¯¹ ä¸Ģä¸ª
ä¸į åľ¨
ĠH om
æĪĲ å½¢
Ġæ º¶
æİ ·
ä¹ĭ ç¥ŀ
è¢« åıĳçİ°
è¢« åĽ°
Ġ) ^{\
Ġsp li
èµ· å§ĭ
å°¼ å¾·åħ°
'' }{
mis sible
è¾ĥ å°ĳ
åı¤ æĭī
ç±³ çī¹
å¢ŀ éĩı
16 8
åĵĪ å¸ĥæĸ¯
åľ£ å½¼å¾Ĺ
çĸ ¼çĹĽ
èĬ± åĽŃ
èĮĥåĽ´ åĨħçļĦ
Ġassu mes
ä¸´ åºĬ
å¼ķåĬĽ åľº
ob tained
ï¼Įï¼Į ï¼Į
Ġincreasing ly
Ġintr iguing
ä¸Ŀ çĬ¶
Ġreas ons
posi tron
Ġsatu rated
Ġstron gest
Ġinci dence
Ġep is
effe ct
Ġbrigh ter
èĬŃèķ¾èĪŀ åĽ¢
Ġseg ments
ĠCur rent
ofs ight
arpo on
2 88
4 80
G f
u g
¾ çĹħ
Ġ æĸĩä»¶
çļĦ æľĢåĲİ
çļĦ é«ĺåº¦
Ġs ig
}} =-
ic a
Ġon site
æł ĵ
å¹´ è®¾
å¹´ ä»¥åĲİ
ä¸į ä¸Ģèĩ´
æľ¬ èĬĤ
èĩª ä¼ł
å¼Ģ éĩĩ
æł¼ åŃĲ
ä¸ī çĻ¾
fi xed
mo tion
å±ŀ çļĦ
ac ci
è¿ľ å¾ģ
æĽ¾ ç»ı
23 4
æ¶Ī èĢĹ
è¡° éĢĢ
æĥħ æĬ¥
ä½įç½® åĴĮ
æľĿ åľ£
çļĦç£ģ æĢ§
Ġdesign s
æļ´ éľ²
ç§ĺ ä¹¦
oo ft
æĻ®éĢļ çļĦ
ç¿» è½¬
ç¼ĵ åĨ²
ini tial
Ġbelong ing
èĹī çĶ±
Ġparameteri zed
åīĳæ¡¥ å¤§åŃ¦
B el
J ohn
N m
s ati
Ġ åĬ©
Ġ åĳ¨æľŁ
Ġ ä½¿å¾Ĺ
çļĦ æĸ¹ç¨ĭ
Ġf ron
}\ ,\,\
Ġin coherent
Ġn ce
åĴĮ éĩıåŃĲ
åĴĮ ç¤¾ä¼ļ
ho ck
æľī å¤ļ
äºİ ä¸ĸçºª
ĠS MC
ĠB V
ĠL at
å¼ı ä¸Ń
è®º è¯ģ
log arith
con dition
)- {\
Ġ[ [
å¾· éĽ·
fi able
éª Ĺ
Ġpre paration
çĭ Ĳ
è¾¹ éĻħ
å°ĳ å¹´
åĪĩ éĻ¤
çª ĥ
æıĲä¾ĽäºĨ ä¸Ģç§į
æĿĢ å®³
ĠMa ss
Ġview point
çļĦæ¯ı ä¸Ģä¸ª
Ġinterfer ometry
Ġremo ved
fol ding
Ġarm s
Ġfrustra tion
Ġgraphi cal
æ¯ķä¸ļ äºİ
8 64
X MM
] .\
d Q
j an
z able
Ġ ].
ing le
Ġmo bile
å¤§ èĦĳ
ĠL D
var Gamma
ĠR G
çİ° åľº
ĠçļĦ æĸ¹æ³ķ
è° ¬
ä¸ĭ æ¸¸
è¿ĺ è¦ģ
Ġimp ossible
Ġåľ¨ è¿Ļç§į
gra mma
ä¼ł æķĻå£«
ä¸ļ åĴĮ
æĽ´ ä¸ĢèĪ¬
æ· Ģ
bi qu
è§£åĨ³ æĸ¹
èį· é©¬
èĬ± åºı
Ġmini ma
è´¹ çĶ¨
Ġdia mond
ç¦»åŃĲ åĮĸ
è¡ĮæĺŁ çļĦ
ç¼º å°ĳ
ĠComp u
PA H
Ġmat ches
Ġæ¸ ħ
Ġplay ers
åİŁåĽł æĺ¯
Ġconstitu ent
Ġincorpo rates
tern ational
æİ¢è®¨ äºĨ
Ġstead ystate
è¡£ç´¢ æ¯Ķäºļ
) '(
2 16
z ars
çļĦ åħīåº¦
ig ins
Ġn er
åľ¨ æĪĳä»¬
Ġre finement
ĠT y
ĠM AG
Ġr t
å¹¶ çłĶç©¶
è° į
éķ ģ
åŁº åĩĨ
os z
æĻ ĭ
so v
åľº æĻ¯
æ¡ Ĥ
Ġli th
å¦Ĥæŀľ è¦ģ
}] _
éĹ®é¢ĺ ä¸Ń
å®¹ çº³
Ġopti mum
æĵįä½ľ èĢħ
è¿Ľè¡ĮäºĨ æ¯Ķè¾ĥ
88 7
Ġformal ly
å´ ĸ
æŃ£å¸¸ çļĦ
ä¿®æĶ¹ çļĦ
Ġcre ating
éª¨ éª
èĳĹ åĲįçļĦ
çļĦæĥħ å½¢
å¤©çĦ¶ æ°Ķ
Mark ovian
Ġarri val
Ġsquee zed
Ġenab ling
Ġsole ly
æĥ© ç½ļ
2 10
2 14
T L
] /(
e g
j b
q a
re cent
æĺ ı
Ġre f
ä¸Ń æŀ¢
çĲ Ĳ
æĹ¶ æīĢ
ĠE s
æľ¬ ä¹¦
ä¸» æĿĥ
ä½į æķ°
Ġstu dents
ome tries
Ġen su
èµ· åĪĿ
æĿ¡ æ¬¾
è¶ħ åĩº
Ġpre cur
Ġstar ts
èİ· å¥¥æĸ¯åį¡
çº§ èģĶ
stra hlung
å»ºç«ĭ èµ·
æ¬§æ´² äºº
æĪĲç«ĭ äºĨ
ä¹Łåı¯ä»¥ æĺ¯
éĽķ åĥı
Ġcu ts
Ġconcent rate
Ġbra id
Ġthresh olds
|, |
æľīæĹ¶ ä¹Ł
èĶ ĵ
è®¯ æģ¯
Ġpreser ved
ĠCal cu
cross ing
Ġmanipu lation
Ġdiagnos tic
subar ray
' \,
A pp
D FT
H ow
i ly
k A
n K
o minus
Ġ ç§¯åĪĨ
ħ ¢
ra e
Ġp adic
å® Ľ
Ġn odal
}) }=\
æĪĳä»¬ çłĶ
åı¯ å¯¼
dots m
éĺ Ģ
ĠE ffe
ç»ĵ çĽŁ
çĶµ è¯Ŀ
Ġ\, {\
å¹¶ åľ¨å¹´
ten ts
us z
å°ı æıĲçĲ´
os ter
og raphic
åħĭ éĩĮæĸ¯
je ts
æĸ¹ç¨ĭ çļĦè§£
æĪĲä¸º äºĨ
ä½ľçĶ¨ åľ¨
åı¤ ç½Ĺé©¬
åıĮ æĺŁ
çľĭ æĿ¥
Ġpredic tive
è´Ŀ æł¼
Ġmode st
èĸ ¯
spe ctrum
Ġtrac ed
Ġproto planetary
æī¾åĪ° ä¸Ģä¸ª
Ġhypo the
ç¬¬äºĮæ¬¡ä¸ĸçķĮå¤§æĪĺ ä¸Ń
err or
å¥´éļ¶ åĪ¶
Ġsq rts
Ġsecu lar
åĪĨåĪ«ä¸º åĴĮ
çļĦæ·± åº¦
Mark ov
Ġhapp ens
ĠFried mann
èŁ ¹
Ġtachy on
beha vi
' },\)
B K
M r
Q L
W o
X M
e B
f F
Ġ è®°
Ġ ç»ĦæĪĲ
çļĦ æĪĺ
Ġo d
Ġd h
Ġm n
äºĨ è¿Ļä¸Ģ
æĪĳä»¬ å¼Ģåıĳ
ĠS to
ĠC s
ĠN IR
ä¸ĭ æłĩ
ä½¿ æĪĳä»¬
Ġtw os
æĹł åºı
\{ (\
å¼Ģ è¾Ł
ä¸ŃçļĦ åħĥç´ł
dx dt
éĤ£ ä¸į
èĢĥ æŁ¥
è¿Ļä¸ª æ¨¡åŀĭ
Ġstate ofthe
å¹¿ åľº
çĸ ¹
66 0
è´Ł åı·
åĲĳéĩı åľº
Ġè¿Ļ é¡¹
Ġser vice
Ġexplo ited
Ġsearch ing
æ¨ª è·¨
ĠModel s
Ba CuO
æ© Ļ
Ġæ¡ Ĩæŀ¶
hed ron
ĠåĨ³ æĸ¹æ¡Ī
çİ© åħ·
Ġbelie ve
Ġoccup ation
åĭĺ æµĭ
Ġcollo idal
ĠCox eter
1 33
B ohm
G old
G reen
b j
m h
m ous
Ġ å®½
Ġ éĩįåĬĽ
Ħ æ¦Ħ
çļĦ å¹³
çļĦ çī¹æ®Ĭ
çļĦ æ³ķå¾ĭ
ta t
de formed
Ġb ending
mu ra
æĺ¯ åı¯ä»¥
ä¸Ń åº¦
Ġi ch
ä»¥ ä¸ĭçļĦ
æĪĳä»¬ æĿ¥
å¯¹ åŃĲ
Ġfi rm
æľĢ éķ¿
çº¿ ç¨ĭ
åħī åľĪ
con formal
æĭī æĽ¼
æº ª
åıĸ èĩª
exp an
è¿ŀ ä¸²
ä½İ éŁ³
}}( {\
})= {\
é¦ĸ å¸Ń
Ġ|\ {
å±± åĮº
çľĭ åģļ
Ġnucle osynthesis
Ġsupp ress
Ġexhi bited
)|\ ,
ç»ĺ æĻ¯
medi ated
éģĹ äº§
ç¼º å¤±
Ġevalu ating
æĸ¯çī¹ æĭī
Ġæ¸ ¸
Ġç¬¬ ä¸Ģä¸ª
æĦıä¹ī ä¸Ĭ
åŁ¹ åħ»
modu lar
ç²¾ç¥ŀ çĹħ
Ġvisi bility
éĽķåĪ» å®¶
Ġpoor ly
æĮ¤ åİĭ
ĠMeasure ments
åį¡è·¯ éĩĮ
! }{\
B W
I O
g iven
r f
s T
x d
y w
çļĦ è®¾è®¡
^{ [\
re co
Ġf old
(\ |\
Ġin commensurate
ä¸Ģ è¡Į
ol s
}= &\
ä¸į å¤ª
åĽ½ éĺ²
ĠP ri
Ġdis sociation
Ġ2 5
è¢« çĶ¨äºİ
åıĤ çħ§
Ġab rupt
Ġro tations
åĪĩ çº¿
åĩı è½»
Ġpri mes
Ġconf li
Ġmaxi mize
Ġquark gluon
åĪĴ åĪĨä¸º
Ġcho osing
inter cal
ĠPro b
ĠAu ger
ç«ŀ éĢī
åħ±äº§ ä¸»ä¹ī
ĠApp lications
å±ħæ°ĳ çĤ¹
xF x
Ġrecogni tion
Ġharmon ics
S hi
i V
Ġ çĽ®
re normal
is ter
åı Ķ
Ġw r
æĺ¯ è¯¥
æĺ¯ æł¹æį®
int ro
)} &
)} .\
åı¯ åľ¨
å¹´ åıĹå°ģä¸º
ĠH c
cu sing
æĿ¥ è§£åĨ³
ble ms
Ġob sta
éĿ¢ å¯¹
ĠQ PO
ä½Ĩ ä¸İ
id x
ç³»ç»Ł åľ¨
Ġgra nd
çĽ´ ç«ĭ
Ġeffe ctiveness
å¾® åħĥ
åı¯èĥ½ å¯¼èĩ´
æ°´ éģĵ
dis tingu
æ¸© ä¸ĭ
çĬ¶æĢģ ä¸Ń
Ġæĺ¯ åĲ¦
Ġ\([ -\
_* ,
éĢļå¸¸ ä¸º
å¤´ éĥ¨
23 5
ä½ľåĵģ ä¸Ń
å±Ģ éĻĲ
æŃĮ èĪŀ
éĩĳå±ŀ æĢ§
çĳ ļ
æĪĳä»¬çļĦ åĪĨæŀĲ
çł´ è£Ĥ
éļĶ å¼Ģ
åĩıå°ĳ çļĦ
æľĢä½³ çļĦ
éĢĴ åĩı
Ġmi mic
por tation
åľĨæŁ± å½¢
éŃģ åĮĹ
utonom ous
' ^{-
, ~~~
A bridged
D ia
Z r
r un
t k
¯ åı£
Ġ åģĩ
Ġ åĨ²
Ġ åĩºçļĦ
Ġ åıĬåħ¶
Ġs haring
ha ng
es ta
mb al
_{\ !
åľ¨ S
ä»¥ åįĹ
éĹ ¹
å¹´ åıĹ
æĢ§ åľ°
ĠF P
è´ ®
Ġdis tri
Ġ2 3
åıĺ åĪĨ
ç½ ©
è§£ å¾Ĺ
op en
us ted
og ra
åħĭ éĢĬ
ä½Ĩ è¿Ļ
åĽ¾ è±¡
Ġcal ori
éĶ Į
åŁŁ ä¸Ń
'' '(
æ±Ĥ å¾Ĺ
åĽŀ å¿Ĩ
å°º åħ¬å°º
ĠRe gge
æĽ¼ å°¼
ru le
20 4
Ġmic ros
éĿŀå¸¸ ä¸Ģèĩ´
èĩªçĦ¶ çķĮ
Ġlog ical
åĨľ åľº
Ġkine matical
é©± éĢĲ
\! +\!
ç²¾ç¡® åº¦
éĺ¿å°Ķ åįĳ
çĶ² çĬ¶
å¢Ļ å£ģ
ç©¿ éĢı
Ġastro metric
Ch ern
çļĦæĶ¹ è¿Ľ
æŀ¢ æľº
Ġvalu able
å¾®æ³¢ èĥĮæĻ¯
Ġferromagne tism
Ġæĵįä½ľ åĳĺ
5 60
A DS
K err
N W
u er
Ġ åĬĽçļĦ
Ġ\( <\
çļĦ è¿ĩç¨ĭä¸Ń
çļĦ åĲįåŃĹ
Ġs addle
or g
åľ¨ åīį
Ġre ferred
}) -(
mp o
æĢ ķ
åĩ ¤
)} &=\
æĪĳä»¬ è¯ģ
å¹´ ä»¥åīį
ĠC L
per t
ĠB B
var ying
bb on
æ³ķ è¯Ń
ĠP SR
çĽ¸ åĲ»åĲĪ
ç»ĵ æĻ¶
Ġra d
æľĢ å¥½çļĦ
od rom
ir s
con tra
æĸ° é¢ĸ
circ le
æł¼ ç½Ĺ
æĥ ĳ
.. ..
åĨ³ çŃĸ
æµĭéĩı åĴĮ
ä¸»è¦ģ ä»¥
_+ +
æĻ® æŀĹ
çŁ¥ åĲį
åĭ ĭ
å»ºç«ĭ çļĦ
Ġself energy
ĠII B
Ġequivalent ly
ä¾µ åħ¥
Ġ* \
è¡į å°Ħ
çļĦæ² Ļ
Ġmid IR
Ġlate type
åİ»ä¸ĸ åĲİ
rea ction
Ġdiffe omorphisms
Ġcoopera tion
Ġquar tic
çļĦæ¡Ĩæŀ¶ åĨħ
ä¿ĿåĬł åĪ©äºļ
éª¨éª ¼
) }^{(
> \)
N V
N g
e ach
h c
j v
v able
Ġ å¹²
Ġ å½ķ
Ġ è¯´æĺİ
çļĦ åĶ¯ä¸Ģ
re y
åĴ ½
åĴĮ é©¬
æĪĳä»¬ è¯¦ç»Ĩ
Ġh uge
è´ ©
var ie
Ġfi ll
éĩį æķ´
å¤ĸ çķĮ
Ġfin ds
Ġnon parametric
Ġac commo
12 6
Ġcha nged
mple x
è¿ĻäºĽ æķ°æį®
mo to
Ġ3 0
Ġ3 6
æĹĭ åº¦
éŁ §
åŃĺåľ¨ çĿĢ
_+ =\
åįĬ åı¤åħ¸
)] ^{-
13 2
çĹħ äºº
è´Ŀ å£³
by e
èİ± åĿŀ
çĶŁäº§ çļĦ
è¿ª äºļ
Ġcommu nities
)\; =\;
inte gral
ç»Ļåĩº ä¸Ģä¸ª
Ġcapa ci
çĽ´çº¿ è¿ĲåĬ¨
èĶ ¬
Ġsumma ry
æīŃæĽ² çļĦ
dete ction
åĵ¥ä¼¦ å¸ĥ
ç«ĭæĸ¹ ä½ĵ
Ġol der
ĠConsider ing
Ġingredi ent
nicti des
Ġenrich ment
ĠCephe ids
å±ł æĿĢ
aren cy
æĭįæĪĲ çĶµå½±
èİİå£« æ¯Ķäºļ
å¤ıå¨ģ å¤·
C d
F igure
R M
U h
a D
l cl
Ġ ä¸ľ
Ġ ç³»ç»ŁçļĦ
Ġ éĻ¤äºĨ
Ĭ ä¹±
Ġa valan
çļ Ĥ
çļĦ è¿ĩæ¸¡
^{ '}
Ġd M
ä¸Ģ ä¹¦
åľ¨ å¾Īå¤§
Ġre com
Ġi ty
æĪĲ ä»½
Ġsu ff
ĠP DE
du ality
tr sim
æľĢ çŁŃ
çĶµ åĬ¨åĬĽåŃ¦
ç¨ »
è¥¿ å¾·
op le
åįķ è¯į
Ġnon minimal
Ġnon monot
è¿ĳ éĤ»
åĪĻ ä¸º
éĵ Ģ
æķ´ çĲĨ
åĪĨæŀĲ çļĦ
å¾Ī é«ĺ
æĶ¹ ç¼ĸ
åŁºæľ¬ çļĦ
åįı å¥ıæĽ²
æľīéĻĲ ç»´
çĻ¾ åĪĨ
Ġåº¦ åĴĮ
^{+ }\)
ĠMa gnetic
åĩĿ èĥ¶
åĵ² ä¼¦
çĲĨæĥ³ çļĦ
Ġou ts
algebra ic
Ġrefle cts
Ġæ¸ ¡
çļĦä¸Ń éĹ´
ç¼ĸè¯ĳ åĻ¨
çļĦç¼ĸ ç¨ĭ
èĤ¥ æ²ĥ
è¿ĩæ»¤ åĻ¨
ĠMic rowave
å¹½ é»ĺ
ä¼ĬåĪ© è¯º
Ġanne aling
Ġpenet ration
Ġvola tility
Ġhexag onal
. \\\
6 26
D x
a ce
f X
i Z
i le
q c
Ġ\ !\!
Ġa te
çļĦ çī©è´¨
çļĦ åľŁåľ°
ä» ²
mb e
}^{ (-
åľ¨ åħ¶ä»ĸ
åľ¨ è¿Ļä¸Ģ
ent ropy
)} :=
æĪĳä»¬ çī¹åĪ«
ĠI RS
æĪĲ å¯¹
ä½ľ ä¸ļ
ĠP CA
Ġpo w
æĬ «
\| ,
çŃ ¹
è§£ åĩº
çĤ¹ ä¸Ĭ
éĩį åĲĪ
åİŁ çĶŁ
ä½Ĩ åį´
all is
cre tion
Ġar rangement
è®¡ç®Ĺ ä¸Ń
æĽ´ å¥½åľ°
éĺ¿ å¸ĥ
éĤ£ä¹Ī æĪĳä»¬
æĺĵ æĦŁ
äºī å¤º
éĻ¢ éķ¿
22 0
è¿ľ çļĦ
ä½ľåĵģ æľī
æī¾ åĩº
æľĢè¿ĳ å¯¹
æīĵ åį°
èµ« å°Ķ
æĶ¹åıĺ äºĨ
è¿¹ è±¡
æŀĦå»º ä¸Ģä¸ª
Ġemer gent
å¤įåĪ¶ äºĨ
Ġæİ¥ è¿ĳ
Ġmorph ologies
Ġreason ably
éĶ¥ ä½ĵ
éŀ Ń
ara day
éĤ® ä»¶
Ġuncon ventional
èĤĸåĥı çĶ»
Ġspac elike
Ġobscu red
Ĺĩ çĬ¶
' |\
4 32
6 25
F in
R N
R x
b p
n B
n Q
p f
p al
v y
w ind
Ġ ]=
Ġ è§Ĩ
Ġ å¹´ä»£
Ġ æĹłæ³ķ
Ġa ng
çļĦ ç©º
le ar
me ds
Ġin jected
Ġ& +\
åĴĮ G
}) &
}^ +(
äºĨ è¯¥
å¯¹ æ¯ıä¸ª
ĠM al
ĠM BH
ĠM IMO
ĠN O
ĠN b
çī¹ åĴĮ
^* }{
\| +\|
è¶ ¾
æĪĸ å¤ļ
å½ĵ ä¸Ń
ex tre
}| .\)
ç¡® çķĮ
æĦı åĳ³
èĥ °
åħ¨ éķ¿
Ġit ine
çĥ ¦
Ġfa cts
å½±åĵį åĬĽ
åıĮ æŀģ
è®° åı·
è¡¨ç¤º æ³ķ
åī§ ä½ľ
éĻ¤ å¤ĸ
åĽº æľī
22 1
Ġnucle ons
am ming
åĩºçİ° äºİ
çī¹å¾ģ çļĦ
å½Ĵ å±ŀ
SO s
cur ves
Ġgamma rays
æ¦Ĥçİĩ åĪĨå¸ĥ
éĶĻè¯¯ çļĦ
ç»ĵæĿŁ äºĨ
æĻº èĥ½
ĠNo ether
éĶ¥ å½¢
Ġpack age
çļĦçĪ Ĩ
Ġtransmit ter
è¿Ļé¡¹ å·¥ä½ľ
æ´Ľä¼¦åħ¹ åıĺæį¢
Ġcancel lation
colla pse
ĠMAG IC
$ ,}
5 00
E O
R NA
S X
W MAP
e ty
u y
Ġ textbf
Ġ å¤įæĿĤ
Ġ éĩĩçĶ¨
Ġ ä¸īä¸ª
Ġ è®¨è®ºäºĨ
in er
on ents
{\ ,
el m
ĠT s
Ġm Jy
Ġis ometry
Ġi ve
he v
åĪĨ æµģ
end ix
æĢ§ æĺ¯
as ymp
ĠL S
åĽ½ å¤ĸ
äºº ä¸İ
ĠG Cs
åĪ° å¹´ä»£
åĲİ åıĪ
Ġpo sed
}^{\ ,
^* [
Ġ\, ,\
å¹¶ äºİå¹´
ĠK ey
pro te
der ived
na tions
ĠJ o
ul ler
åħĭ å¹´
)}{ |\
äºĮ è¿Ľ
ree v
è½¬ èĢĮ
åıį æ¯Ķ
ç³»ç»Ł åľ°
Ġfa inter
ç½Ĺ äºļ
mber t
æµ· çĽĹ
å·´ ä¼ĲåĪ©äºļ
å¦Ĥæŀľ æľī
å¦Ĥæŀľ åŃĺåľ¨
ç¥ŀ èģĮ
å®ŀéªĮ çļĦ
å¥½ å¤Ħ
ac teri
Ġsmall scale
Ġä¸Ģ èµ·
Ġtra ps
Ġcritical ity
æīį ä¼ļ
IR S
bo rate
åħīåŃĲ çļĦ
å·¥ä¸ļ ä¸Ńå¿ĥ
}:= (
åħ« ä¸ĸ
ĠåĲĮ çļĦ
æī°åĬ¨ æĢ§
æįŁ å®³
50 4
)~ ,
å»¶ä¼¸ åĪ°
æ³½ è¥¿
äºĮåįģ äºĶ
IN R
ç´« èī²
ĠLorentz ian
çļĦæ´ Ľ
Ġcompe titive
çļĦä¸Ĭ éĻĲ
Ġtechn ologies
Ġçģ «
æ°¨ åŁº
Ġkeep ing
åĵĪå¸ĥæĸ¯ åł¡
) ~~~
J K
L ya
Q M
S ky
Y b
j X
p ted
Ġ æŀ¶
Ġ å®ļçĲĨ
Ġ å¸¸æķ°
Ġ å±ķç¤ºäºĨ
çļĦ æī©å±ķ
Ġe jected
ol oop
Ġre nder
}) |_{
Ġfor bidden
äºĨ ä¸¤ä¸ª
Ġan nu
ä¸į è®º
ä¸į å°ĳ
æĹ¶ ä¼ļ
ĠG inzburg
ĠP ark
ĠE W
çļĦç Ĥ
çĶµ å®¹åĻ¨
rom o
å½ĵ æĪĳä»¬
åĽ¾ åĴĮ
è½¬ åŀĭ
fi ers
equ ations
)| ,
Ġstar ted
cha nges
èĭ± å±ŀ
è± ļ
å®ī ä¸ľå°¼
gen esis
èĭ¥ æĺ¯
éĿŀå¸¸ éĩįè¦ģ
19 7
ç¦ı åĪ©
çħ§ çīĩ
Ġenha nces
Ġoptimal ity
ĠMa the
è¿ģ å±ħ
Ġinflu enced
çĦ °
çĶ° çº³è¥¿
æĦıä¹ī çļĦ
Ġconformal ly
Ġremo ve
\},\ {
Ġfab ricated
åĵ¥å¾· å¼ı
Ġsquee zing
çļĦæļĹ çī©è´¨
Ġantis ymmetric
Wal ker
Ġsegrega tion
3 20
5 67
C i
L MC
M ag
P l
R D
i N
r mi
s el
Ġ èĲ¨
Ġ åıĳå±ķ
Ġ ä¹ĭä¸Ģ
Ġ åĽ¾åĥı
Ġs es
{\ |\
Ġre fractive
}) _\
Ġwith drawn
å¤§ çīĩ
å¤§ çķ¥
ĠM M
ä¸į å¦¨
lu m
äºº ä¸º
è¡Į ä¸ļ
æ¯ ¯
çļĦç ¿
é¡ ·
La g
åīį ç¼Ģ
æķĻ æĿĲ
æķĻ å»·
12 7
Ġhigh temperature
éĶ ¤
Ġgeneral ised
ä½İ çļĦ
67 2
ll ig
}] .\)
au to
^- }
çº¢ è½¬
Ġprob able
Ġcross ed
é¡¶ å³°
lin k
Ġsha dow
Ġhyper geometric
88 0
åģ¶ æķ°
Ġru led
çİ» åĪ©
ĠDe pending
Ġrest frame
åįĬå¾Ħ ä¸º
éĺ¿æĭī æĸ¯åĬł
æĹ§ çº¦
éģŃ åıĹ
Ġbest fit
çĦ ļ
åıĻ äºĭ
çļĦæ°´ å¹³
Ġlogarith m
Ġsimp licity
Ġrecur sion
å¾®å¼± çļĦ
Ġexpa nd
Ġbal anced
Ġattribu te
é¥® æĸĻ
Ġç¢ °æĴŀ
çĪª åĵĩ
sump tion
orho mbic
ç¾İåĪ© åĿļ
M yr
X f
] }}
Ġ åĵĪ
Ġ éĻį
la ys
å® ł
ĠT N
}} :=\
æľī ä¸įåĲĮ
Ġma rting
)} /
çĶ¨ åĪ°
å¹´ åĪ°
ab ridged
åŃĲ æłĳ
ĠH es
çļĦæ ¹ĸ
æ³ķ åħ¸
ĠE mp
ç»Ħ è£ħ
ons es
æĹł å¼¹æĢ§
our s
)\, ,\
Ġimp er
Ġno tes
ç½Ĺ éĹ¨
å¤Ħ æŃ»
fa ct
åįģ ä¸Ģ
è¾¹ çļĦ
æĻ® ç½Ĺ
å®ļä¹ī ä¸Ģä¸ª
åħ³ç³» çļĦ
Ġreal time
ĠRe g
éĢļå¸¸ åľ¨
Ġ~ ,\)
åºĶçĶ¨ ç¨ĭåºı
19 5
Ġindic ated
å°ģ å»º
Ġexpan ded
ç»Łè®¡ åĬĽåŃ¦
ĠSi mulation
åįĥ ç±³
Ġaccele rating
Ġinflu ences
Ġsui tably
åĸľ çĪ±
Ġans wers
ĠâĢĿ ,
è·¯æĺĵ åįģ
è£Ķ ç¾İ
Ġæ± ī
æ·¡ æ°´
ĠåĪ« æĺ¯
prising ly
Ġundergo ing
åªĴ ä½ĵ
Ġite ration
Ġanten na
alla x
çĢĳ å¸ĥ
B f
D p
V D
k c
q s
t m
v dash
Ġ çĽ¸åĲĮ
Ġ äºĳ
Ġ å¼ķåħ¥
ra in
çļĦ èĭ±åĽ½
ta tor
si dered
ä¸Ń ä¸ľ
è¯ ł
æķ° åįĥ
}^ -(
æĪĳä»¬ ä¼°è®¡
æĪĳä»¬ å¼ķåħ¥äºĨ
ĠC at
Ġsu ffer
ĠP S
ni a
åĪ¶ æĪĲçļĦ
è¢« æįķ
ĠæĪĳä»¬ æııè¿°
æŃ£ æĸ¹å½¢
æł¼ ä¼¦
ç©ºéĹ´ ä¸ĬçļĦ
ä»¥åıĬ åľ¨
æĺ¾ç¤º çļĦ
èĮĥ å¾·
_- }
Ġnear IR
æĽ¾ è¢«
Ġæķ° åĢ¼
èĩªçĶ± çļĦ
17 6
ĠLa O
00 00
èĽ ¾
Ġavera ges
Ġabsor bing
Ġmicro lensing
Ġreveal ing
åĬª æĸ¯
}}\\ &\
Ġswit ch
hydro gen
Ġæ£ ®
éĺĲ è¿°
Ġpolic y
Ġqui et
ä¸ĩæľī å¼ķåĬĽ
è°´ è´£
4 24
D U
a mplitude
b right
c is
l oring
r h
} ')
Ġ }^{(
Ġ éļı
Ġ çīĻ
Ġ è¦ģæ±Ĥ
Ġ äº§çĶŁçļĦ
ra nged
çļĦ è§Ĵèī²
)\ }_{
åľ¨ å°ı
an alog
çĶ¨ è¡¨ç¤º
å¯¹ æĸ¹
ä¸Ĭ ä¸Ģä¸ª
Ġdis e
çļĦç ¦
åĲĮ ä¼¦
Ġqu iver
éĿŀ ç©º
åįķ çº¯
å¤ĸ åĽ½
ç»´ æķ°
Ġ[ -\
ä½Ĩ å®ĥ
ĠY b
èĻ Ķ
è§Ĵ å½¢
èį §
å¼º åĮĸ
Ġstar formation
å¤Ħ åĨ³
åıª åľ¨
æ¼ Ĩ
cle ar
yn chron
æĿĥ éĻĲ
æīĭ æĢ§
æİ¨ èįĲ
èĭı ç»´åŁĥ
èµĦ éĩĳ
éĹŃ éĽĨ
åĩłä¹İ æīĢæľī
Ġir radi
Ġphases pace
odyna mics
)~ ,\)
Ġellip so
åĬłéĢŁ åĻ¨
Ġsubse quently
æĿĳ åºĦ
èµŀ ç¾İ
çļĦåıĮ éĩį
Ġsel forgani
Ġrigid ity
Ġiner tia
å°±è¯» äºİ
éŃħ åĬĽ
Ġvolu mes
3 19
3 21
F I
a veraged
l hd
x b
al ed
çļĦ åıĳ
de comp
Ġin st
ho ff
}} ;
æĪĳä»¬ ä»ĭç»į
ĠS MBH
|\ {
ĠD a
Ġy x
Ġra t
ĠV i
éĢļ éĩıçļĦ
åħ³ ç¨İ
éķ ¶
åĲĳ åīį
åĨħ èĨľ
ĠJ an
åĮħ å®¹
Ġsur rounded
Ġsol ves
é² Ī
_* }
Ġemission s
è¡Įä¸º çļĦ
)&= -\
æĥħ å½¢
ä¸ºäºĨ æĸ¹ä¾¿
Ġnan ori
åħŃ åįģ
stru ctions
}\; ,\)
ste p
ĠSch ur
æŃ£å¸¸ åĮĸ
åĪ¶éĢł åķĨ
è¶ĭ åĲĳ
Ġrefle cting
æĿ° ä½ľ
çīĪæľ¬ çļĦ
Ġspi rals
æĳĦ æĶ¿
é¢ĦæľŁ åĢ¼
å¤ı åŃ£
Ġspre ading
Ġconjuga cy
çļĦå¥³ åĦ¿
Ġmaser s
Ġgraphi te
çīĽæ´¥ å¤§åŃ¦
Ġsecre t
Ġrandomi zed
Ġdestro y
åĬłåĪ©ç¦ı å°¼äºļ
) ~\
5 12
F U
H ermitian
M t
M ic
R P
f ven
r ally
s z
Ġ æ³Ľ
Ġ çİ¯å¢ĥ
Ġ ç©ºéĹ´çļĦ
çļĦ è¦ģæ±Ĥ
Ġs gn
Ġn k
ve ction
å¹´ ä»¥
}= -(
}, [
è´ ŀ
ä¸Ĭ çķĮ
ty pical
çļĦç Ļ¾
éĥ Ĭ
^* )=\
è° Ľ
æĺİ å°¼
ç¬ ĳ
æµģ ä¸Ń
ç¬¬ ä¸Ģç§į
éħ ®
Ġinter fa
gra v
Ġsub system
Ġho sts
å·´ å¾·
ç¾¤ éĽĨ
}] +
æīĢæľī è¿ĻäºĽ
åı¤ åŁİ
ers on
ç¬¬ä¸Ģ æī¹
24 8
ç¼© ç¼©
å¡Ķ æĸ¯
åı³ ä¾§
^{+ +
Ġappe ared
ç»ıæµİ ä»¥
we red
cur l
ob ert
çĽŁ åĨĽ
Ġabsor bers
85 6
éĺ» ç¢į
Ġsmooth ing
}&= (
è¿ģ å¾Ģ
çĶ»å®¶ åĴĮ
åĲĪçĲĨ çļĦ
Ġpropos es
cate gor
Ġrele ased
çĽĨ åľ°
Ġheavi ly
Ġcry pto
çļĦçĨ µ
Ġstateofthe art
B oltzmann
j A
j g
r T
v ation
te simal
çļĦ åĨĽéĺŁ
Ġc ul
de st
me l
cal i
ol id
åĴĮ æĹ¶éĹ´
}) }.\)
æĺ¯ æĬĬ
ä¸Ń éĥ½
}} |^
ä¸º ç¾İåĽ½
Ġfor th
åĨ ¶
çĶ¨ åľ¨
ĠS Z
ĠS cho
æĸ¹ ä½ĵ
ĠL CDM
Ġsu sta
æ³ķ å±ŀ
èµ İ
ĠK ahler
ck ing
ck ets
ä¸¤ åĽ½
pro ve
ä»İ å¹´èµ·
Ġl d
Ġ} }{\
æł¼ çº³
è§Ĥ ä¼Ĺ
é©¬ éĽħ
Ġlo st
åĨĻ åħ¥
Ġge ts
èĢĥèĻĳ ä¸Ģä¸ª
14 8
Ġperfor ms
çĳ °
å¯Į æ±Ĺ
éĢı è§Ĩ
Ġdust y
ĠMa xi
Ġproto stellar
éľį å¤«
Ġæ¨¡åŀĭ ä¸Ń
æŃ¦ å£«
çĶ° åľ°
åĿļ ç¡¬
ç¥ŀç»ı ç½ĳç»ľ
Ġneighb ors
Ġneighb oring
çļĦçī¹ çĤ¹
Ġpolym ers
Ġdiffe omorphism
Ġspectro meter
Ġaccep ted
ĠæĶ¯ æĮģ
Ġæĳ ©
expon ential
tunate ly
9 60
M as
S pin
Y B
f b
k ij
s n
Ġ é»ĳ
Ġ åħ¬åı¸
Ġ æľ¬åľ°
Ġ äº¤åıī
in fin
Ġth orough
te sian
^{ ''
ro t
è® ¼
åį Ī
æķ° ä¹ĺ
éĹ ²
åı¯ ç§¯
å· ©
ĠP ossible
ĠD f
åİ ¥
rt in
ĠV LA
ck le
)) ]
ir k
åĪ© å®ī
åħ¬ å¹³
æĦ Ī
Ġnon classical
ä½Ĩ ä»į
è¿ĳ è·Ŀç¦»
åŃĺ åıĸ
ä¾ĭ å¤ĸ
fa ff
Ġad v
11 3
ç®Ģ æĺİ
åıĮ å°Ħ
13 0
äºī è¾©
åĩı åİ»
Ġbi ases
å®Įåħ¨ ä¸Ģèĩ´
é¢Ħæµĭ äºĨ
ç»ĵåĲĪ çļĦ
ä»Ģ ç»´åħĭ
å¯Į è£ķ
Ġstre ams
34 9
Ġsto red
ĠçĽ¸ åºĶ
åĨ³å®ļ åĽłç´ł
çĽ¸ä¼¼ æĢ§
lat tices
æĻ®éģį çļĦ
çĩ ķ
Ġirre ver
Ġconstrain ing
ç¨³ åģ¥
76 8
orth ogonal
effe ctive
éŃģåĮĹ åħĭ
Q W
R n
\ })=
c v
s ph
x C
Ġ ä¼Ĭ
Ġ åħļ
Ġ è¯Ńè¨Ģ
Ġ ä¾¿
Ķ æ¡Ī
çļĦ å»ºçŃĳ
çļĦ ä¼łç»Ł
Ġin sensitive
Ġre l
}} }(\
Ġi es
lo s
å¯¹ æŃ¤
è¿Ļ éĥ¨
åı¯ è§Ĥ
ĠL og
Ġra ised
å¹¶ æľī
åŁº æķ°
ĠTh er
olu min
ä¹Ł è®¸
åħĭ åĬ³
ç¾İ å°¼äºļ
åĪĻ è¯¥
Ġ4 8
Ġpre vent
Ġsuper ior
æĸ¹ç¨ĭ ä¸º
Ġli bra
åįĹ ç¾İ
è§Ħ çĶ»
å®ī éĤ£
çļĦä¸Ģ é¡¹
25 7
è§Ĥæµĭ çļĦ
æıĲä¾Ľ ä¸Ģä¸ª
ç½ĳ çĲĥ
æĦŁ åĪ°
æĸĩä»¶ çļĦ
è¿ľ è¿ľ
yle y
åģı å¥½
va cu
å¹³è¡¡ çļĦ
Ġtransp arent
Ġbul ges
åĨħéĥ¨ çļĦ
ä¸ĥ ä¸ĸ
çĪ¶ æ¯į
Ġcap tured
Ġcoun table
Al O
åİŁåĪĻ ä¸Ĭ
Ġrec ta
Ġultra high
çļĦæľĢ æĸ°
continu ous
ç´¯ ç§¯
Ġçł ´
Ġæ» ĳ
çļĦç¬¬äºĮ ä¸ª
Ġnearest neighbor
Ġtranslation al
ç«ĸ çĽ´
Ġinhomogene ities
Ġregard less
ĠVir go
éº¦è¿ª å¥ĩ
Ġgenu ine
. }\)
H or
N IR
U K
h D
q y
x S
z ers
Ġ å¡ŀ
Ġ æµĭè¯ķ
Ġ åĲ¸æĶ¶
Ġ èĦīåĨ²
Ġp l
rac k
Ġe g
mu late
æĺ¯ ä¸º
æĺ¯ åħ³äºİ
li fe
ä¸Ń åįĹéĥ¨
ĠW hat
å¤§ åİ¦
ĠC ent
ĠM er
æĸ¹ éĺµ
ĠL p
Ġæ Ĥ
lar ing
åħ¶ åŃĲ
åĲĮ å¹´
ç»Ħ ç¾¤çļĦ
il le
ä»» æĢ»ç»Ł
æŃ£ æĢģ
åıĤ è®®éĻ¢
ç»´ çº³
~~ ~\
Ġres olutions
çĥ Ĥ
,\\ (
14 0
14 5
Ġexten sively
23 0
åįı åıĺ
è¯Ĺ äººåĴĮ
}^* _
æ£Ģ éªĮ
27 0
æİ¢æµĭ åĻ¨çļĦ
å®ĹæķĻ æĶ¹éĿ©
æĿĲæĸĻ ä¸Ń
bul k
Ġachie ving
Ġpropaga te
Ġou tof
radi al
Ġdiver gent
çļĦç¬¬ä¸Ģ éĥ¨
çŃīä»· çļĦ
åĸ·æ°Ķ æľº
Ġincorpo rated
å¼ķåıĳ çļĦ
resul t
char ged
Ġsymbol ic
Ġorien tations
Ġresp onses
Ġneur ons
ĠIma ging
Ġtomog raphy
agree ment
polynomi al
H en
M er
N p
Q s
T H
U P
a T
j d
Ġ }.\)
Ġ ä¼¯
Ġ æľ¨
Ġ åĮĸåŃ¦
Ġ è½»
Ġ æŀģéĻĲ
Ġ æľ¯è¯Ń
çļĦ éĢļçĶ¨
çļĦ é¦ĸéĥ½
Ġp t
Ġp un
(\ ,
su e
Ġi tem
è¯ µ
çĽ Ĵ
int u
æ³ ¼
ĠA L
ĠA S
Ġex t
ĠC lass
Ġsu ns
ĠD C
ä»ĸ äºº
co de
æĿ¥ ä¼°è®¡
çĶµ è§£
Ġob ta
åĲĪ åĶ±
ide al
ä¸» åºı
ä¸¤ ç»Ħ
ä¹ī åĬ¡
Ġsi licate
ä¹Ł åľ¨
ä¹Ł ä¸İ
å¼Ģ å¤´
éĻĲ å®ļ
.. :
è®¡ç®Ĺ æĸ¹æ³ķ
åħ± åĪĨ
Ġsub class
ç§ĳ åħĭ
Ġho mogen
å¸¦ çļĦ
çº¿æĢ§ æĸ¹ç¨ĭç»Ħ
Ġass igned
Ġass ignment
Ġclassi c
13 6
ä¾Ŀ éĻĦ
å¼Ģå§ĭ æĹ¶
24 3
èİ± èĮµ
Ġcontrol s
çł´ ç¢İ
Ġinterpre tations
Ġquasi periodic
Ġbroad er
Ġbra in
ĠNa mely
Ġmid dle
çļĦä¸» é¢ĺ
éĺĲ æĺİ
Ġoccu pied
è¿½éļı èĢħ
ĠBack ground
æĻ®ç«ĭåħ¹ å¥ĸ
3 00
= +\
A i
G V
J J
Ġ çĽĸ
Ġ èĥĮæĻ¯
ig ne
Ġb ic
ed y
ga te
ch el
æĪĳä»¬ è§Ĥå¯ŁåĪ°
å¹´ å·¦åı³
ä¸į ä¸º
ĠF r
ĠL IGO
ne g
ĠE P
å¿ §
ä¸¤ ç±»
èĩª è½¬
éĩį çĤ¹æĺ¯
æ¯Ķ å°Ķ
åīį çļĦ
çŃī å¼ıçļĦ
ç¬¬ è¡Į
Ġcor ru
å¾· å·ŀ
è¿ĺ è¡¨æĺİ
Ġga ve
Ġfa ith
æĮĩ å®ļçļĦ
èĢĥ çłĶ
Ġun particle
)\\ =&\
æ£ ļ
ä¹ĭéĹ´çļĦ èģĶç³»
ç¼© çŁŃ
Ġpolar izations
19 0
ĠåĪĨ è§£
)}) ^{-
ç£ģåľº ä¸Ń
27 8
åĪĨè§£ ä¸º
è´¢ åĬ¡
æĸĩç«ł ä¸Ń
Ġpoly tope
Ġmoderate ly
reson ance
Ġparametri zed
ç¥ŀè¯Ŀ ä¸Ń
æ°¨ éħ¸
Ġrever sible
Ġredden ing
' [
2 65
K R
M Z
P y
P op
\ })\
b ran
} })^
ª Ĺ
Ġ ,\,
Ġ åıĪ
in dic
on i
ma c
le rian
Ġin duction
Ġw ant
su cc
åĴĮ åľ£
ĠT x
Ġi j
åĩ ī
Ġma nu
çİ «
ĠI GR
ĠI MF
ss o
ĠL ang
Ġor gan
çİ° å·²
ä¹ĭ ä½ľ
è´¨ è´¨
ä¸¤ å±Ĥ
os h
å°Ĩ è¿ĻäºĽ
åģ ·
åİŁ ä½ıæ°ĳ
çŃī å¾ħ
äºļ ä¼¯
Ġnon line
ç¾İ åĨĽ
å·¥ åħļ
ies z
Ġrep orts
æĽ´ å¿«
èĮ Ħ
ç»Ĩ äºļ
16 9
å½¢æĪĲ äºĨ
åŁİ éĤ¦
åĵĪ çī¹
å®ĩå®Ļ çļĦ
23 6
åģı è½¬
Ġtop ic
åıĳå±ķ èµ·æĿ¥
19 9
çļĦç¬¬ ä¸ī
Ġtransp arency
å¤§å°ı åĴĮ
50 1
åĪļ ä½ĵçļĦ
Ġspi te
uni form
çļĦå¯¹ è±¡
å®¶æĹı çļĦ
Ġ~~ \
;\;\;\;\ ;\;
)}\\ &\
show n
Ġrm s
gge red
ĠStr ong
NI X
ä¸¢ å¤±
Ġçı Ń
çļĦç«ŀ äºī
Ġimplemen tations
2 15
H II
K r
V A
k D
m M
t Y
Ġ æľĢå°ı
Ġ æ³¢åĬ¨
çļĦ åĪĨåŃĲ
çļĦ ä¿¡åı·
ta ri
ta ke
Ġs teri
Ġf g
åĲ ´
Ġre fer
æķ° åŃ¦å®¶
it o
Ġan n
di vi
ĠH F
çļĦæ Ĳľç´¢
ä¸Ĭ å±Ĥ
çĽ¸ çĽ¸
éĥ¨ çļĦ
Ġor d
:= [
ĠIn frared
æŃ£ æķĻ
å¼Ģ åĪĽ
è¯´ æľį
åı¯èĥ½ åŃĺåľ¨
ä¸įåĲĮ çļĦæĺ¯
åĸ Ļ
ä»¤ ä¸º
è¾ĵ éĢģ
ç¡®å®ļ ä¸º
Ġformu lations
å¨ģ æĸ¯
15 0
å¡Ķ åŁº
Ġæ¨¡ åĿĹ
mit ting
çļĦç² Ĵ
Ġplas mon
æµ® éĽķ
æĻº æħ§
Ġgu ide
Ġresi due
åıĳæĺİ äºĨ
ĠObserv ations
Ġsemicon ductors
çĽ´è§Ĵ åĿĲæłĩç³»
bro ad
çī² çķľ
Ġimmediate ly
åĲĽå£«åĿ¦ ä¸ģåł¡
minis cent
) })^{
4 34
6 00
8 14
8 00
A Z
S ir
f ar
f un
r v
y al
Ġ å¾Ĺåĩº
Ġ æľºåĪ¶
in formation
Ġre ductive
æĺ¯ åŁºäºİ
ä¸Ń åħ·æľī
ä»¥ ç¡®å®ļ
æĪĳä»¬ åıª
Ġbe ca
èĢ į
ĠM F
ä¸į éļ¾
ĠH H
ĠB re
äºº æĺ¯
åħ¶ ä¸»è¦ģ
Ġç ĳ
sta tionary
èµ Ĳ
Ġqu intess
æĬ ±
)) ,\\
è¥¿ åį°åº¦
il la
ä»İ åĪ°
ä¹Ł æ²¡æľī
Ġtw oloop
åĮº åĴĮ
æµģ åĬ¨çļĦ
æķĻ ç¨ĭ
å¾· åĨĽ
åį³ ä½į
è°ĥ è§£
åı¯èĥ½ æľī
è¿Ļç§į æĥħåĨµ
çĶ¨äºİ è®¡ç®Ĺ
èĥ½éĩı åĪĨå¸ĥ
æ¼Ķ åĶ±
25 3
æĿ¡ä»¶ æĺ¯
Ġ: \,
Ġwave functions
æĵ ħ
ĠRe mark
è¿ľ ç¦»
ç«¯ çļĦ
Ġlight cone
æīĺ ç®¡
Ġline ofsight
ĠçĶ¨ çļĦ
Ġau g
tt p
æ»¡è¶³ äºĨ
æĬĹ çĶŁç´ł
è¿Ľè¡ĮäºĨ è°ĥæŁ¥
åħīåŃ¦ åĴĮ
97 2
Ġopera tional
çĻ» éĻĨ
ĠComp ared
ĠLi ouville
Ġintr in
Sch winger
tero f
æ£Ģæµĭ åĪ°çļĦ
Ġthermodyna mical
åĩĨç¡® çļĦ
è´¸æĺĵ ä¸Ńå¿ĥ
å»ºéĢł çļĦ
Ġadap tation
ä»£åħ¥ å¾Ĺ
çİ°å®ŀ çļĦ
Ġremo val
pos es
Ġnons ingular
çļĦç¢ ³
åłª èĲ¨æĸ¯
nicti de
Ġdeposi ted
Ġrecta ngular
3 24
4 67
; -
L as
Ġ è¿ŀ
Ġ æĿ¥èĩª
çļĦ çİ¯
Ġe mb
ic z
ä»¥ æŃ¤
it onic
æĪĳä»¬ æııè¿°äºĨ
å¤§ åį«
åº¦ ä¸º
ĠD ou
Ġcomp ressed
Ġfi f
å¤ļ ä½ĵ
è¿ĩ äºİ
èĢĮ åıĺåĮĸ
Ġ\, (
ä¹ĭ ä¹ħ
Ġmodel independent
)) )\
\| .
ç§° åı·
æĸ° åŀĭ
æµģ åĴĮ
ä½Ĩ æ²¡æľī
çĽ´ åĴĮ
æĽ´ é«ĺçļĦ
har t
dis si
Ġclo ak
å¨ ¶
Ġfre ely
éĽ¶ çĤ¹
æ´Ľ å¤«
è¿ľ ç¨ĭ
23 2
Ġconne ct
}}) .\)
äºĨä¸Ģä¸ª æĸ°çļĦ
ç»Łæ²» ä¸ĭ
ç¯ ·
æĺ¯ä¸Ģ ä½į
æľºæ¢° èĥ½
ĠMe an
Ġdiver gences
Ġel se
çĭŃ ä¹ī
çĪµå£« ä¹Ĳ
å·´å°Ķ å¹²
ĠJaco bian
Ġcompr ising
Ġæİ¢æµĭ åĻ¨
çļĦç¥ ĸ
åı¥è¯Ŀ è¯´
L G
Q S
T K
] &=
d D
k M
u c
| ).
Ġ åı¤
Ġ çī©ä½ĵ
çļĦ K
or ption
åĴĮ æĸĩåĮĸ
Ġg old
ch romatic
)} =-\
ĠM in
ci a
ĠL C
ĠL ISA
çĲĨ å¿µ
æĸ¯ å±±
ĠV a
ä¸ĭ ä»¤
)^{ [
è¢« åĬ¨
å°Ħ ç¨ĭ
é© ¼
ex act
åĩ½æķ° ä¸Ń
åĲį ä¹ī
åĪĻ ç§°ä¸º
éľ ¸
Ġsub jected
den se
ä¸»è¦ģ åľ¨
man ent
æī© å¤§çļĦ
æĮģ ä¹ħ
æİĴ æĸ¥
Ġpoint ing
å¿ħ æľī
æ¤ ħ
åĽº éĨĩ
æĽ¾ ä»»
cor responding
Ġcross ings
Ġopti mize
Ġcent ury
ax ter
åŁºç¡Ģ ä¸Ĭ
Ġexplo ration
åĪ¤ åĨ³
è¿Ľè¡ĮäºĨ åĪĨæŀĲ
ä¼Ĺ è®®éĻ¢
Ġå¤ļ åħĥ
æİ¥è¿ĳ äºİ
GL E
)\\& +
æ±ĩ ç¼ĸ
radi us
åį³ä½¿ åľ¨
Ġveri fication
é²ľ æĺİ
ç¥Ń åı¸
é¥® é£Ł
integra ble
Ġhund reds
tere xa
äº¤åĵį æĽ²
ĠLag range
Ġenu me
Ġcardin ality
çļĦçĪ¶ äº²
2 87
6 83
E H
L K
N X
N MR
P en
U B
o les
s g
s v
v ents
Ġ äºĶ
Ġ å¸Ī
Ġ åįķä½į
Ġ äºĴåĬ¨
çļĦ åįķä¸Ģ
çļĦ æĢ§èĥ½
Ġs pots
de lay
Ġ\(\ #
Ġe a
åĪ ĺ
åĴĮ çĲĨè®º
ch en
Ġv ast
)} }\)
end er
è¾ £
Ġ2 8
çĲĨ å·¥
ĠçļĦ ä¸»è¦ģ
æĬ ¢
éĿ¢ ä¸´
åı¯ä»¥ è§£éĩĬ
å°ı éº¦
con sider
å¯¼ çİĩ
éĥ½ ä¸º
Ġfun ctors
éĵ Ń
Ġhigh mass
Ġhigh redshift
å¼ķ çĲĨ
é» ľ
)| }{|
æµ· åºķ
éĥ¨åĪĨ æĺ¯
^+ ,\
å·´ å¸ĥ
10 3
Pi taev
çĶ±äºİ åľ¨
]= -\
Ġcompu table
å¯Ĩåº¦ ä¸º
å²Ľ åĴĮ
13 9
èº ¯
tra p
åĵĪ å¸Į
æ¦Ĥ è¿°
comp ass
))= -
ev ich
Ġfla g
Fe H
é¡¶ çĤ¹çļĦ
Ġindic ation
å¤ĦçĲĨ åĻ¨
ĠSu zaku
32 9
95 6
Ġå®ļ æĢ§
æįķ é£Ł
éĢĨ è½¬
æĿİ ç¾¤
çļĦä¸Ń å¤®
Ġexc itons
ĠMark ovian
çļĦç¥ŀ ç»ı
å±ı å¹ķ
Eu ler
Ġcali brated
Ġrou te
Ġsurvi ve
Ġencoun tered
æŁĵèī² ä½ĵ
çļĦæ¶² ä½ĵ
Ġattenu ation
. "
3 60
D el
Q T
b A
p H
Ġ )}{
Ġ åĲİæĿ¥
Ġ æĹ©æľŁ
Ġ è§Ħæ¨¡
çļĦ é£İæł¼
Ġn al
mu n
phi cal
ou rho
tial ly
æĭ ¨
ĠF R
ĠL ong
ĠG romov
çĽ¸ æ¯Ķè¾ĥ
ĠV u
æĬ ĵ
\\ =&\
å®ŀ æĹ¶
Ġ{ }_
pro to
ox y
èĭ Ķ
Ġpla t
å·´ åĵĪ
åĮĹ äº¬
Ġdiscuss es
Ġout lined
Ġreal ity
pre vious
75 0
åķĨ æķ°
è£Ĥ åıĺ
æ¿Ģ çĥĪ
åĪ¤ æį®
çĦ¶åĲİ åĨį
èĴĤ äºļ
van ov
97 6
40 7
Ġfocu ses
å¼ºåº¦ åĴĮ
Ġ; \)
Ġchiral ity
åłĨ åıł
æ© Ħæ¦Ħ
Ex ample
Ġhetero tic
Ġperio dically
æĭ¼ æİ¥
è¯ºè´Ŀå°Ķ å¥ĸ
ä¸ĸçºªä¸Ń æľŁ
åıĳçĶµ æľº
ogen ic
éļıæĹ¶éĹ´ åıĺåĮĸ
ĠBR ST
Ġtele portation
yc lic
Ġdon or
çļĦæĥ³ æ³ķ
meric an
Ġcogni tive
$ }\
3 15
3 88
5 19
7 84
A I
N Y
S wift
e fficient
h or
k C
u w
{ [\
Ġ èİ·
Ġ åįģ
çļĦ ä½¿çĶ¨
çļĦ è¯Ĺ
es tima
hi bit
)\ }\
åľ¨ ç½Ĺé©¬
an de
an cies
åĴĮ åĬ¨æĢģ
Ġu biqu
Ġg lue
se mic
Ġi mm
st y
ic hi
^{- }\
æĪĳä»¬ æ¯Ķè¾ĥäºĨ
mi an
ĠF araday
çĽ¸ è¿ŀæİ¥
Ġæ ¨ª
co mbin
ĠN N
åıĳ è¾¾
èĢĮ å¯¹äºİ
ä¿ ±ä¹Ĳ
ĠO s
åħ¬ é¡·
çŃī äººçļĦ
äºļ è¿°
å¸ĥ ä¼¦
æĮĩ æķ°çļĦ
å¡ Į
ä½İ é¢ĳ
67 0
clu sions
mis tic
èĮ Ĥ
åįĹ æĸ¯æĭīå¤«
æķ°æį® ç»ĵæŀĦ
man ces
å®ī åŁ¹
åĽĽ éĿ¢
ple ss
åĽ¢ ç»ĵ
éĿŀå¸¸ çĽ¸ä¼¼
Ġlong lived
Ġscale free
é¥ ¼
ĠåĪĨ ç¦»
Ġlog istic
åºıåĪĹ çļĦ
é£ŀ èĪ¹
99 2
çļĦåĪĨ ç¦»
çİ°è±¡ çļĦ
äºĭä»¶ çļĦ
éĤ» æİ¥
è¿ģ å¾Ļ
ç»Ļå®ļ ä¸Ģä¸ª
Ġcolla bora
å®¢ è§Ĥ
åĿļ åĽº
46 2
Ġreason ing
éĻ¶ å®Ľ
çļĦçģ °
Ġillustra tion
Ġfrag ment
ĠSpe ct
ae hler
Ġdistor tions
metal lic
æ³Ĭ æĿ¾
mat ch
ä¼ĹæīĢåĳ¨çŁ¥ çļĦ
Ġflexi bility
æ¼Ĥ ç§»
æ³°åĭĴ å±ķå¼Ģ
Ġpredomin antly
ç©Ĩç½ķ é»ĺå¾·
çĶ²çĬ¶ èħº
è¯ł éĩĬ
4 25
5 15
6 88
9 88
D O
W R
d C
h v
r g
v ou
Ġ éķ¿åº¦
en skip
åĲ §
mu ltaneous
åľ¨ éĺ¿
Ġre fine
)} :
å¯¹ ç«ĭ
}= :
ĠP hoto
Ġsta ted
ĠN ash
Ġne ces
å½¢ çĽ®
ä¹ĭ åĨħ
åı¯ä»¥ ä½ľä¸º
Ġshow ers
èĩª å¹´
å¸¸ ç»¿
ms strahlung
Ġ} )\
å°Ĩ å®ĥ
å¤ĸ å±Ĥ
æ³¢ å¸Į
the y
ç³»ç»Ł åĴĮ
åĪĹ åĲĳéĩı
ä¸ŃçļĦ æīĢæľī
har onov
Ġter restrial
æĶ¯ ä»ĺ
22 8
fer romagnetic
15 9
ä¹ĭä¸Ģ æĺ¯
\}\ ;
è®¾è®¡ å¸Ī
|| _{\
ç¦ı åħĭ
lev ant
ĠåĬ¨ ä½ľ
30 3
é»İ å·´
45 3
çİ°ä»£ çļĦ
Ġinten ded
Ġcap tures
Ġç¤ ¾ä¼ļ
_{* }(
Ġslow er
åĸľ æ¬¢
éĢĥ äº¡
å¸®åĬ© ä¸ĭ
æĬµ è¾¾
ç«ŀ èµĽ
Ġdiv ision
çļĦæĹł çĹĩçĬ¶
ĠçĪ Ĩ
å¤ļéĿ¢ ä½ĵ
Ġtravel ing
Ġacqui red
Ġantiferromagne t
Ġgravit ino
é©¾ é©¶
åľ¨è¿Ļé¡¹ å·¥ä½ľä¸Ń
éħĭ éķ¿
7 18
7 45
L BA
P d
P n
S to
S un
] }=\
i Q
t j
w ing
w ill
Ġ é¦ĸ
Ġ è¾¹çķĮ
Ġ éĻĦè¿ĳ
Ġ è´¡çĮ®
çļĦ åıĺå¼Ĥ
çļĦ æķĪæŀľ
Ġc r
Ġt ori
ä¸Ģ å±Ĥ
ol ing
åĴĮ æ³ķåĽ½
Ġm ill
Ġco moving
ĠM ay
ĠF our
æ³ķ ä¸Ń
åħ¶ åľ¨
Ġcomp ressible
Ga uss
åĿ ł
åıĤ è°ĭ
Ġper me
ç¾İ ç´¢
éĤ Ģ
33 6
è¿Ľè¡Į çłĶç©¶
åį³ åľ¨
Ġmu ons
Ġlo cus
11 5
çĭ ©çĮİ
çĥŃ èĥ½
Ġout comes
ç®¡ é£İçĲ´
Ġmulti partite
Ġsol i
Ġä¸Ń åŃĲ
ermi te
æĳ ĺ
14 7
20 8
åįł ä¸»å¯¼åľ°ä½į
15 4
ç¼© çķ¥
17 0
å¥¹ æĺ¯
Ġser ves
è½¨éģĵ ä¸Ĭ
èĲ½ åħ¥
çĶŁæ´» çļĦ
å®£ åĳĬ
åº· ä¹ĥ
Ġpuls ations
æıĴ åĢ¼
})\\ &\
Ġpropor tion
ĠApp roxi
èħĲ è´¥
éĥ½ä¼ļ åĮº
imp ro
æłĩéĩı åľº
è§Ī ä¼ļ
ĠPr inci
Ġaccomp lish
çļĦæ£ Ģ
Ġecli psing
èĬ¯ çīĩ
Ġdivis or
ĠæĬ¥ åĳĬ
! }\)
2 75
4 95
5 97
9 67
9 37
M al
M ax
d I
Ġ è¯º
Ġ å®ŀçİ°
Ġ åĢį
Ġ\ }}
ta ken
åħ Ķ
ha se
Ġe mis
,\ |
_{\ ;
åľ¨ åĴĮ
åĴĮ ä¸ĢäºĽ
å¯ ¨
at on
}} }=\
ä»¬ çļĦ
Ġde par
ĠI ce
ĠWe b
ĠF O
çļĦæ º¶
ä¸Ĭ æ¼Ķ
Ġæ ¹
åĩº åĶ®
ĠN C
Ġç ħ§
Ġne matic
å¤ļ å¾·
Ġor igins
ĠK er
ä¸ĭ åİ»
çŃī æ¸©
the tic
éĤ ª
è¿ĳ ä»£
è¯´ æĺ¯
cri be
gra d
åıĹ è¿ĩ
ä¸Ģç§į æĸ¹æ³ķ
å¼Ĥ å¼Ĥ
æĹ¥ åĨħ
25 2
æ³¨ åĨĮ
ä¼¯ æł¼
22 4
Ġtop ologies
18 4
}^{* }=\
Ġcross correlation
}}) (
30 5
spe ctral
65 5
ĠLe e
å¤ľ éĹ´
å¹²æ¶ī æµĭéĩı
åīĸéĿ¢ åĽ¾
dop ing
ä¸ľåįĹ äºļ
æ¶¡ æĹĭ
Ġadmit ting
gravi tational
Ġorgani zation
çļĦæ¢ ¯åº¦
çŃĽ éĢī
) }^\
2 90
3 12
4 86
B al
L ifshitz
V o
X T
b ru
| +|\
Ġ !
Ġ åŁĥ
Ġ ç»į
Ġ éĢļéĩı
ra tic
æĺ Į
å® ´
}) <\
ä¸Ń æ¯Ĵ
}} :=
æľī åĲĳ
ä»¥ å¤ª
par tition
æĪĳä»¬ åıªéľĢè¦ģ
ä¸į ä¸Ģ
ä¸į çĶ¨
ä¸İ å®ŀéªĮ
ĠP u
tr u
ĠN E
ĠN f
Ġç Ŀ
ĠK ac
å¿ Ļ
å°Ķ æĸĩ
ç« ¹
Ġle ave
ä¹Ł åı«
éķ¿ åħ¬åĪĨ
æ³¢ éķ¿çļĦ
Ġper son
æµģ åĲĳ
æµģ ä¼ł
ç¦ Ħ
ä½¿çĶ¨ ä¸Ģä¸ª
po st
fi ts
è¿ĺ åİŁ
èī² ç´ł
è§Ĵ çļĦ
å¿ĥ åĬĽ
cess ing
äº¤ ç»ĩ
Ġpresent ing
äºĭ æĥħ
ç±³ åħ°
Ġapproach ing
åĬ¿ çļĦ
ç¬¬äºĮ ç§į
Ġdimension less
15 2
Ġblack hole
è¾Ĳå°Ħ çļĦ
å¹³éĿ¢ çļĦ
Ġphoto ionization
Ġcharacteri zations
æİ§åĪ¶ çļĦ
æĬĹ è®®
æĤ ĸ
64 0
isot ropic
Ġir radiation
ĠçŃī äºº
çļĦä¸į ç¡®å®ļæĢ§
70 5
ä¼´ ä¾£
SD W
Ġexc iting
ĠBay es
å®¡æŁ¥ äºĨ
èį£ èªī
Ġvibra tions
charac teri
éĻ¡ å³Ń
Ġspreads heet
ĠTheore tical
èĶ¬ èıľ
çİ« çĳ°
8 21
9 18
E le
G er
T G
V ir
a xi
c F
m ol
n F
| )^
Ġ åĲĳéĩı
Ġ åºĵ
Ġ åıĺå¼Ĥ
çļĦ æķ°åŃĹ
re t
de generate
Ġt on
_{\ ,
Ġre miniscent
åĴĮ èĭ±åĽ½
ĠT C
}} >
æĪĳä»¬ ä¼ļ
ĠC n
ĠH CN
éĹ´ éļĻ
äºº åįłé¢Ĩ
ä¸İ æľĢè¿ĳ
cu tive
ĠP n
ĠN or
Ġpo sts
æĮ ¡
å®ŀ ä½ĵ
åİŁ æĸĩ
éĥ½ è¦ģ
Ġac tivities
Ġen ter
Ġmu tually
Ġsa fe
å¾® éĩı
.. ,
ä¾ĭ é¢ĺ
Ġ4 0
_+ ^{-
äºĴ è¡¥
10 7
éĢŁåº¦ ä¸º
Ġmore over
ç²ĴåŃĲ åľ¨
Ġ> \
æ¢ ¨
å¥½ èİ±åĿŀ
ny r
Ġcontinu ed
ç»ĵåĲĪ äºĨ
å¾·åĽ½ çļĦ
åį°åº¦ æ´ĭ
ĠåĬ¨ åĬĽ
84 1
Ġcommu ting
Ġtrac ks
ĠæĬ ¤
çģµ éŃĤ
æĮ¯åĬ¨ åĻ¨
ç§»åĬ¨ åĪ°
åį· åħ¥
Ġpoly topes
å§Ķ æīĺ
Ġdep loy
GR ET
ĠCol la
ä¸ºåŁºç¡Ģ çļĦ
Ġconstitu tes
æ°¸ è¿ľ
èıľ åįķ
Ġspar sity
Ġatta cks
Ġdiagonal ization
é»ı åľŁ
neutr on
æĽ¿æį¢ ä¸º
éĦĤåĽ¾æĽ¼ å¸ĿåĽ½
Ġæ¬§ æ´²
æĳ©æ´Ľ åĵ¥
- }\
8 16
V u
W a
e k
f m
g V
j q
p ur
w r
| &\
Ġ )\,
Ġ ä¹¦
Ġ æ³¨æĦı
Ġ ç³»åĪĹ
Ġ æī¾åĪ°
Ġa f
al ign
ma trices
çļĦ èĬ±
Ġc tion
Ġre du
å¼ Ħ
lo ad
)= :
)= [\
Ġcon texts
Ġde local
å¹´ è¯¥
å¤§ èĢĮ
ĠG orenstein
ĠP G
ĠR F
Ġç Ĩ
çī© ä»¶
^* )^{-
min ated
åĬł åĨķ
è¢« æ¯Ľ
è¢« å¹¿æ³Ľ
Ġ{ (\
ting s
é«ĺ çº¦
Ġpar allax
å°Ĩ é¢Ĩ
åİŁ åħĪ
Ġequ atorial
æł¼ åĪĹ
ç»ĵæŀľ ä¸º
æĦı å¤ĸ
çĲĥ åĿĲæłĩ
åŁŁ å¢Ļ
æ£ ĺ
å®ī å¤§çķ¥
çĶ» æ´¾
Ġæĺ¯ åľ¨
éĤ£ä¹Ī å®ĥ
wa ves
çĪ± æĥħ
Ġéĩı åĴĮ
}}) ^{-
83 4
83 7
gu st
Ġorbit ing
é¢ĳçİĩ çļĦ
çļĦåĪĨ æķ£
Ġintegra ting
85 9
94 5
Ġstri pe
çļĦæģĴæĺŁ å½¢æĪĲ
è·Ł éļı
Ġavo iding
Ġshor test
Ġmove ment
çļĦæĬ½ è±¡
num erical
okker Planck
) ï¼Į
5 95
H il
N K
R en
m ers
çļĦ èĥ½
çļĦ çİ°è±¡
Ġ& <
=\ !
ä¸Ń ä¹Ł
Ġi mbal
æľī çĶ¨çļĦ
}^ +\
ĠA ny
ĠI sla
Ġal k
cu t
bar u
æĿ¥ æĺ¾ç¤º
åĲİ è£Ķ
ad de
å¹¶ ä½¿
æĬ ļ
iv es
éĩį è§Ĩ
og ical
æıĲ äº¤
å¾· è¯Ń
è¿Ľè¡Į è°ĥæŁ¥
å¼ķ äºº
è¾¾ ç±³äºļ
exp lo
Ġsub manifolds
å¼Ĥ å½¢
Ġtemp late
Ġcomple ted
^{* }_
æİĴ æ³Ħ
èĢĥèĻĳ çļĦ
22 7
ä¿® å¤į
ĠLa w
éĶ® çĽĺ
Ġgo als
Ġcharacteri zes
åħ´ å»º
34 5
æħ İ
ç»Łè®¡ æķ°æį®
èİ« å°Ķ
éĿ¢ç§¯ çº¦
pr int
ĠæĮ ī
40 4
ĠDe te
tran sport
pin ning
éº» éĨī
57 6
Ha miltonian
éĩıåŃĲåĬĽåŃ¦ ä¸Ń
åħ¼ å¹¶
clo se
hol tz
Ġrough ness
åīĬ åĩı
Ġfall s
æ£ī èĬ±
Ġquoti ents
Ġendo m
Ġbla zars
Ġtermin al
ĠAT LAS
Ġresemb les
Ġcircum sta
Ġçĥ Ī
Ġloo king
rope an
Ġintrin sically
3 87
C K
g row
j c
s ource
x s
Ġ é¢ĳ
Ġ è¡ĮæĺŁ
Ġ æł¸å¿ĥ
Ġa men
çļĦ æĪĸ
çļĦ éĩĳ
re ver
is ations
ha ped
=\ ;\
ä¸Ģ æł¹
åĴĮ L
}) )=\
Ġpro mo
åĨ Ĺ
)} }{(
ĠS A
è¿Ļ åľº
ĠB on
èĥ½ åľ¨
ĠR NA
ĠX MM
æµĭ åľ°
è° ģ
è° Ł
ten na
èĩª åĲĮæŀĦ
äºĮ æŀģ
å¼Ģ åĲ¯
tribu ted
å¢ Ł
ç©ºéĹ´ æĹ¶
gra ded
ian chi
å·´ æĸ¯
Ġspin dependent
ç®Ģ ä»ĭ
äºĴ èģĶ
åıĤæķ° ç©ºéĹ´
é¢Ħ ç®Ĺ
utr on
æ¤ Ń
20 1
âĢĿ ,
15 8
Ġå¹¶ æĺ¾ç¤º
ĠçĶ¨ æĿ¥
ç»Ī ç«¯
34 7
éĽĨåĲĪ çļĦ
Ġself adjoint
60 8
éĺ» æĸŃ
50 9
æļ´ åıĳ
ĠæıĲ åĩº
çĶ· å¥³
Ġnd imensional
çľ¼ éķľ
Ġorth onormal
Ġdeep ly
çļĦæ·· ä¹±
æ¯« æĹł
æĭīä¸ģ è¯Ń
Ġavo ided
neutr al
Ġdiscri mination
Ġite rated
Ġåľ¨æľ¬ æĸĩä»¶ä¸Ń
ĠAb ell
approxi mation
çļĦæ¨ª åĲĳ
Ġsou thern
suc ceq
èįīæľ¬ æ¤įçī©
é¢Ħå¤ĩ çŁ¥è¯Ĩ
2 13
5 29
6 36
8 99
: \,\
O B
c ry
n A
x B
Ġ tilde
Ġ çļ®
Ġ åĽºå®ļ
ma nu
çļĦ ä¼łæĴŃ
ta tors
Ġc s
ri a
æķ ²
åľ¨ ä½İæ¸©
åĴĮ ä¸ī
Ġde eper
ĠA ng
ĠS hi
å¤§ æ¦Ĥ
ĠM et
ä¸į è¶ħè¿ĩ
ĠF unction
ĠH CO
ĠB A
ne arest
Ġdi verse
æ² ¸
çī¹ è®¸
èĢĮ äº§çĶŁ
Ġqu eries
ĠK i
åĲĳ åı³
çķ ´
åįķ å±Ĥ
åħĭ æ´Ľ
}| .
Ġlo ading
ym er
åĪ« çļĦ
mo v
è¿Ļä¸ª æĸ¹æ³ķ
Ġradi cal
è¯ģæĺİ æĺ¯
æ» ¥
Ġhe mis
åĪĨå¸ĥ å¼ı
é¢Ħ åħĪ
åĥı ç´ł
åĪĩ åī²
tio temporal
20 2
15 5
brac ket
17 7
Ġconstru ctive
èĳ £
34 2
æĲ ¬
mogene ity
çļĦåľ° åĽ¾
85 7
94 1
åıĤèĢĥ çĽ¸åħ³é¡µéĿ¢
è½® çıŃ
åĪĨè§£ æĪĲ
Ġconse quently
Ġbroad cast
è´§ çī©
44 8
Ġvor ticity
ĠLe mma
åĲĮæŃ¥ åĻ¨
69 1
çļĦæĳ Ħ
Ġhom omorphism
Ġfaci lity
Ġcup rate
èĴĻçī¹åį¡æ´Ľ æ¨¡æĭŁ
yd berg
çļĦçŀ¬ æĹ¶
LIR Gs
oph istic
ç§ĳç½Ĺ æĭīå¤ļ
5 75
5 34
7 44
A CS
C oulomb
E arth
L p
c w
c ision
f all
i berg
p lo
Ġ å¾Ģ
çļĦ é¢ľèī²
Ġp n
ro v
Ġe jection
åĴĮ åĪĨæŀĲ
}} <
ou se
ĠW Z
Ġbe tw
ĠF lu
ĠB essel
ĠG F
åħ¶ ä½ľåĵģ
æĶ Ģ
çĶŁ çĲĨåŃ¦
æĺİ æĺŁ
)^{ |\
ten ed
å¸¸ æĢģ
åĪ© æ¡ĳ
os ov
og on
çŃī åĢ¼
çº¦ åĮĸ
å¾· å¹´
ĠY M
é©¬ åı¯
Ġlo bes
çĲĨè®º ä¸ŃçļĦ
è®¡ç®Ĺ ç»ĵæŀľ
fin i
ä¼ł ç»Ļ
å°¼ äºº
11 4
æĬĬ ä»ĸ
)] +
ç§» æ¤į
25 9
Ġfu nda
elf and
18 8
Ġsho t
Ġtur ned
ĠMo dot
Ġsto pping
99 6
åĮĹéĥ¨ çļĦ
88 6
è¿ª æĸ¯
å¸ĮèħĬ äºº
å¤¸ å°Ķåħĭ
ĠæĽ ¿
)^* (
æķı åº¦
èģĶåĲĪ ä¼ļ
ĠLe besgue
_{* }\
æĴĴ åħĭéĢĬ
Ġç¼ ĺ
)}\, .
æĸĳ çĤ¹
éĻ¶ çĵ·
æĵįä½ľåĳĺ çļĦ
é¼ĵ åĲ¹
coun ter
èħ¹ éĥ¨
Ġç½Ĺ é©¬
å¤ļå¹´ çĶŁ
Wit t
èĩ³ä»Ĭ ä»į
Ġinhomogene ity
Ġintrac luster
ĠBern oulli
ĠUl tra
Ġitine rant
terof mass
4 17
5 80
7 65
A K
S tra
V LA
\ }(
a ff
g ive
o pera
u tes
Ġ les
Ġ èĮĥ
Ġ æµİ
Ġ æĿ¿
Ġ å¹ħ
Ġ åĨħéĥ¨
Ġ ,\\&
Ġ å¸¦æľī
ĩ ĥ
çļĦ åĲĦ
re ne
de mon
la ser
åľ¨ æľĢ
åĴĮ çĶµåŃĲ
ĠW illiam
æĿ ł
ĠA ss
å¤§ å¸Ŀ
ä¸į åĲ«
Ġal le
ĠL O
æĪĲ åĲį
æĪĲ æ¯Ķä¾ĭ
}(\ |
çĶµ å¼±
ä¾ į
chi ral
ser ies
éķ¿ èĢĮ
Ġexp loring
è¯¥ ä¹¦
ä½Ĩ åĽł
åħ¨ ä¹¦
éģĵ æķĻ
åŁŁ åĲį
Ġlow frequency
Ġun s
Ġcont rac
ç®Ģ çŁŃ
Ġhe ated
ise cond
çĶ¨äºİ çłĶç©¶
æ¼Ķ è¯´
æ¼Ķ ç¤ºäºĨ
Ġmulti band
æĿĥ éĩį
éĤ£ä¹Ī åľ¨
åľĨ å¿ĥ
åı² å¯Ĩ
Ġcri tically
20 9
75 4
66 3
66 4
18 5
Ġline width
)&= -
83 9
ä½Ľ éĻĢ
çļĦåĪĨ è£Ĥ
30 1
Ġcontra dic
æĬ¥åĳĬ äºĨ
BA L
è®¢ åįķ
Ġarc s
}}\\ &
æķĮ äºº
fo otnote
å¹ķ åºľ
åĢº åĬ¡
å¹» æĥ³
Ġæ¯ į
ira sor
Ġdiscrepan cies
Mon te
Ġow ing
ç¥ŀåľ£ ç½Ĺé©¬å¸ĿåĽ½
Wil son
Ġaper ture
odrom y
2 64
K x
P c
S q
m Y
p ort
æ ¨
Ġ éĹŃ
Ġ ä¹ĭåĲİ
th resh
in stant
çļĦ å±Ģéĥ¨
çļĦ è¿ĽåĮĸ
ar m
si zing
ol l
åĴĮ åıĮ
æĺ¯ ä¸įåı¯
li ce
ä¸Ń åĢ¼
}} &=
ch in
åı¯ çĶ±
ĠC algebra
be led
ĠM ori
ci p
lu nd
å± ĳ
Ġfi ved
un a
åħī çĲĥ
å°Ķ äºº
è¥¿ å°¼
çĤ¹ åľ¨
åĪ© çļĦ
ä¹ī å¤§
Ġla dder
Ġper ov
æµģ ä½ĵçļĦ
Ġ) +\
è½¬ ç½®
our nal
èĻ ¹
è¶ħ éĩįåĬĽ
çĥ ¹
Ġfa mous
åĩł çĻ¾
Ġsuper string
Ġop tion
Ġsub manifold
åħĪ é©±
Ġdepend encies
)_ *
ced ing
Ġelectron positron
åĵĪ å¾·
å¿ħ éľĢ
22 9
14 6
Ġmain tain
Ġindic ators
Ġsample d
ä¼ĺ éĽħ
å¼¹ åĩº
èĥĮ åĮħ
éķ¿åº¦ ä¸º
ä¾ĭåŃĲ ä¸Ń
30 7
97 8
å°¾ å·´
struct ured
37 7
Ġcosmic ray
æĺ¯åĲ¦ åŃĺåľ¨
96 2
Ġou tw
peci fic
Ġappropriate ly
76 3
è¾© è®º
process es
ĠSky rme
åĢ¡ å¯¼
æŁĶ è½¯
ĠMor se
Ġchromos pheric
çļĦæ¡Ī ä¾ĭ
åĵĪå¾Ĺ éĢĬ
å·© åĽº
é»İå·´ å«©
