{"<s>":0,"<pad>":1,"<e>":2,"<unk>":3,"<mask>":4,"!":5,"\"":6,"#":7,"$":8,"%":9,"&":10,"'":11,"(":12,")":13,"*":14,"+":15,",":16,"-":17,".":18,"/":19,"0":20,"1":21,"2":22,"3":23,"4":24,"5":25,"6":26,"7":27,"8":28,"9":29,":":30,";":31,"<":32,"=":33,">":34,"?":35,"@":36,"A":37,"B":38,"C":39,"D":40,"E":41,"F":42,"G":43,"H":44,"I":45,"J":46,"K":47,"L":48,"M":49,"N":50,"O":51,"P":52,"Q":53,"R":54,"S":55,"T":56,"U":57,"V":58,"W":59,"X":60,"Y":61,"Z":62,"[":63,"\\":64,"]":65,"^":66,"_":67,"`":68,"a":69,"b":70,"c":71,"d":72,"e":73,"f":74,"g":75,"h":76,"i":77,"j":78,"k":79,"l":80,"m":81,"n":82,"o":83,"p":84,"q":85,"r":86,"s":87,"t":88,"u":89,"v":90,"w":91,"x":92,"y":93,"z":94,"{":95,"|":96,"}":97,"~":98,"¡":99,"¢":100,"£":101,"¤":102,"¥":103,"¦":104,"§":105,"¨":106,"©":107,"ª":108,"«":109,"¬":110,"®":111,"¯":112,"°":113,"±":114,"²":115,"³":116,"´":117,"µ":118,"¶":119,"·":120,"¸":121,"¹":122,"º":123,"»":124,"¼":125,"½":126,"¾":127,"¿":128,"À":129,"Á":130,"Â":131,"Ã":132,"Ä":133,"Å":134,"Æ":135,"Ç":136,"È":137,"É":138,"Ê":139,"Ë":140,"Ì":141,"Í":142,"Î":143,"Ï":144,"Ð":145,"Ñ":146,"Ò":147,"Ó":148,"Ô":149,"Õ":150,"Ö":151,"×":152,"Ø":153,"Ù":154,"Ú":155,"Û":156,"Ü":157,"Ý":158,"Þ":159,"ß":160,"à":161,"á":162,"â":163,"ã":164,"ä":165,"å":166,"æ":167,"ç":168,"è":169,"é":170,"ê":171,"ë":172,"ì":173,"í":174,"î":175,"ï":176,"ð":177,"ñ":178,"ò":179,"ó":180,"ô":181,"õ":182,"ö":183,"÷":184,"ø":185,"ù":186,"ú":187,"û":188,"ü":189,"ý":190,"þ":191,"ÿ":192,"Ā":193,"ā":194,"Ă":195,"ă":196,"Ą":197,"ą":198,"Ć":199,"ć":200,"Ĉ":201,"ĉ":202,"Ċ":203,"ċ":204,"Č":205,"č":206,"Ď":207,"ď":208,"Đ":209,"đ":210,"Ē":211,"ē":212,"Ĕ":213,"ĕ":214,"Ė":215,"ė":216,"Ę":217,"ę":218,"Ě":219,"ě":220,"Ĝ":221,"ĝ":222,"Ğ":223,"ğ":224,"Ġ":225,"ġ":226,"Ģ":227,"ģ":228,"Ĥ":229,"ĥ":230,"Ħ":231,"ħ":232,"Ĩ":233,"ĩ":234,"Ī":235,"ī":236,"Ĭ":237,"ĭ":238,"Į":239,"į":240,"İ":241,"ı":242,"Ĳ":243,"ĳ":244,"Ĵ":245,"ĵ":246,"Ķ":247,"ķ":248,"ĸ":249,"Ĺ":250,"ĺ":251,"Ļ":252,"ļ":253,"Ľ":254,"ľ":255,"Ŀ":256,"ŀ":257,"Ł":258,"ł":259,"Ń":260,"Ġ\\":261,"ĠĊ":262,"th":263,"Ġ\\(":264,"\\)":265,"in":266,"_{":267,"ti":268,"Ġa":269,"ä¸":270,"on":271,"al":272,"Ġth":273,"te":274,"ma":275,"çļ":276,"ra":277,"çļĦ":278,"^{":279,"re":280,"Ġthe":281,"ta":282,"Ġs":283,"le":284,"Ġo":285,"ãĢ":286,"er":287,"en":288,"ar":289,"Ġc":290,"ãĢĤ":291,"ig":292,"Ġf":293,"äº":294,"or":295,"ä»":296,"Ġp":297,"}\\":298,"Ġof":299,"de":300,"ï¼":301,"is":302,"ï¼Į":303,"tion":304,"rac":305,"la":306,"}{":307,"Ġ=":308,"åı":309,"me":310,"Ġ\\[":311,"Ġ\\]":312,"math":313,"ro":314,"frac":315,"åħ":316,"nd":317,"(\\":318,"Ġ\\(\\":319,"si":320,"ha":321,"Ġt":322,"tex":323,"Ġin":324,"Ġw":325,"bf":326,"Ġ&":327,"Ġb":328,"Ġe":329,"åĪ":330,"Ġd":331,"æľ":332,"{\\":333,"es":334,"åľ":335,"è¿":336,"hi":337,"ing":338,"ft":339,"æĺ":340,"cal":341,"ä½":342,"eta":343,"çĶ":344,",\\":345,"su":346,"=\\":347,"}\\)":348,"å¤":349,"æĪ":350,"ts":351,"ed":352,"}(":353,"ç»":354,"å®":355,"igh":356,"ri":357,"Ġand":358,"åĲ":359,"Ġ(":360,"el":361,"mb":362,"ga":363,"Ġn":364,".\\)":365,"}^{":366,"ä¸Ģ":367,"æĸ":368,"_{\\":369,"æķ":370,"ol":371,"éĩ":372,")\\":373,"righ":374,"å°":375,"mu":376,"åľ¨":377,"Ġto":378,"åŃ":379,"Ġre":380,"text":381,"do":382,"åĬ":383,"an":384,"å¹":385,"Ġ+":386,"åĴ":387,"åĴĮ":388,"right":389,"pha":390,"left":391,"ĠT":392,"da":393,"})":394,"Ġu":395,"Ġg":396,"-\\":397,"åĽ":398,"alpha":399,"ho":400,"ve":401,"æĺ¯":402,"li":403,"è®":404,"å¯":405,"Ġm":406,"qu":407,"åº":408,"textbf":409,"tit":410,"Ġis":411,"ä¸Ń":412,"at":413,"textit":414,"ä¹":415,"mbda":416,"mp":417,"ct":418,"se":419,"}}":420,"ver":421,"sum":422,"å¼":423,"Ġi":424,"he":425,"è¯":426,"lo":427,"ä¸º":428,")=":429,"ce":430,"åį":431,"æĢ":432,"æĹ":433,"Ġ\\(-":434,"phi":435,"Ġfor":436,"mathbf":437,"ä¸ª":438,"Ġ-":439,"ly":440,"st":441,"ç§":442,"åĩ":443,"ou":444,"çº":445,"å¾":446,"psi":447,"ä»¬":448,"Ġ\\\\":449,"ĠW":450,"ge":451,"lambda":452,"tial":453,"ter":454,"ic":455,"æľī":456,"Ġcon":457,",\\)":458,"ch":459,"mathcal":460,"æķ°":461,"mma":462,"è¡":463,"çī":464,"æĿ":465,"ent":466,"}_{":467,"ith":468,"ä¼":469,"+\\":470,"åĮ":471,"tions":472,"Ġde":473,"éĢ":474,"çĽ":475,"æĪĳ":476,"æŀ":477,"int":478,"del":479,"^{-":480,"æ³":481,"Ġpro":482,"}^":483,"äºĨ":484,"ä»¥":485,"ĠA":486,"^{\\":487,"tri":488,"Ġx":489,"it":490,"Ġma":491,"Ġv":492,"par":493,"åĨ":494,"éĩı":495,"pi":496,"è§":497,")}":498,"å¸":499,"æĪĳä»¬":500,"Ġco":501,"äºİ":502,"å½":503,"åĪĨ":504,"ng":505,"çĶ¨":506,"xi":507,"Ġbe":508,"Ġthat":509,"mega":510,"Ġwith":511,"Ġon":512,"Ġ0":513,"æł":514,"Ġex":515,"ted":516,"çİ":517,"å¯¹":518,"æī":519,"partial":520,"ĠS":521,"æµ":522,"tic":523,"ur":524,"è¿Ļ":525,"èĢ":526,"éĹ":527,"ine":528,"_\\":529,"Ġan":530,"ĠI":531,"igma":532,"to":533,"end":534,"ĥ½":535,"Ġmo":536,"åı¯":537,"pe":538,"Ġ\\)":539,"ĠWe":540,"dots":541,"å¹´":542,"ab":543,"åŃĲ":544,"fty":545,"infty":546,"æĢ§":547,"res":548,"Ġh":549,"beta":550,"å¤§":551,"}{\\":552,"dot":553,"ĠC":554,"}=":555,"per":556,"},":557,"di":558,"mi":559,"Ġ1":560,")\\)":561,"lon":562,"åº¦":563,"rm":564,"be":565,"ãĢģ":566,"gamma":567,"),":568,"éĿ":569,"ss":570,"theta":571,"æŃ":572,"ĠM":573,"å·":574,"ĠThe":575,"æĭ":576,"time":577,"big":578,"ä¸į":579,"pp":580,"sigma":581,"nu":582,"til":583,"ĠF":584,"ngle":585,"Ġwe":586,"as":587,"ĠH":588,"æĸ¹":589,"Ġare":590,"ci":591,"Ġal":592,"|\\":593,"çĲ":594,"tu":595,"line":596,"è´":597,"ĠB":598,"ĠL":599,"lu":600,"æĪĲ":601,"var":602,"tilde":603,"Ġsu":604,"gin":605,"ation":606,"tau":607,"psilon":608,"ff":609,"rho":610,"éĻ":611,"åĬ¨":612,"delta":613,"æĹ¶":614,")=\\":615,"}_":616,"ne":617,"å®ļ":618,"begin":619,"åĽ½":620,"over":621,"Ġ,":622,"éĹ´":623,"äºº":624,"å±":625,"Ġby":626,"Ġme":627,"èĥ½":628,"ell":629,"è¾":630,"ä¸İ":631,"çļĦæ":632,"ĠG":633,"bb":634,"ds":635,"cu":636,"ä½ľ":637,"æ³ķ":638,"Ġas":639,"ä¸Ģä¸ª":640,"leq":641,"éĺ":642,"Ġk":643,"ĠP":644,"åŁ":645,"èĩ":646,"ä¸Ĭ":647,"ç³":648,"çĽ¸":649,").":650,"ĠD":651,"åľ°":652,"åĪ°":653,"omega":654,"cdot":655,"}(\\":656,"Ġæ":657,"Ġsta":658,"ç³»":659,"lar":660,"ç©":661,"ĠR":662,"du":663,"mathbb":664,"hat":665,"åŃ¦":666,"Ġdis":667,"nt":668,"åħ¶":669,"^\\":670,"tr":671,"ä½ĵ":672,"Ġdi":673,"ä»ĸ":674,"Ġ2":675,"bar":676,"times":677,"ty":678,"trix":679,"co":680,"é¢":681,"sion":682,"åĩº":683,"çĲĨ":684,"åİ":685,"æĿ¥":686,"ç§į":687,"ç®":688,"Ġse":689,"è¡Į":690,")^":691,"æĶ":692,"æİ":693,"Ġr":694,"åĲİ":695,"ad":696,"vi":697,"ys":698,"ĠN":699,"ĠX":700,"æ¯":701,"ĠE":702,"Ġy":703,"å¼ı":704,"matrix":705,"ç»ĵ":706,"ction":707,"Ġç":708,"Ġcomp":709,"åıĳ":710,"Ġpo":711,"æĸ¯":712,"Ġra":713,"è½":714,"rt":715,"varphi":716,"è¦":717,"Ġ.":718,"Ġne":719,"çĶŁ":720,"tem":721,"}^{\\":722,"¦Ĥ":723,"åŀ":724,"elta":725,"çļĦç":726,"çī©":727,"Ġfi":728,"ray":729,"men":730,"sq":731,"ble":732,"æ²":733,"sta":734,"Ġat":735,"éĥ":736,"Delta":737,"åī":738,"æľĢ":739,"åĮĸ":740,"çī¹":741,"are":742,"ity":743,"è¦ģ":744,"Ġz":745,"çĶµ":746,"è¡¨":747,"sqrt":748,"ces":749,"}.":750,"å¤ļ":751,"éĥ¨":752,"Ġor":753,"for":754,"è¿ĩ":755,"¨¡":756,"åıĺ":757,"æ°":758,"çº¿":759,"ä¾":760,"rom":761,"åŀĭ":762,"\\,":763,"æį":764,"ni":765,"Ġwhi":766,"Ġob":767,"^*":768,"åĲĮ":769,"ç¨":770,"èĢĮ":771,"^{(":772,"å¥":773,"pa":774,"åĬĽ":775,"èµ":776,"Ġha":777,"çİ°":778,"Ġ\\,":779,"çŁ":780,"ĠçļĦ":781,"nab":782,"}=\\":783,"Ġthis":784,"how":785,"nabla":786,":=":787,"Ġqu":788,"åĵ":789,"å¹¶":790,"å½¢":791,"ca":792,"min":793,"æµĭ":794,"ment":795,"çĶ±":796,"åĲĪ":797,"Ġpa":798,"low":799,"åĢ":800,"ĠV":801,"}+":802,"Ġ|":803,"éĽ":804,"æĮ":805,"rangle":806,"ĠK":807,"æŀľ":808,").\\)":809,"æ´":810,"ener":811,"è°":812,"Ġfrom":813,"tive":814,"å¾Ĺ":815,"åĳ":816,"æīĢ":817,"æĽ":818,"ffe":819,"}}\\":820,"ä¸ĭ":821,"æĬ":822,"ç½":823,"éĢļ":824,"å¿":825,"ä¿":826,"ck":827,"ä½¿":828,"è®º":829,"ä¹ĭ":830,"Ga":831,"è¿Ľ":832,"\\\\":833,"ç±":834,"ĠãĢĤ":835,"éĿ¢":836,"Ġwhich":837,"ide":838,"äºĽ":839,"ran":840,"ç»Ł":841,"Ġmodel":842,"å¦Ĥ":843,"Omega":844,"array":845,"red":846,"æĺİ":847,"chi":848,"un":849,"åı¯ä»¥":850,"åħ³":851,"iv":852,"åħī":853,"è´¨":854,"))":855,"çĤ":856,"ç¾":857,"ç¬":858,"æ¨¡":859,"æľ¬":860,"Gamma":861,"æı":862,"},\\":863,"epsilon":864,"å°Ķ":865,"\\|":866,"ĠU":867,"Phi":868,"iz":869,"ä¸»":870,"mal":871,"ä¸¤":872,"è¶":873,")^{":874,"çŃ":875,"ot":876,"ä»£":877,"log":878,"ç«":879,"ten":880,"è¢":881,"od":882,"Big":883,"ä¼ļ":884,"ç¤":885,"ĠIn":886,"åĪ¶":887,"rou":888,"é¡":889,"è®¡":890,"Ġ{\\":891,"éķ":892,"æĺŁ":893,"Ġshow":894,"ç¨ĭ":895,"¥¿":896,"è§£":897,"è¥¿":898,"Ġ(\\":899,"}-":900,"ldots":901,"bu":902,"åĿ":903,"åĬł":904,"ĠO":905,"Ġcan":906,"}.\\)":907,"um":908,"èĩª":909,")(":910,"çĤ¹":911,"æĪĸ":912,"åĽł":913,"ir":914,"éĩį":915,"op":916,"è¢«":917,"å®ŀ":918,"Ġ{":919,"ser":920,"tical":921,"wide":922,"sul":923,"åŁº":924,"us":925,"les":926,"row":927,"pro":928,"lim":929,"ĠTh":930,"der":931,"å¸¸":932,"Ġapp":933,"tes":934,"å°ı":935,"ç®Ĺ":936,"ç»Ħ":937,"ç©º":938,"å¹³":939,"ting":940,"Ġresul":941,"æĸĩ":942,"é«":943,"pri":944,"éĩĮ":945,"ms":946,"Ġq":947,"mathrm":948,"é«ĺ":949,"æĢģ":950,"ä¸ĸ":951,"quad":952,"il":953,"con":954,")+":955,"Ġj":956,"})\\)":957,"éģ":958,"åĪ©":959,"åĢ¼":960,"ä»İ":961,"ç§°":962,"å®¶":963,"å»":964,"çł":965,"os":966,"Ġle":967,"og":968,"åħ¬":969,"åºĶ":970,"ox":971,"æŁ":972,"Ġl":973,"åıĬ":974,"ij":975,"na":976,"åĲĳ":977,"overline":978,"ä¹ī":979,"ous":980,"Ġsi":981,"ence":982,"geq":983,"ä½į":984,"åĨħ":985,"ĠJ":986,"Ġus":987,"èĭ":988,"ç±»":989,"arepsilon":990,"prime":991,"varepsilon":992,"tw":993,"æ¬":994,"Ġ}":995,"Ġpar":996,"æŃ¤":997,"ç¤º":998,"ĠQ":999,"[\\":1000,"La":1001,"olu":1002,"èī":1003,"Ġpres":1004,"å®ĥ":1005,"æ¯Ķ":1006,"ç¡":1007,"å°Ĩ":1008,"ul":1009,"çķ":1010,"Ġstr":1011,"éĿŀ":1012,"åīį":1013,"app":1014,"cdots":1015,"Ġspe":1016,"ties":1017,"ä¹Ł":1018,"ure":1019,"Ġtw":1020,"langle":1021,"om":1022,"å½ĵ":1023,"éķ¿":1024,"dy":1025,"rc":1026,"åįķ":1027,"ĠæĪĳä»¬":1028,"ç´":1029,"Ġte":1030,"æĦ":1031,"|^":1032,"ign":1033,"åģ":1034,"ut":1035,"å¤ĸ":1036,"æ³¢":1037,"å¯¼":1038,"ons":1039,"ations":1040,"è·":1041,"tar":1042,")-":1043,"tor":1044,"éļ":1045,"tain":1046,";\\":1047,"åİŁ":1048,"ther":1049,"æĭī":1050,"æĹł":1051,"ases":1052,"ä»»":1053,"æ¸":1054,"Ġfin":1055,"ili":1056,"Ġtran":1057,"æľŁ":1058,"col":1059,"éĥ½":1060,"çŃī":1061,"lation":1062,"äºļ":1063,"Ġsys":1064,"serv":1065,"vel":1066,"åħĭ":1067,"æŃ£":1068,"å°Ħ":1069,"åĩ½":1070,"æĻ":1071,")}{":1072,"åħĥ":1073,"so":1074,"here":1075,"Ġ\\({\\":1076,"äºĮ":1077,"\\{":1078,"}}{":1079,"æį®":1080,"Ġla":1081,"Ġ&=":1082,"åıĤ":1083,"Lambda":1084,"ä»¶":1085,"zeta":1086,"Ġfiel":1087,"ç»´":1088,"Ġ\\((":1089,"Ġexp":1090,"otimes":1091,"æľº":1092,"åĮº":1093,"Ġper":1094,"set":1095,"äº§":1096,"æĸ°":1097,"ari":1098,"Ġstu":1099,"circ":1100,"Ġequ":1101,"è¯¥":1102,"era":1103,"æŀĦ":1104,"nder":1105,"Ġtwo":1106,"Ġca":1107,"Ġnon":1108,"é©":1109,"æµģ":1110,"pmatrix":1111,"å°±":1112,"ctor":1113,"ç¦":1114,"ore":1115,"åħ¥":1116,"æķĻ":1117,"ç¬¬":1118,"Ġac":1119,"ex":1120,"å¸ĥ":1121,"ç¼":1122,"ow":1123,"&\\":1124,"Ġ[":1125,"pm":1126,"Ġinte":1127,"ome":1128,"ree":1129,"çĬ":1130,"è¯ģ":1131,"èģ":1132,"åĻ":1133,"ph":1134,"åĮħ":1135,"æıĲ":1136,"£ģ":1137,"Ġsystem":1138,"appa":1139,"Ħ¶":1140,"Ġfun":1141,"å¼Ģ":1142,"the":1143,"ç²":1144,"èĢħ":1145,"ä½Ĩ":1146,")}\\":1147,"Ġcor":1148,"éĻĲ":1149,"åĩ½æķ°":1150,"gne":1151,"çİĩ":1152,"ç¾İ":1153,"item":1154,"12":1155,"éĤ":1156,"lus":1157,"ctr":1158,":=\\":1159,"å»º":1160,"kappa":1161,"33":1162,"ding":1163,"ound":1164,"Ġ)":1165,"èİ":1166,"ssi":1167,"ç»ı":1168,"æł¼":1169,"&=":1170,"ite":1171,"åľº":1172,"çº¦":1173,"tation":1174,"å¾·":1175,"æģ":1176,"åĽ¾":1177,"è½¬":1178,"}_{\\":1179,"),\\)":1180,"Ġcha":1181,"}+\\":1182,"è®¾":1183,"mbox":1184,"åĲį":1185,"ical":1186,"olds":1187,"æĥ":1188,"ĠY":1189,"mic":1190,"ves":1191,"rame":1192,"ç«ĭ":1193,"Psi":1194,"Ġobserv":1195,"åıį":1196,"Ġen":1197,"ä½¿çĶ¨":1198,"è¿ĳ":1199,"æłĩ":1200,"energ":1201,"uct":1202,"mple":1203,"ç©¶":1204,"Ġele":1205,"'(":1206,"Ġanal":1207,"åĻ¨":1208,"çĦ¶":1209,"Ġspa":1210,"id":1211,"Ġnu":1212,"prod":1213,"ĠZ":1214,"ä¸ī":1215,"Ġquan":1216,"ĠThis":1217,"å§":1218,"åŃĺ":1219,"tribu":1220,"ç³»ç»Ł":1221,"å¢":1222,"æİ¥":1223,"Ġresults":1224,"è¿ĻäºĽ":1225,"è§Ĥ":1226,"~~":1227,"Ġhave":1228,"è¿Ĳ":1229,"Ġalso":1230,"ory":1231,"nce":1232,"æ®":1233,"Ġ:=":1234,"Ġres":1235,"tarrow":1236,"Ġev":1237,"Ġda":1238,"ç»ĵæŀľ":1239,"ant":1240,"ular":1241,"çĿ":1242,"åħ·":1243,"åĪĻ":1244,"éĵ":1245,"po":1246,"éĽĨ":1247,"ach":1248,"èĪ":1249,"fi":1250,"æ±":1251,"æĺ¾":1252,"mation":1253,"}|":1254,"ast":1255,"è¿Ľè¡Į":1256,"rate":1257,"çĬ¶":1258,"ç©ºéĹ´":1259,"åį³":1260,"ç¡®":1261,"our":1262,"Ķç©¶":1263,"Ġhigh":1264,"and":1265,"Ġsp":1266,"åĪĹ":1267,"ary":1268,"éĢŁ":1269,"ĠĠ":1270,"een":1271,"}\\,":1272,"æŀģ":1273,"é©¬":1274,"fra":1275,")\\,":1276,"æĦı":1277,"pend":1278,"tween":1279,"(-":1280,"å¯Ĩ":1281,"lations":1282,"æ¬¡":1283,"cases":1284,"Ġmu":1285,"èĬ":1286,"ments":1287,"Ġlo":1288,"Ġ-\\":1289,"ymb":1290,"},\\)":1291,"Ġgra":1292,"energy":1293,"sity":1294,"ymbol":1295,"all":1296,"è¯´":1297,"çķĮ":1298,"Ġ=\\":1299,"ffere":1300,"èµ·":1301,"ue":1302,"ork":1303,"æº":1304,"èĥ":1305,"åħ¨":1306,"rightarrow":1307,"å·¥":1308,"ton":1309,"Ġbetween":1310,"èĻ":1311,"Ġfield":1312,"Ġsa":1313,"duc":1314,"ç¦»":1315,"widetilde":1316,"æĿ¡":1317,"cre":1318,"çĽ´":1319,"Ġeffe":1320,"Ġit":1321,"asu":1322,"ility":1323,"ym":1324,"oldsymbol":1325,"boldsymbol":1326,"ger":1327,"è¶ħ":1328,"çĥ":1329,"è¿ĺ":1330,"limi":1331,"çľ":1332,"èī²":1333,"ala":1334,"éģĵ":1335,"mension":1336,"Ġappro":1337,"Ġreg":1338,"je":1339,"åıĸ":1340,"sf":1341,"Ġga":1342,"åºı":1343,"Ġmass":1344,"åĪ«":1345,"Ġimp":1346,"éª":1347,"color":1348,"æ¨¡åŀĭ":1349,"ak":1350,"åŃĹ":1351,"éĢļè¿ĩ":1352,"Ġthese":1353,"ä¸ŃçļĦ":1354,"Ġar":1355,"Ġab":1356,"éħ":1357,"tum":1358,"})\\":1359,"cap":1360,"å¾®":1361,"cted":1362,"è¯Ń":1363,"å±ķ":1364,"..":1365,"Ġgener":1366,"fic":1367,"Ġfa":1368,"hline":1369,"å²":1370,"ally":1371,"å£":1372,"textcolor":1373,"Ġdiffere":1374,"olution":1375,"Ġno":1376,"Ġvari":1377,"å¼ķ":1378,"dx":1379,"olog":1380,"æĭ¬":1381,"é»":1382,"Ġï¼Į":1383,"ç½Ĺ":1384,"é¢ĺ":1385,"Ġmeasu":1386,"Ġpartic":1387,"Ġåľ¨":1388,"Ġdata":1389,"ctions":1390,"Ġinter":1391,"cri":1392,"æĸ¹æ³ķ":1393,"mo":1394,"gnetic":1395,"ç£ģ":1396,"ded":1397,"Ġ_{":1398,"ç§¯":1399,"ä¾ĭ":1400,"çĲĨè®º":1401,"èĦ":1402,"è¾¾":1403,"è°ĥ":1404,"å½±":1405,"Ġ\\{":1406,"des":1407,"str":1408,"ä½ķ":1409,"Ġstudy":1410,"Ġ4":1411,"çłĶç©¶":1412,"æ¶":1413,"è§Ĵ":1414,"Ġhas":1415,"èį":1416,"vec":1417,"Ġpre":1418,"Ġcla":1419,"ges":1420,"æ¡":1421,"equ":1422,"Ġenergy":1423,"ture":1424,"æł·":1425,"èĤ":1426,"é¦":1427,"å¿ĥ":1428,"hen":1429,"è®¡ç®Ĺ":1430,"}^{(":1431,"æĪĺ":1432,"åĩł":1433,"tric":1434,"Ġ3":1435,"sin":1436,"gra":1437,"Ġcou":1438,"Ġpla":1439,"mber":1440,"éĤ£":1441,"Ġsuper":1442,"Ġnot":1443,"limits":1444,"ard":1445,"cess":1446,"frak":1447,"éľ":1448,"Ġlar":1449,"sub":1450,"é£":1451,"å¤į":1452,"åı¯èĥ½":1453,"çĿĢ":1454,"ke":1455,"Ġdes":1456,"pera":1457,"of":1458,"fin":1459,"exp":1460,"èĩ´":1461,"ymme":1462,")|":1463,"å¼º":1464,"åħ±":1465,"mon":1466,"Ġ\\;":1467,"æķĪ":1468,"),\\":1469,"ä¼ł":1470,"oth":1471,"Ġcal":1472,"Ġone":1473,"Ġstar":1474,"}-\\":1475,"åıĹ":1476,"{(":1477,"}^\\":1478,"Ġquantum":1479,"gh":1480,"star":1481,"éĶ":1482,"dt":1483,"ä¸Ģç§į":1484,"Ġop":1485,"wed":1486,"mathfrak":1487,"cup":1488,"vert":1489,"led":1490,"Ġwa":1491,"Ġtheory":1492,"cha":1493,"åĨ³":1494,"Ġobtain":1495,"ased":1496,"Ġdy":1497,"Ġstruct":1498,"Ġtime":1499,"Ġsub":1500,")}(":1501,"Ġfunction":1502,"cos":1503,"Ġden":1504,"çĲĥ":1505,"èģĶ":1506,"ters":1507,"peri":1508,"çºª":1509,"tiv":1510,"bra":1511,"ç§ĳ":1512,"å¤Ħ":1513,"æµ·":1514,"ä¸¤ä¸ª":1515,"Ġho":1516,"cc":1517,"Ġparame":1518,"åŁŁ":1519,"éĹ®":1520,"Ġgeneral":1521,"åħ°":1522,"Ġmeth":1523,"ze":1524,"åıĳçİ°":1525,"igned":1526,"Ġgrou":1527,"Ġsuch":1528,"äº¤":1529,"Ġusing":1530,"æŀĲ":1531,"æĮĩ":1532,"å¡":1533,"Ġcol":1534,"Ġproper":1535,"ion":1536,"lic":1537,"Ġlow":1538,"ä¹ĭéĹ´":1539,"çĻ":1540,"Ġ\\(|":1541,"å°¼":1542,"bigg":1543,"ated":1544,"ry":1545,"ies":1546,"è£":1547,"Ġdistribu":1548,"ĠåĴĮ":1549,"Ġscal":1550,"cts":1551,"èĢĥ":1552,"Ġpresent":1553,"èĲ":1554,"Ġrep":1555,"widehat":1556,"çİ¯":1557,"Ġrela":1558,"Ġall":1559,")^{-":1560,"den":1561,")+\\":1562,"ä¿¡":1563,"æºĲ":1564,"wedge":1565,"æĸ¹ç¨ĭ":1566,"åĮħæĭ¬":1567,"ark":1568,"äºĭ":1569,"ç¥":1570,"è¿ŀ":1571,"åıª":1572,"ç´ł":1573,"Ġsc":1574,"fa":1575,"Ġval":1576,"Ġad":1577,"ä½İ":1578,"Ġnew":1579,"Sigma":1580,"Ġpha":1581,"è¿°":1582,"è¿Ļä¸ª":1583,"ä»¥åıĬ":1584,"ä¸įåĲĮ":1585,"ä¼¼":1586,"Ġun":1587,"Ġ.\\)":1588,"èĭ±":1589,"ert":1590,"åĵģ":1591,"ight":1592,"cent":1593,"''":1594,"Ġspace":1595,"Ġpaper":1596,"æ²³":1597,"Ġradi":1598,"å¼Ĥ":1599,"åĩĨ":1600,"å§ĭ":1601,"Ġver":1602,"ian":1603,"Ġ\\|":1604,"æĹ¶éĹ´":1605,"Ġorder":1606,"æĢ»":1607,"éĥ¨åĪĨ":1608,"^{-\\":1609,"Ġdo":1610,"è¯ģæĺİ":1611,"ate":1612,"Ġtrans":1613,"Ġcur":1614,"æ®µ":1615,"67":1616,"æł¹":1617,"èİ·":1618,"ç¾İåĽ½":1619,"clu":1620,"&=\\":1621,"Ġcont":1622,"Ġits":1623,"æķ£":1624,"linear":1625,"ll":1626,"tag":1627,"æĶ¿":1628,"éĢī":1629,"Ġgala":1630,"æį¢":1631,"Ġsur":1632,"^+":1633,"et":1634,"Ġcorre":1635,"Ġli":1636,"Ġnumber":1637,"aligned":1638,"ä¸ļ":1639,"Ġour":1640,"å·´":1641,"å¦Ĥæŀľ":1642,"bmatrix":1643,"æ»":1644,"æĽ´":1645,"æ·":1646,"æľ¯":1647,"ps":1648,"Ġwhere":1649,"çĪ":1650,"_{-":1651,"pon":1652,"}}(":1653,"æµĭéĩı":1654,"éªĮ":1655,"è°±":1656,"æĹĭ":1657,"éŁ":1658,"mis":1659,"å¯¹äºİ":1660,"éĺ¿":1661,"Ġro":1662,"åĬŁ":1663,"èĮ":1664,"Ġthan":1665,"å·²":1666,"è¾ĥ":1667,"ffic":1668,"æ°Ķ":1669,"try":1670,"_{(":1671,"åı·":1672,"æ°´":1673,"ç¾¤":1674,"11":1675,"å±ŀ":1676,"ç»ĵæŀĦ":1677,"åįĹ":1678,"Ġexperi":1679,"åŃĺåľ¨":1680,"})=":1681,"çĭ":1682,"}]":1683,"Ġfind":1684,"å®Į":1685,"Ġuni":1686,"å¤©":1687,"ä¹Ī":1688,"Ġtemp":1689,"æĽ²":1690,"Ġconsi":1691,"æķ°æį®":1692,"çĽ®":1693,"Ġcomple":1694,"åĨĽ":1695,"equiv":1696,"åĨµ":1697,"åįģ":1698,"Ġpol":1699,"å±Ĥ":1700,"æķ´":1701,"éĺµ":1702,"æ¼":1703,"éļı":1704,"ä¸»è¦ģ":1705,"ä¸ĸçºª":1706,"perator":1707,"æŁ¥":1708,"xy":1709,"çº§":1710,"éĩĳ":1711,"Ġunder":1712,"ong":1713,"è¿Ļç§į":1714,"åĮĹ":1715,"sition":1716,"ä¿Ŀ":1717,"bit":1718,"åĪĨæŀĲ":1719,"è·¯":1720,"har":1721,"Ġdyna":1722,"Ġdescri":1723,"als":1724,"ç»Ļ":1725,"å¸¦":1726,"bin":1727,"åı£":1728,"_+":1729,"è§Ħ":1730,"sup":1731,"è¾¹":1732,"pla":1733,"Ġover":1734,",\\,":1735,"man":1736,"Ġwell":1737,"Ġspin":1738,"è±":1739,"max":1740,"Ġexa":1741,"Ġ<":1742,"æĶ¾":1743,"teri":1744,"Ġstate":1745,"\\}":1746,"åħ·æľī":1747,"Ġproble":1748,"é¦ĸ":1749,"åĲĦ":1750,"cy":1751,"ization":1752,"ort":1753,"ents":1754,"able":1755,"çº¿æĢ§":1756,"ç®Ģ":1757,"äºĴ":1758,"åįĬ":1759,"éĢł":1760,"è®¸":1761,"Ġsome":1762,"åħĪ":1763,"ln":1764,"Ġhe":1765,"}^{-":1766,"âĢ":1767,"æł¸":1768,"Ġmodels":1769,"stra":1770,"Ġ+\\":1771,"hy":1772,"^{*":1773,"æĺ¾ç¤º":1774,"åĵį":1775,"è®®":1776,"ä¸Ķ":1777,"çº³":1778,"Ġes":1779,"Ġdiscu":1780,"Ġinterac":1781,"Ġcalcu":1782,"éĹ®é¢ĺ":1783,"ose":1784,"neq":1785,"Ġmagnetic":1786,"lti":1787,"Ġmeasure":1788,"å·®":1789,"Ġtheir":1790,")\\\\":1791,"æĪĲä¸º":1792,"ä¾Ľ":1793,"æĻ®":1794,"çĥŃ":1795,"10":1796,"è´¨éĩı":1797,"Ġter":1798,"å®ļä¹ī":1799,"Ġder":1800,"'s":1801,"ling":1802,"Ġtempera":1803,"æ£":1804,"Ġflu":1805,"ron":1806,"nge":1807,"ä½ľçĶ¨":1808,"ç½®":1809,"Ġphase":1810,"ħåĨµ":1811,"æ°ĳ":1812,"çģ":1813,"ç²Ĵ":1814,"mensional":1815,"Ġfir":1816,"å¾ģ":1817,"æĬĬ":1818,"Ġbeen":1819,"duced":1820,"Ġprovi":1821,"èĩ³":1822,"ç¬¦":1823,"ise":1824,"\\{\\":1825,"æīĢæľī":1826,")]":1827,"éĴ":1828,"long":1829,"ess":1830,"Ġif":1831,"tter":1832,"Ġ&\\":1833,"Ġsing":1834,"istic":1835,"è®¤":1836,"ffici":1837,"Ġfirst":1838,"å¾Ī":1839,"out":1840,"æ²»":1841,"binom":1842,"oplus":1843,"Ġlarge":1844,"å®ī":1845,"ie":1846,"Ġspectr":1847,"Ġdifferent":1848,"äº§çĶŁ":1849,"ive":1850,"åı¤":1851,"éľĢ":1852,"åıĤæķ°":1853,"åħ¶ä»ĸ":1854,"Ġboth":1855,"Ġcase":1856,"åĽĽ":1857,"Ġdiscuss":1858,"åĳĺ":1859,"ration":1860,"cle":1861,"gebra":1862,"sis":1863,"éĺ¶":1864,"mid":1865,",\\\\":1866,"é¢Ĩ":1867,"ctive":1868,"åį¡":1869,"æī©":1870,"çĹ":1871,"æĶ¹":1872,"Ġproperties":1873,"é¡¹":1874,"æĴ":1875,"çĶ¨äºİ":1876,"dition":1877,"çİĭ":1878,")^{\\":1879,"Ġty":1880,"Ġgiv":1881,"dis":1882,"/\\":1883,"Ġdensity":1884,"æ¯ı":1885,"æ¸©":1886,"bility":1887,"Ġout":1888,"Th":1889,"Ġbound":1890,"ï¼Ľ":1891,"ins":1892,"Ġsimu":1893,"Ġdepend":1894,")-\\":1895,"|_{":1896,"ral":1897,"}[":1898,"Ġ|\\":1899,"Ġmethod":1900,"çĶ»":1901,"è¿ĲåĬ¨":1902,"è±¡":1903,"Pi":1904,"èĥ½éĩı":1905,"æĹ¥":1906,"ov":1907,"tiga":1908,"ç»Ń":1909,"tal":1910,"Ġdete":1911,"å¯¹ç§°":1912,"ç®¡":1913,"ç¥ŀ":1914,"çŁ¥":1915,"åĪĨå¸ĥ":1916,"çļĦä¸Ģ":1917,"æ±Ĥ":1918,"qquad":1919,"ç§»":1920,"åħ¸":1921,"Ġstructure":1922,"}}{\\":1923,"çŁ©":1924,"vestiga":1925,"ved":1926,"sing":1927,"fe":1928,"Ġta":1929,"Ġsystems":1930,")}{\\":1931,"mathsf":1932,"æ¼Ķ":1933,"æ²¡":1934,"Ġdeter":1935,"Ġother":1936,"éŁ³":1937,"25":1938,"Ġgen":1939,")_":1940,"Ġst":1941,"under":1942,"ers":1943,"ç±³":1944,"å¢ŀ":1945,"Ġprocess":1946,"é¢Ħ":1947,"Vert":1948,"å½±åĵį":1949,"ized":1950,"å°ĳ":1951,"tential":1952,"eV":1953,"forall":1954,"ĠIt":1955,"ç»Ĩ":1956,"Ġuse":1957,"quen":1958,"Ġstates":1959,"own":1960,"Ġused":1961,"çĬ¶æĢģ":1962,"Ġobserved":1963,"å¤ª":1964,"ld":1965,"ä¸ľ":1966,"éĩıåŃĲ":1967,"mission":1968,"æıı":1969,"Ġmulti":1970,"çĶ±äºİ":1971,"æĮģ":1972,"]\\":1973,"Ġinvestiga":1974,"}{(":1975,".\\":1976,"åĥ":1977,"]=":1978,"ish":1979,"Ġonly":1980,"Ġfe":1981,"åħ¶ä¸Ń":1982,"åĽ´":1983,"åħ³ç³»":1984,"ack":1985,"Ġanalys":1986,"<\\":1987,"Ġcoup":1988,"Ġ6":1989,"åĨĻ":1990,"Ġanaly":1991,"Ġelectr":1992,"åıĮ":1993,"Ġdistribution":1994,"yn":1995,"æ¡Ī":1996,"ures":1997,"åĲ«":1998,"Ġinto":1999,"å·ŀ":2000,"ngth":2001,"-(":2002,"Ġ}\\":2003,"åİĭ":2004,"Ġbased":2005,"è®°":2006,"Ġsol":2007,"Ġæĺ¯":2008,"è®¨":2009,"æ´²":2010,"èħ":2011,"Ġ5":2012,"Ġset":2013,"Ġsmal":2014,"Ġup":2015,"åĽłæŃ¤":2016,"old":2017,"æģĴ":2018,"io":2019,"Ġclo":2020,"æĿĥ":2021,"åģĩ":2022,"Ġobtained":2023,"ĠFor":2024,"çĶµåŃĲ":2025,"éĢŁåº¦":2026,"Ġlocal":2027,"\\|_{":2028,"sic":2029,"æĮ¯":2030,"åĽŀ":2031,"Ġcompu":2032,"Ġcharac":2033,"åĭ":2034,"utr":2035,"Ġpossi":2036,"åĳ¨":2037,"oci":2038,"è§Ĥæµĭ":2039,"Ġ8":2040,"Ġhy":2041,"dag":2042,"Ġwhen":2043,"Ġapproach":2044,"Ġbut":2045,"åĸ":2046,"Ġ\\([":2047,"èĻĳ":2048,"è¡¨æĺİ":2049,"rop":2050,"æĭŁ":2051,"Ġfound":2052,"Ġä¸Ń":2053,"åĳ½":2054,"Ġtemperature":2055,"Ġpho":2056,"16":2057,"Ġmore":2058,"Ġstrong":2059,"åĪĿ":2060,"Ġdx":2061,"lated":2062,"å¯Ĩåº¦":2063,"tis":2064,"ill":2065,"é¢ĳ":2066,"èĮĥ":2067,"ä¸ĬçļĦ":2068,"Ġesti":2069,"éħį":2070,"Ġpotential":2071,"¨Ģ":2072,"mental":2073,"èĴ":2074,"æĿ¡ä»¶":2075,"åĥı":2076,"ving":2077,"Ġsymme":2078,"èĬĤ":2079,"gor":2080,"å½¢å¼ı":2081,"ä½ľä¸º":2082,"æĶ¶":2083,"Theta":2084,"è¶³":2085,"éĩįè¦ģ":2086,")_{":2087,"å®¹":2088,"=(":2089,"Ġproblem":2090,"æ´»":2091,"Ġsour":2092,"Ġform":2093,"!\\":2094,"'_":2095,"atter":2096,"({\\":2097,"å°±æĺ¯":2098,"tivity":2099,"å±±":2100,"ä¼¦":2101,"è¡¨ç¤º":2102,"ological":2103,"med":2104,"è¨Ģ":2105,"ä»¤":2106,"Ġclus":2107,"ang":2108,"):=":2109,"Ġinclu":2110,"Ġtheore":2111,"erical":2112,"ism":2113,"è¿ĩç¨ĭ":2114,"round":2115,"é¡¿":2116,"åī§":2117,"Ġthere":2118,"}\\\\":2119,"éĻ¤":2120,"respon":2121,"tent":2122,"Ġexis":2123,"Ġste":2124,"Ġ_":2125,"å¥¥":2126,"formation":2127,".,":2128,"æŁĲ":2129,"au":2130,"Ġalgebra":2131,"mics":2132,"Ġass":2133,"Ġ,\\)":2134,"åł":2135,"æ²¡æľī":2136,"æīĭ":2137,"Ġanalysis":2138,"=-":2139,"ermi":2140,"å¸Ĥ":2141,"gre":2142,"å®ŀéªĮ":2143,"nel":2144,"å²Ľ":2145,"æ³¨":2146,"åĿĩ":2147,"sim":2148,"éĤ£ä¹Ī":2149,"çŁ©éĺµ":2150,"éĻħ":2151,"vely":2152,"æıĲä¾Ľ":2153,"å®ĥä»¬":2154,"Ġconstr":2155,"Ġge":2156,"subset":2157,"æİĴ":2158,"è¿Ļä¸Ģ":2159,"Ġfinite":2160,"äº¦":2161,"èĢĥèĻĳ":2162,"Ġmay":2163,"é»ĳ":2164,"æĺĵ":2165,"å½¢æĪĲ":2166,"det":2167,"Ġresult":2168,"Ġphy":2169,"face":2170,"åŁİ":2171,";\\;\\":2172,"çŁ³":2173,"ç¢":2174,"è§ģ":2175,"wa":2176,"æŃ¥":2177,"Ġclassi":2178,"èİ·å¾Ĺ":2179,"gen":2180,"Ġparticular":2181,"èĪ¬":2182,"13":2183,"ĠOur":2184,"mical":2185,"åį°":2186,"Ġdire":2187,"Ġ\"":2188,"å¨":2189,"å£«":2190,"Ġ7":2191,"xies":2192,"ç½ĳ":2193,"|^{":2194,"ä¹Ĳ":2195,"Ġ:":2196,"çī©çĲĨ":2197,"ance":2198,"bi":2199,"ple":2200,"+(":2201,"Ġkn":2202,"Ġany":2203,"å¹¿":2204,"æĶ¯":2205,"zed":2206,"ç²ĴåŃĲ":2207,"):=\\":2208,"è£ħ":2209,"Ġso":2210,"å¸Į":2211,"å¾ĭ":2212,"ç´¢":2213,"depend":2214,"Ġ>":2215,"éĩĬ":2216,"ese":2217,"Ġequation":2218,"è®¨è®º":2219,"Ġspect":2220,"èº":2221,"Ġcorrespon":2222,"åħīè°±":2223,"Ġ9":2224,"Ġneutr":2225,"çĭ¬":2226,"å¾ĹåĪ°":2227,"åľĨ":2228,"çĽ¸åħ³":2229,"è¾ĵ":2230,"\\,\\":2231,")/":2232,"Ġer":2233,"Ġreal":2234,"çĮ":2235,"äºī":2236,"ormal":2237,"Ġstudi":2238,"é²":2239,"form":2240,"Ġgenera":2241,"Ġgroup":2242,"å°º":2243,"Ġestima":2244,"^-":2245,"tro":2246,"çľĭ":2247,"fied":2248,"æĸŃ":2249,"éľĢè¦ģ":2250,"ues":2251,"çº¢":2252,"Ġstars":2253,"Ġdu":2254,"Ġrecent":2255,"sor":2256,"ç¡®å®ļ":2257,")=(":2258,"ä¸ĸçķĮ":2259,"è·Ŀ":2260,"ix":2261,"rough":2262,"Ġä»¬":2263,"Ġsingle":2264,"ä¼Ĭ":2265,"ä¸ĢäºĽ":2266,"æĳ":2267,"Ġgalaxies":2268,"æŀĹ":2269,"å¼ł":2270,"gorith":2271,"æııè¿°":2272,"Ġwas":2273,"dagger":2274,"Ġlinear":2275,"mize":2276,"æĹı":2277,"limit":2278,"Ġclass":2279,"éĻ¢":2280,"åĪĽ":2281,"Ġallow":2282,"æ¢":2283,"è§£åĨ³":2284,"]\\)":2285,"Ġwave":2286,"å¾Ħ":2287,"éĢĤ":2288,"Ġprodu":2289,"ä¾Ŀ":2290,"Ġconsider":2291,"Ġgiven":2292,"_*":2293,"tively":2294,"dfrac":2295,"èĭ±åĽ½":2296,"Ġ^{":2297,"Ġrepres":2298,"æĺŁç³»":2299,"dim":2300,"èº«":2301,"æĥ³":2302,"Ġemission":2303,"ä¸»ä¹ī":2304,"gree":2305,"ler":2306,"åĪĩ":2307,"æĿĤ":2308,"æł¹æį®":2309,"tra":2310,"Ġthen":2311,"ced":2312,"Ġspeci":2313,"åĨį":2314,"sed":2315,"Ġ(-":2316,"è®¸å¤ļ":2317,"tically":2318,"}}\\)":2319,"ç²¾":2320,"Ġelectron":2321,"æĹĭè½¬":2322,"verse":2323,"enu":2324,"ability":2325,"æİ¨":2326,"Ġfunctions":2327,"ia":2328,"wer":2329,"Ġbeha":2330,"ature":2331,"Ġterms":2332,"city":2333,"ints":2334,"åĵĪ":2335,"Ġhow":2336,"ross":2337,"Ġpoint":2338,"Ġconsis":2339,"èĭ¥":2340,"son":2341,"åĩı":2342,"è¥¿åħĥ":2343,"é£İ":2344,"val":2345,"åľ£":2346,"Ġlimit":2347,"twork":2348,"Ġfre":2349,"Ġshown":2350,"Ġprop":2351,"æļ":2352,"cond":2353,"tur":2354,"Ġä¸º":2355,"Ġparameters":2356,"å¼Ģå§ĭ":2357,"éĺŁ":2358,"ä¼°":2359,"åı¸":2360,"çłģ":2361,"å¿ħ":2362,"Ġalgorith":2363,"ption":2364,"Ġregi":2365,"_-":2366,"åħĥç´ł":2367,"Ġevolution":2368,"Ġapproxi":2369,"Ġderiv":2370,"Ġmin":2371,"ä¼¯":2372,"å¥½":2373,"ven":2374,"æ¹":2375,"Ġä¸ª":2376,"tance":2377,"Ġcos":2378,"æ¤":2379,"llar":2380,"}_\\":2381,"çĵ":2382,"osed":2383,"olutions":2384,"å¤«":2385,"æĵ":2386,"çĽ¸å¯¹":2387,"ever":2388,"ä¹ĭéĹ´çļĦ":2389,"éĽ¶":2390,"åı²":2391,"åı¦":2392,"è§Ĩ":2393,"å¤±":2394,"velop":2395,"Ġequations":2396,"perp":2397,"æĦŁ":2398,"åĽº":2399,"play":2400,"Ġwork":2401,"rent":2402,"merate":2403,"Ġchar":2404,"çī¹æĢ§":2405,"Ġsign":2406,"zation":2407,"åıĺåĮĸ":2408,"}},":2409,"Ġsimple":2410,"bigr":2411,"vious":2412,"Ġcom":2413,"asi":2414,"fficient":2415,"inu":2416,"Ġelect":2417,"bigl":2418,"æľª":2419,"å¯Ł":2420,"enumerate":2421,"æĸĻ":2422,"çĽ¸äºĴ":2423,"ac":2424,"22":2425,"}),":2426,"è¯ķ":2427,"çĸ":2428,"Ġæľī":2429,"lack":2430,"çŁ¢":2431,"Ġsmall":2432,"',":2433,"Ġ\\\\&":2434,"æİ¢":2435,"Ġmean":2436,"Ġvery":2437,"mpli":2438,"æ¬§":2439,"Ġthree":2440,"åİŁåŃĲ":2441,"ç¬¬ä¸Ģ":2442,"éĺħ":2443,"redic":2444,"åķ":2445,"ag":2446,"dependent":2447,"=-\\":2448,"minus":2449,"ology":2450,"Ġprob":2451,"Ġdetermin":2452,"Ġcri":2453,"çĻ½":2454,"ä»ĭ":2455,"Ġincre":2456,"Ġwill":2457,"çļĦæĺ¯":2458,"Ġdeca":2459,"mes":2460,"æ´Ľ":2461,"åĬ¿":2462,"CD":2463,"Ġtransition":2464,"Ġä»¥":2465,"itemize":2466,"cou":2467,"Ġappli":2468,"Ġsh":2469,"})=\\":2470,"Ġmecha":2471,"Ġbehavi":2472,"Ġgraph":2473,"II":2474,":\\":2475,"tice":2476,"å®ĩ":2477,"åºľ":2478,",\\,\\":2479,"Ġiden":2480,"tio":2481,"Ġoperator":2482,"å®Ļ":2483,"Ġ\\\\\\":2484,"Ġcomplex":2485,"è¯º":2486,"çīĩ":2487,"æĸĩä»¶":2488,"ä»ĸçļĦ":2489,"ĠHe":2490,"åĽ½å®¶":2491,"Ġnetwork":2492,"Ġeffect":2493,"Ġmost":2494,"ä»»ä½ķ":2495,"ene":2496,"igni":2497,"ented":2498,"Ġ\\(\\{":2499,"],":2500,"åĭĴ":2501,"ç¼ĸ":2502,"14":2503,"æ´¾":2504,"èį·":2505,"pre":2506,"æĹ©":2507,"Ġobservations":2508,"Ġä¸Ģ":2509,"Ġve":2510,"Ġbi":2511,"iant":2512,"åĽłä¸º":2513,"ĠRe":2514,"åĬŁèĥ½":2515,"ars":2516,"ä»£æķ°":2517,"éĩĩ":2518,"setminus":2519,"umerical":2520,"éĢļå¸¸":2521,")}\\)":2522,"}}.":2523,")},":2524,"Ġassoci":2525,"}).":2526,"ĠThese":2527,"Ġdue":2528,"è¿ľ":2529,"Ġfields":2530,"Ġnear":2531,"æ¦Ĥ":2532,"less":2533,"Ġintro":2534,"stant":2535,"æĽ¾":2536,"ize":2537,"comp":2538,"not":2539,"æĽ¼":2540,"inf":2541,"ero":2542,"Ġnucle":2543,"gges":2544,"')":2545,"åİ»":2546,"éĩıçļĦ":2547,"Ġprove":2548,"Ġrange":2549,"åĲİæĿ¥":2550,"å¹²":2551,"æĿŁ":2552,"åľ°åĮº":2553,"Ġtech":2554,"Ġpredic":2555,"ctors":2556,"Ġeffects":2557,"mbin":2558,"ignific":2559,"åĬ¨æĢģ":2560,"åģļ":2561,"ç®Ģåįķ":2562,"Ġdefin":2563,"las":2564,"Ġdevelop":2565,"am":2566,"ç§°ä¸º":2567,"ns":2568,"yle":2569,"èı":2570,"ä½ĵçļĦ":2571,"ä¿®":2572,"ç±»åŀĭ":2573,"ru":2574,"Ġlat":2575,"Ġcoupling":2576,"Ġsolutions":2577,"ditions":2578,"20":2579,"vity":2580,"Ġdynamics":2581,"Ġexten":2582,"ject":2583,"Ġpossible":2584,"cop":2585,"Ġpower":2586,"çı":2587,"))\\":2588,"Ġeach":2589,"æ³ķåĽ½":2590,"Ġsugges":2591,"Ġconstra":2592,"æĥħåĨµ":2593,"çĽĺ":2594,"ros":2595,"å¡ŀ":2596,"que":2597,"å¤´":2598,"stack":2599,"åĶ":2600,"ors":2601,"åĽ¢":2602,"åľŁ":2603,"Ġformu":2604,"}|\\":2605,"åĿĲ":2606,"milar":2607,"act":2608,"fy":2609,"ç¬¬äºĮ":2610,"å¤§çļĦ":2611,"æłĩåĩĨ":2612,"ndard":2613,"textrm":2614,"æĸ¹åĲĳ":2615,"Ġwithin":2616,"tfrac":2617,"å¿µ":2618,"Ġgas":2619,"Ġmatter":2620,"sical":2621,"Ġdimension":2622,"å±ħ":2623,"Ġsurface":2624,"ä»»æĦı":2625,"çļĦæĥ":2626,"ĠAs":2627,"å¨ģ":2628,"çĹħ":2629,"åİĨ":2630,"fer":2631,"Ġgeome":2632,"å¤Ł":2633,"Ġsignific":2634,"éĻĲåĪ¶":2635,"Ġcompare":2636,"åĩºçİ°":2637,"Ġrate":2638,"Ġgive":2639,"åĩ»":2640,"åĪĨåŃĲ":2641,"è´Ŀ":2642,"Ġtra":2643,"Ġconditions":2644,"æģĴæĺŁ":2645,"ew":2646,"æ»¡":2647,"75":2648,"ĠäºĨ":2649,"{-":2650,"åıĤéĺħ":2651,"èĲ¨":2652,"\\;":2653,"ny":2654,"Ġprevious":2655,"å¯¼èĩ´":2656,"((":2657,"å¥³":2658,"ä¸ĢèĪ¬":2659,"Ġ~":2660,"lecu":2661,"æĺ¯ä¸Ģä¸ª":2662,"åģĩè®¾":2663,"ä»ħ":2664,"Ġtype":2665,"æģ¯":2666,"Ġspectrum":2667,"Ġæķ°":2668,"å£°":2669,"Ġnumerical":2670,"ä¹¦":2671,"åºķ":2672,"dic":2673,"åĿĹ":2674,"^*(":2675,"Ġrespe":2676,"tational":2677,"³å®ļ":2678,"Ġfu":2679,"Ġmic":2680,"è®¤ä¸º":2681,"ä¾ĭå¦Ĥ":2682,"Ġsame":2683,"hift":2684,"qui":2685,"24":2686,"\\}.":2687,"Ġthrough":2688,"è½¨":2689,"Ġparameter":2690,"èĩªçĶ±":2691,"å®ĩå®Ļ":2692,"åĲ¸":2693,"çī¹åĪ«":2694,"âĢľ":2695,"Ġtherm":2696,"cor":2697,"Re":2698,"âĢĿ":2699,"åįł":2700,"çª":2701,"è°ĥæŁ¥":2702,"15":2703,"trac":2704,"Ġformation":2705,"late":2706,"turb":2707,"åĩºäºĨ":2708,"èĭı":2709,"Ġpri":2710,"tional":2711,"eld":2712,"operator":2713,"æłĳ":2714,"åķĨ":2715,"23":2716,"'\\":2717,"Ġvel":2718,"66":2719,"åıĳçĶŁ":2720,"éĹ¨":2721,"war":2722,",-":2723,"ç¼©":2724,"flo":2725,"åŁºæľ¬":2726,"vers":2727,"å¡Ķ":2728,"Ġcompon":2729,"tan":2730,"åĬĽåŃ¦":2731,"åĨ²":2732,"Ġsolution":2733,"underline":2734,"äºĶ":2735,")}=":2736,"åĬ¡":2737,"roma":2738,"åı¶":2739,"ik":2740,"lue":2741,"åĵ¥":2742,"pu":2743,"Ġcurrent":2744,"brac":2745,"ness":2746,"èĬ±":2747,"åįı":2748,"ç«¯":2749,"Ġconf":2750,"ä¸Ńå¿ĥ":2751,"æĵį":2752,"Ġlight":2753,"éº":2754,"pt":2755,"Ġ,\\":2756,"çī©è´¨":2757,"tations":2758,"ä»·":2759,"Ġoptical":2760,"tant":2761,"ning":2762,"¬¬":2763,"æľĢåĲİ":2764,"name":2765,"çľŁ":2766,"display":2767,"Ġsecond":2768,"Ġato":2769,"SS":2770,"cting":2771,"ody":2772,"åĬ©":2773,"ctu":2774,"æİ§":2775,"å»ºç«ĭ":2776,"ç»ĩ":2777,"éĺ¶æ®µ":2778,"ç»ĦæĪĲ":2779,"style":2780,"æĻ¯":2781,"Ġtechni":2782,"floor":2783,"dered":2784,"å®Ĺ":2785,"17":2786,"è¿ŀç»Ń":2787,"éĻĦ":2788,"çīĻ":2789,"Ġabout":2790,"Ġmechan":2791,"ndom":2792,"éĵģ":2793,"))=":2794,"pace":2795,"Ġsupp":2796,"åģı":2797,"è¿ĻéĩĮ":2798,"çīĪ":2799,"Ġdemon":2800,"displaystyle":2801,"ality":2802,"sive":2803,"operatorname":2804,"Ġä¸İ":2805,"é£Ł":2806,"Ġsen":2807,"ä½ľåĵģ":2808,"ks":2809,"æľį":2810,"Ġprovide":2811,"})^{":2812,"å·¥ä½ľ":2813,"Ġregion":2814,"èīº":2815,"åº¦çļĦ":2816,"ner":2817,"æīĢä»¥":2818,"åĮºåŁŁ":2819,"Ġknown":2820,"åħ¬éĩĮ":2821,"ä»ĸä»¬":2822,"Ġblack":2823,"åŁĥ":2824,"Ġinteraction":2825,"å¥ĩ":2826,")(\\":2827,"sp":2828,"Ġpair":2829,"ely":2830,"ase":2831,"Ġsignificant":2832,"elf":2833,"å¾Ģ":2834,"itu":2835,"Ġlevel":2836,"èµĸ":2837,"Ġplane":2838,"æ¨¡æĭŁ":2839,"Ġvalues":2840,"}}=":2841,"è¯Ĺ":2842,"ç»ľ":2843,"æľīéĻĲ":2844,"Ġtop":2845,"ric":2846,"Ġdt":2847,"åºĶçĶ¨":2848,"top":2849,"åħļ":2850,"{|":2851,"æĸ°çļĦ":2852,"Ġpolar":2853,"ĠXray":2854,"å®Įåħ¨":2855,"æīĺ":2856,"æĬ¥":2857,"ating":2858,"Ġ^":2859,"Ġdescrib":2860,"Ġmini":2861,"åĿĲæłĩ":2862,"\\}\\)":2863,"æľĪ":2864,"Ġmain":2865,"çĪ±":2866,"åĪ°çļĦ":2867,"Ġmeasurements":2868,"éĿŀå¸¸":2869,"å¢ĥ":2870,"18":2871,"èĦī":2872,"Ġvalue":2873,"|=":2874,"Ġcontinu":2875,"Ġfol":2876,"å¸Ŀ":2877,"vee":2878,"åħ³äºİ":2879,"æ½":2880,"Ġmodu":2881,"one":2882,"Ġ\\((\\":2883,"Ġweak":2884,"up":2885,"ä¹İ":2886,"æŃ»":2887,"est":2888,"Ġå¹¶":2889,"Ġwere":2890,"duce":2891,"è§£éĩĬ":2892,"ertain":2893,"bigcup":2894,"Ġfrequen":2895,"è¡¨éĿ¢":2896,"éĵ¶":2897,"urther":2898,"æĺł":2899,"nif":2900,"è½´":2901,"èĮĥåĽ´":2902,"Ġimpor":2903,"bri":2904,"attering":2905,"ĠLa":2906,"Ġassociated":2907,"sitive":2908,"Ġlong":2909,"lumin":2910,"Ġconstant":2911,"Ġlin":2912,"fication":2913,"ä¸Ģèĩ´":2914,"Ġinvestigate":2915,"_{+":2916,"Ġmaxi":2917,"Ġsimulations":2918,"æĬĢ":2919,"æ¶Ī":2920,"00":2921,"strate":2922,"Ġclassical":2923,"æĢ§çļĦ":2924,"ç¤¾":2925,")}_{":2926,"åħ¬åı¸":2927,"çī¹å¾ģ":2928,"ative":2929,")}.":2930,"Ġsupercon":2931,"åħħ":2932,"è¾Ĳ":2933,"uge":2934,"ocity":2935,"ç®Ĺæ³ķ":2936,"sian":2937,"king":2938,"æ¨¡å¼ı":2939,"Ġrandom":2940,"omi":2941,"cations":2942,"mum":2943,"æľ¨":2944,"Ġ$":2945,"tics":2946,"nnel":2947,"Ġmolecu":2948,"Ġthey":2949,"éĻį":2950,"cil":2951,"ber":2952,"Ġäºİ":2953,"Ġline":2954,"çĽ´æİ¥":2955,"Ġlattice":2956,"})^":2957,"Ġsho":2958,"çļĦç»ĵæŀľ":2959,"ough":2960,"ç¿":2961,"æĸ¹éĿ¢":2962,"}^{*":2963,"è¡Įä¸º":2964,")!":2965,"ural":2966,"Ġini":2967,"'}":2968,"arch":2969,"ctic":2970,"We":2971,"Ġidenti":2972,"åĿ¦":2973,"ĠCo":2974,"xx":2975,"ele":2976,"Ġinformation":2977,"Ġima":2978,"Ġframe":2979,"Ġexperimental":2980,"å±Ģ":2981,"^{(\\":2982,"è¡°":2983,"è§Ĥå¯Ł":2984,"Ġcorresponding":2985,"sions":2986,"ay":2987,")&=":2988,"ev":2989,"åıĪ":2990,"ppe":2991,"éĶ®":2992,"Ġcluster":2993,"æ··":2994,"inci":2995,"veral":2996,"éĵ¾":2997,"sto":2998,"Ġcross":2999,"box":3000,"Ġcombin":3001,"ç§¯åĪĨ":3002,"éĥ½æĺ¯":3003,"Ġfla":3004,"by":3005,"äººåı£":3006,"åıĳå±ķ":3007,"Ġspectral":3008,"èĨ":3009,"roscop":3010,"Ġscale":3011,"Ġflow":3012,"Ġaddition":3013,"¿Ģ":3014,"Ġstudied":3015,"Ġdark":3016,"Ġeffective":3017,"}{|":3018,"æ¯ıä¸ª":3019,"è·Ŀç¦»":3020,"Ġbin":3021,";\\;":3022,"Ġem":3023,"variant":3024,"nal":3025,"Ġéĩı":3026,"ä»į":3027,"ki":3028,"tein":3029,"çĻ¾":3030,"æľĢå¤§":3031,"Ġfrac":3032,"if":3033,"Ġback":3034,"Ġsimilar":3035,"é²ģ":3036,"ĠçĶ¨":3037,"As":3038,"Ġmany":3039,"Ġalgorithm":3040,"è´Ł":3041,"åĩłä½ķ":3042,"çĵ¦":3043,"ods":3044,"è¯·":3045,"}}_{":3046,"Ġperfor":3047,"bl":3048,"æľ¬æĸĩ":3049,"Ġå¯¹":3050,"}^{+":3051,"è¶Ĭ":3052,"mine":3053,"åĪ©çĶ¨":3054,"åĲĳéĩı":3055,"ç»§":3056,"19":3057,"æĸ¹å¼ı":3058,"ntial":3059,"Ġproposed":3060,"åºĵ":3061,"Ġseveral":3062,"æŃ¢":3063,"{{\\":3064,"å³":3065,"Ġgo":3066,"hbar":3067,"Ġbu":3068,"æĿĲ":3069,"Ġsymmetry":3070,"Ġmoment":3071,"æµİ":3072,"æĸ¹æ¡Ī":3073,"igin":3074,"å®½":3075,"Ġcritical":3076,"Ġconne":3077,"å¥¹":3078,"é¡º":3079,"like":3080,"æ´ŀ":3081,"çķ¥":3082,"Ġconstru":3083,"dz":3084,"è¡¡":3085,"Fe":3086,"}\\|":3087,"Ġcharacter":3088,"}\\,\\":3089,"Ġreson":3090,"é¡¶":3091,"å¸Ī":3092,"ç¨³å®ļ":3093,"let":3094,"use":3095,"Ġexpla":3096,"Ġindic":3097,"çŁŃ":3098,"æ¸©åº¦":3099,"sics":3100,"ĠåŃĲ":3101,"åıĺéĩı":3102,"Ġmatrix":3103,"åıĺæį¢":3104,"mples":3105,"Ġcontribu":3106,"Ġquanti":3107,"ä¹ĺ":3108,"å¿«":3109,"ä¸įæĺ¯":3110,"æĽ²çº¿":3111,"é¢Ħæµĭ":3112,"Ġpresented":3113,"iota":3114,"å®ĺ":3115,"ä»£è¡¨":3116,"Ġfactor":3117,"éĽ·":3118,"é¥":3119,"æĥħ":3120,"å¤§åŃ¦":3121,"çļ®":3122,"å¦":3123,"ä¸¤ç§į":3124,"Ġrequi":3125,"Ġscattering":3126,"]}":3127,"Ġos":3128,"æ¯Ķè¾ĥ":3129,"Ġrepresen":3130,"Ġopti":3131,"Ġè¿Ļ":3132,"Ġflux":3133,"Ġbehavior":3134,"æī°":3135,"ç»Ŀ":3136,"ord":3137,"çŁ¢éĩı":3138,"}}(\\":3139,"Ġcent":3140,"onal":3141,"Ġstellar":3142,"æ·±":3143,"ged":3144,"(-\\":3145,"åŁºäºİ":3146,"Ġau":3147,"æĭ©":3148,"dence":3149,"Ġeven":3150,"21":3151,"pose":3152,"å¹³åĿĩ":3153,"ĠGa":3154,"ino":3155,"Ġwhile":3156,"Ġsample":3157,"ä¼ĺ":3158,"Ġassu":3159,"çĽ¸åĲĮ":3160,"éķľ":3161,"å¹´ä»£":3162,"Ġful":3163,"ings":3164,"tence":3165,"å¤įæĿĤ":3166,"è¥¿åħĥåīį":3167,"Ġperi":3168,"Ġhigher":3169,"æ¶²":3170,"èµĦ":3171,"}})":3172,"æł¡":3173,"ropy":3174,"æľīæķĪ":3175,"blue":3176,"è¯Ĩ":3177,"ables":3178,")}_":3179,"è¯Ńè¨Ģ":3180,"Ġtimes":3181,"ker":3182,"Ġparticle":3183,"æŃĮ":3184,"va":3185,"isi":3186,"Ġexpe":3187,"Ġfollow":3188,"colon":3189,"}^*":3190,"tt":3191,"lli":3192,"Ġthose":3193,"Ġperturb":3194,"Ġinf":3195,"Ġstatis":3196,"Ġgalaxy":3197,"æĸ½":3198,"å¼±":3199,"ĠæĢ§":3200,"ep":3201,"Ġorigin":3202,"jk":3203,"Ġvelocity":3204,"ç»ĵåĲĪ":3205,"}/":3206,"Ġgauge":3207,"åĦ":3208,"green":3209,"ellow":3210,"ä¹ĭä¸Ģ":3211,"main":3212,"å½Ĵ":3213,"ç»Ī":3214,"].":3215,"å½ķ":3216,"èİ±":3217,"ses":3218,"èģļ":3219,"Ġæ¨¡":3220,"lin":3221,"è¾Ĳå°Ħ":3222,"å¼¹":3223,"éļıæľº":3224,"çļĦæĥħåĨµ":3225,"che":3226,"vera":3227,"Ġspectra":3228,"éĺ³":3229,"ential":3230,"Ġmanif":3231,"}}^{":3232,"gn":3233,"Ġstandard":3234,"Ġwho":3235,"éĩĳå±ŀ":3236,"çĽ¸äºĴä½ľçĶ¨":3237,"}\\}\\)":3238,"ä½įç½®":3239,"æ¤į":3240,"å·²ç»ı":3241,"çıŃ":3242,"ĠHa":3243,"å¢ŀåĬł":3244,"çļĦå¤§":3245,"æķĪåºĶ":3246,"æī¾":3247,"Ġ[\\":3248,"yellow":3249,"\\|\\":3250,"ii":3251,"Ġconsistent":3252,"blish":3253,"Ġhal":3254,"ä¿Ħ":3255,"_{[":3256,"èĩªçĦ¶":3257,"Ġsources":3258,"åħ¬å¼ı":3259,"Ġsize":3260,"æīį":3261,"å°Ħçº¿":3262,"æĵįä½ľ":3263,"im":3264,"éĿ©":3265,"æķ°åŃĹ":3266,"å¹³éĿ¢":3267,"Ġdirect":3268,"ful":3269,"finite":3270,"Ġdecay":3271,"Ġoscil":3272,"åĳĬ":3273,"Ġphysical":3274,"Ġphoto":3275,"Ġmagne":3276,"å®ļçļĦ":3277,"Ġsource":3278,"Ġinitial":3279,"ground":3280,"gs":3281,"Ġparticles":3282,"ĠãĢģ":3283,"Ġmix":3284,"Ġdiscussed":3285,"}=-":3286,"å§Ĩ":3287,"åı³":3288,"ymp":3289,"SO":3290,"ä¾¿":3291,"Ġtri":3292,"licit":3293,"brace":3294,"ticle":3295,"åŃ¦å®¶":3296,"Ġdiff":3297,"dimensional":3298,"è£Ĥ":3299,"Ġåº¦":3300,"æ³Ľ":3301,"Ġvector":3302,"ä¾Ŀèµĸ":3303,"Ġderived":3304,"ç³»æķ°":3305,"Ġsche":3306,"èĥĮ":3307,"éĢīæĭ©":3308,"çħ":3309,"work":3310,"çĳ":3311,"^{+":3312,"IR":3313,"è¿ŀæİ¥":3314,".)":3315,"çĭ¬ç«ĭ":3316,"Ġchannel":3317,"æĻ¶":3318,"vol":3319,"Ġband":3320,"èĳ":3321,"Ġlumin":3322,"æ¿Ģ":3323,"ĠåĪĨ":3324,"Ġlead":3325,"ä½įäºİ":3326,"Ġappe":3327,"åĲĮæĹ¶":3328,"Ġser":3329,"æľĢè¿ĳ":3330,"±»":3331,"mog":3332,"table":3333,"Ġcar":3334,")=-":3335,"Ġperiod":3336,"è¯¯":3337,"ä¼°è®¡":3338,"åħ¹":3339,"}}}":3340,")})":3341,"ç£ģåľº":3342,"~~~~":3343,"ç½Ĺé©¬":3344,"angle":3345,"Ġimportant":3346,"~\\":3347,"Ġ_{\\":3348,"orph":3349,"é¸":3350,"Ġtur":3351,"æī©å±ķ":3352,"å¤ĦçĲĨ":3353,"å°ģ":3354,"åĳ³":3355,"mn":3356,"order":3357,"åĤ":3358,"æĢ§è´¨":3359,"å·¦":3360,"rest":3361,"ĠMo":3362,"\\}\\":3363,"æ³¨æĦı":3364,"Ġquark":3365,"}&":3366,"Ġcharacteri":3367,"Ġmode":3368,"cho":3369,"å»¶":3370,"Ġcontro":3371,"çĤ¹çļĦ":3372,"è®¾è®¡":3373,"Ġampli":3374,"Ġtr":3375,"Ġlog":3376,"Ġfree":3377,"Ġnonlinear":3378,"æīĵ":3379,"Ġion":3380,"çļĦæĶ":3381,"ates":3382,"fore":3383,"æĶ¿åºľ":3384,"sla":3385,"çļĦæ¨¡":3386,"ç¡Ģ":3387,"Ġinteractions":3388,"dro":3389,"è½¨éģĵ":3390,"æİ§åĪ¶":3391,"åħ´":3392,"ä¸¥":3393,"éĹŃ":3394,"åĢĻ":3395,"è´¹":3396,"èĻ½":3397,"quence":3398,"Ġdeta":3399,"\\},":3400,"(|":3401,"æľĽ":3402,"åĩºçļĦ":3403,"ision":3404,"ä¿¡æģ¯":3405,"atures":3406,"æĸ¹ç¨ĭå¼ı":3407,"ç±»ä¼¼":3408,"ax":3409,"æĪĲçļĦ":3410,"Ġpresence":3411,"ky":3412,"Ġcosm":3413,"åĲ¦":3414,"tin":3415,"Ġå¤§":3416,"åĲĦç§į":3417,"ä»Ģ":3418,"83":3419,"èŀ":3420,"ä¸´":3421,"æŀ¶":3422,"ĠHow":3423,"åºıåĪĹ":3424,"æľīåħ³":3425,"ä¸ºäºĨ":3426,"Ġdependence":3427,"nk":3428,"Ġzero":3429,"Ġmethods":3430,"èĲ½":3431,"è¯Ħ":3432,"Ġpr":3433,"Ġdynamical":3434,"Ġmetal":3435,"Ġexact":3436,"åŁºç¡Ģ":3437,"å¤ĩ":3438,"ç»ĦåĲĪ":3439,"AB":3440,"ĠUsing":3441,"Ńī":3442,"æ£®":3443,"åĮħåĲ«":3444,"ynomi":3445,"Ġpe":3446,"åįķä½į":3447,"Ġcomplete":3448,"ä»ª":3449,"ĠAn":3450,"äºĨä¸Ģä¸ª":3451,")}}":3452,"å¼ķåĬĽ":3453,"Ġsepa":3454,"igu":3455,"å¯Į":3456,"å¯¹åºĶ":3457,"åĳ¨æľŁ":3458,"alle":3459,"ympto":3460,"Ġear":3461,"Ġfluctu":3462,"Ġboundary":3463,"åĨ·":3464,"Ġhole":3465,"ST":3466,"Ġdisk":3467,"ä¸ĩ":3468,"Ġlower":3469,"fter":3470,"Ġmon":3471,"oun":3472,"Ġpul":3473,"è®©":3474,"Ġbel":3475,"Ġcertain":3476,"æĪĺäºī":3477,"åĬ¨çī©":3478,"Ġexpres":3479,"éĢı":3480,"Ġten":3481,"vartheta":3482,"ads":3483,"ĠAl":3484,"tangle":3485,"çĮ®":3486,"è¡Ģ":3487,"èģĮ":3488,"ä¹Łæĺ¯":3489,"Ġlength":3490,"\\}.\\)":3491,"The":3492,"};":3493,"ĠSu":3494,"nding":3495,"bo":3496,"çļĦç¬¬":3497,"Ġent":3498,"Ġfo":3499,"romagnetic":3500,"è¿Ļæł·":3501,"ç»ıæµİ":3502,"Ġdia":3503,"æĬ¤":3504,"rence":3505,"åĲī":3506,"deg":3507,"æ½ľ":3508,"ä¹ł":3509,"Ġ\\}":3510,"back":3511,"Ġpi":3512,"ç»Ħç»ĩ":3513,"èĥ½å¤Ł":3514,"æ£Ģ":3515,"Ġdescribe":3516,"æŃ¤å¤ĸ":3517,"gu":3518,"333":3519,"Ġrelated":3520,"å¤§åĪ©":3521,"èĹ":3522,"sure":3523,"we":3524,"æ¸¸":3525,"\\,.\\)":3526,"æ»¡è¶³":3527,"åĪĨåĪ«":3528,"uring":3529,"emp":3530,"\\\\\\":3531,"åĮĸåŃ¦":3532,"ä¸įåĲĮçļĦ":3533,"omen":3534,"è¡¨è¾¾":3535,"éĩĩçĶ¨":3536,"Ġcondition":3537,"æĹ¶æľŁ":3538,"Ġexperiments":3539,"å·¨":3540,"Ġratio":3541,"}}=\\":3542,"æ»ĳ":3543,"Ġcontain":3544,"Ġagree":3545,"è¯į":3546,"Ġæİ":3547,"Ġderive":3548,"èµĽ":3549,"|_":3550,"èĸ":3551,"çĶµèį·":3552,"é¡»":3553,"Ġstre":3554,"ymmetric":3555,"slant":3556,"av":3557,"éĿĻ":3558,"æķ°éĩı":3559,"Ġed":3560,"Ġtre":3561,"oint":3562,"}=(":3563,"æĭ¿":3564,"Ġerr":3565,"_{-\\":3566,"åĪ»":3567,"Ġrelation":3568,"Ġcorrelation":3569,"Ġ\\(\\|":3570,"æĬĢæľ¯":3571,"Ġfour":3572,"åı°":3573,"Ġaccu":3574,"åĦ¿":3575,"Ġincluding":3576,"æĢĿ":3577,"Ġexplo":3578,"ĠHowever":3579,"34":3580,"Ġ}{":3581,"çŃĳ":3582,"Ġpart":3583,"quare":3584,"èĪŀ":3585,"Ġcoe":3586,"äºİå¹´":3587,"\\|_":3588,"substack":3589,"onic":3590,"èĴĻ":3591,"çļĦå½±åĵį":3592,"éº¦":3593,"Ġexistence":3594,"ä»Ĭ":3595,"æĬĹ":3596,"Ġds":3597,"appro":3598,"åľ¨å¹´":3599,"å±ķç¤º":3600,"æľŁéĹ´":3601,"Ġtheoretical":3602,"æĳ©":3603,"Ġprocesses":3604,"lying":3605,"ove":3606,"hbox":3607,"å¦Ĥä½ķ":3608,"Bigr":3609,"æĤ":3610,"Ġmedi":3611,"Ġexpon":3612,"{{":3613,"Ġaccou":3614,"normal":3615,"æĪĳä»¬çļĦ":3616,"Ġfrequency":3617,"vmatrix":3618,"åĨľ":3619,"å°½":3620,"ç¦»åŃĲ":3621,"äººçļĦ":3622,"gram":3623,"Ġsupercondu":3624,"xed":3625,"Ġexplicit":3626,"Ġdimensional":3627,"([":3628,"Ġcoll":3629,"Ġcontrol":3630,"Ġide":3631,")}=\\":3632,"ä½Ľ":3633,"Ġnat":3634,"Ġframework":3635,"éĻĨ":3636,"with":3637,"åıªæľī":3638,"Ġallows":3639,"^*\\":3640,"æķħ":3641,")=-\\":3642,"æĿ¿":3643,"çĽĸ":3644,"Ġemp":3645,"æĺłå°Ħ":3646,"\\|^":3647,"Ġgroups":3648,"Ġpolynomi":3649,"ryst":3650,"Ġgrow":3651,"ging":3652,"Ġconsidered":3653,"Ġgravi":3654,"Ġcompared":3655,"Ġobje":3656,"Ġexci":3657,"ç½ĳç»ľ":3658,"Ġphen":3659,"}(-":3660,"åįİ":3661,"tative":3662,"ccur":3663,"ä¸īä¸ª":3664,"Ġvarious":3665,"Ġet":3666,"Ġnan":3667,"ssive":3668,"Ġano":3669,"çļĦæİ":3670,"èĽ":3671,"æĿ¥è¯´":3672,"Ġorbit":3673,"åĪ¤":3674,"dshift":3675,"cur":3676,"Ġimpro":3677,"Ġä¸Ģä¸ª":3678,"çļĦçŁ":3679,"è¾¹çķĮ":3680,"lator":3681,"æĴŀ":3682,"()":3683,"Ġapproximation":3684,"27":3685,"Ġasympto":3686,"çļĦä¸Ģä¸ª":3687,"æĭħ":3688,"çº½":3689,"matic":3690,"åł¡":3691,"Ġcir":3692,"tonian":3693,"éĽĨåĲĪ":3694,"å®ļçĲĨ":3695,"Ġcharacteristic":3696,"duction":3697,"ï¼ļ":3698,"Ġshows":3699,"¯Ķ":3700,"çİ°åľ¨":3701,"Ġmasses":3702,"Ġcases":3703,"}({\\":3704,"è¿Ľè¡ĮäºĨ":3705,"æľĹ":3706,"Ġtransi":3707,"ussian":3708,"Ġprobability":3709,"ç¤¾ä¼ļ":3710,"Ġcould":3711,"éĶĻ":3712,"ind":3713,"åıįåºĶ":3714,"æ²¿":3715,"Ġradio":3716,"ĠéĹ´":3717,"å¹³è¡¡":3718,"å¤ªéĺ³":3719,"rary":3720,"å®ŀéĻħ":3721,"reak":3722,"ival":3723,"space":3724,")|^":3725,"æľĿ":3726,"çļĦæ¦Ĥ":3727,"type":3728,"igen":3729,"Bmatrix":3730,"Ġmeasured":3731,"Ġindependent":3732,"ç»Łæ²»":3733,"Ġconstruct":3734,"sible":3735,"çł´":3736,"åıĹåĪ°":3737,"å¹ħ":3738,"é¡ºåºı":3739,"com":3740,"Ġcalculations":3741,"64":3742,"Ġamplitu":3743,"çĶŁäº§":3744,"æĮī":3745,"è½»":3746,"æ¯į":3747,"è½¦":3748,"mil":3749,"Ġexpan":3750,"Ġscalar":3751,",..":3752,"ä½ı":3753,"ç´§":3754,"æī¿":3755,"Ġapplied":3756,"ori":3757,"Ġlumino":3758,"é¢ĳçİĩ":3759,"æ´ĭ":3760,"mann":3761,"Ġcharge":3762,"Ġphenomen":3763,"ç¨ĭåºı":3764,"Ġclusters":3765,"åĬ¨çļĦ":3766,"Ġexperiment":3767,"é£ŀ":3768,"})(":3769,"çīĽ":3770,"ilibri":3771,"ĠHere":3772,"çĦ¶åĲİ":3773,"Ġspatial":3774,"Bigl":3775,"}'":3776,"åĮĸçļĦ":3777,"triangle":3778,"Ġglo":3779,"æ¬§æ´²":3780,"Ġgamma":3781,"Ġoccur":3782,"Ġpopu":3783,"ç«ł":3784,"å®ŀçİ°":3785,"åħŃ":3786,"Ġpropose":3787,"Ġsha":3788,"çģ«":3789,"æıĲä¾ĽäºĨ":3790,"åŁİå¸Ĥ":3791,"stru":3792,"æĴŃ":3793,"ä½Ļ":3794,"Ġ\\\\&=":3795,"Ġnormal":3796,"èĥŀ":3797,"Ġmomentum":3798,"ä¸¾":3799,"Ġsto":3800,"æī§":3801,"lication":3802,"éĤ¦":3803,"æİ¢æµĭ":3804,"çĽ¸å½ĵ":3805,"bits":3806,"99":3807,"kes":3808,"dr":3809,"Ġstructures":3810,"32":3811,"Ġarbit":3812,"map":3813,"æĪĳä»¬åıĳçİ°":3814,"ĠTo":3815,"Ġpoints":3816,"Ġphysics":3817,"||":3818,"Ġ\\(\\{\\":3819,"Ġtotal":3820,"Ġapproxima":3821,"Vmatrix":3822,"GN":3823,"æ²Ļ":3824,"Ġrelations":3825,"èµ«":3826,"èīºæľ¯":3827,"Ġway":3828,"wn":3829,"yer":3830,"éħ¸":3831,"åħīåŃ¦":3832,"Ġfami":3833,"ä½¿å¾Ĺ":3834,"Ġdefined":3835,"}[\\":3836,")^\\":3837,"è¿ĳä¼¼":3838,"ring":3839,"ä¸ĵ":3840,"çĿ£":3841,"Ġå¹´":3842,"é¾":3843,"æĪĲç«ĭ":3844,"éģį":3845,"Ġtransp":3846,"èħĬ":3847,"Ġexhi":3848,"Ġhyper":3849,"Ġself":3850,"Ġinde":3851,"}\\;":3852,"çĶŁçī©":3853,"Ġexplain":3854,"Ġcy":3855,")|\\":3856,"Ġdisc":3857,"åĮĹéĥ¨":3858,"):":3859,"èįī":3860,"æŁĲäºĽ":3861,"Ġbackground":3862,"+|":3863,"olar":3864,"æĪĸèĢħ":3865,"ç¦ı":3866,"Ġevi":3867,"Ġti":3868,"çļĦåĪĨ":3869,"è¦ģæ±Ĥ":3870,"åįĹéĥ¨":3871,"Ġdemonstrate":3872,"ĠFe":3873,"}~":3874,"èĤ²":3875,"ĠCon":3876,"å²©":3877,"Ġ\\,\\":3878,"Ġvia":3879,"Ġequival":3880,"çİ¯å¢ĥ":3881,"å¾·åĽ½":3882,"ç»į":3883,"}).\\)":3884,"ctively":3885,"èĻ½çĦ¶":3886,"88":3887,"è½¯":3888,"Ġcentral":3889,"ä»£çłģ":3890,"çĨ":3891,"stablish":3892,"Ġdistributions":3893,"Ġoperators":3894,"Ġthermal":3895,"æļĹ":3896,"æ¸ħ":3897,"æ¶ī":3898,"pical":3899,"å¢¨":3900,"Ġentangle":3901,"phic":3902,"éļ¾":3903,"ob":3904,"çļĦæ°":3905,"'=":3906,"}=-\\":3907,"ub":3908,"åį°åº¦":3909,"å·®å¼Ĥ":3910,"Ġlaw":3911,"imensional":3912,"Ġ()":3913,"ĠLet":3914,"æľĢå°ı":3915,"çħ§":3916,"åĬĽçļĦ":3917,"å®¤":3918,"Ġinteg":3919,"éĻĦè¿ĳ":3920,"Ġä¸į":3921,"'_{":3922,"alu":3923,"çĽŁ":3924,")&=\\":3925,"}:":3926,"Ġhi":3927,"ities":3928,"Ġavera":3929,"ä¼Ĺ":3930,"å®ĹæķĻ":3931,"asis":3932,"å»ºçŃĳ":3933,")}.\\)":3934,"LA":3935,"Ġconver":3936,"Ġmotion":3937,"Ġcompact":3938,"æĲ":3939,"tures":3940,"Ġche":3941,"Ġinterpre":3942,"ching":3943,"å³°":3944,"pes":3945,"Ġbro":3946,"ward":3947,"Ġ]":3948,"Ġwithout":3949,"éķ¿åº¦":3950,"Ġaround":3951,"Ġregions":3952,"åį´":3953,"tary":3954,"èĴĤ":3955,"Ġ..":3956,"60":3957,"æĹ©æľŁ":3958,"Ġestablish":3959,"å¾ª":3960,"åĩ½æķ°çļĦ":3961,")),":3962,"éĢĢ":3963,"ilibrium":3964,"æ°Ķä½ĵ":3965,"è´¥":3966,"Ġdiscre":3967,"å¸¸æķ°":3968,"}}_":3969,"ä¸ģ":3970,"éŁ³ä¹Ĳ":3971,"mapsto":3972,"Ġalong":3973,"CS":3974,"Ġdoes":3975,"éĩįæĸ°":3976,"ste":3977,"Ġmetric":3978,"MA":3979,"Ġdri":3980,"lev":3981,"Ġdetermine":3982,"łĶç©¶":3983,"Ġthem":3984,"ĠFin":3985,"æħ":3986,"æĬķ":3987,"è½¬æį¢":3988,"å°¼äºļ":3989,"Ġgravitational":3990,"æŀģéĻĲ":3991,"Ġproblems":3992,"èĵ":3993,"Ġåħ¶":3994,"Ġredshift":3995,"Ġaccount":3996,"åīĤ":3997,"ç®Ĺç¬¦":3998,"ey":3999,"Ġmassive":4000,"ä»İèĢĮ":4001,"ä¾ĭåŃĲ":4002,")}(\\":4003,"Ġagreement":4004,"çļĦæĬ":4005,"lating":4006,"tz":4007,"rich":4008,"çķĻ":4009,"ress":4010,"Ġä¸Ĭ":4011,"è¿Ļæĺ¯":4012,"Ġintegra":4013,"bal":4014,"èĦĳ":4015,"åİĨåı²":4016,"Ġmagn":4017,"nda":4018,"Ġdomin":4019,"ational":4020,"mit":4021,"ĠåĬ¨":4022,"æĿ¥èĩª":4023,"ither":4024,"ĠBy":4025,"åıī":4026,"Ġmodi":4027,"iggs":4028,"åĢį":4029,"Ġbos":4030,"Ġdescribed":4031,"tre":4032,"Ġmodes":4033,"çļĦç²":4034,"åįĩ":4035,"mogene":4036,"Ġchi":4037,"Ġyi":4038,"nic":4039,"30":4040,"çļĩ":4041,"ç»Łè®¡":4042,"Ġtheorem":4043,"Ġachi":4044,"æĿ¾":4045,"ories":4046,"Ġeigen":4047,"çİ°è±¡":4048,"Ġscheme":4049,"å¿ħé¡»":4050,"lies":4051,"Ġfil":4052,"Ġground":4053,"Ġaccre":4054,"]=\\":4055,"teq":4056,"tivistic":4057,"Ġtest":4058,"Ġstrongly":4059,"äºĳ":4060,"åºŃ":4061,"Ġabsor":4062,"Ġch":4063,"/(":4064,"æĶ¿æ²»":4065,"è¯»":4066,"Ġdistance":4067,"ä¹Łåı¯ä»¥":4068,"Ġabove":4069,"çī¹åĪ«æĺ¯":4070,"Ġinsta":4071,"è¿ª":4072,"ĠDi":4073,"Ġbeco":4074,"nts":4075,"Ġinvol":4076,"å¤ļæķ°":4077,")>":4078,"Ġinterest":4079,"Ġobjects":4080,"çº¯":4081,"field":4082,"Ġåľ°":4083,"Ġproof":4084,"Ġgravity":4085,"åħīåŃĲ":4086,"In":4087,"fine":4088,"vey":4089,"åĸ·":4090,"Ġproduction":4091,"HC":4092,"Ġsele":4093,"ques":4094,"Ġcompar":4095,"Ġlarger":4096,"Ġopen":4097,"è½½":4098,"åħģ":4099,"arrow":4100,"åģ¶":4101,"84":4102,"cale":4103,"enari":4104,"choose":4105,"ken":4106,"Ġmechanism":4107,"èĢģ":4108,"Ġregime":4109,"zing":4110,"æ··åĲĪ":4111,"IC":4112,"Ġexte":4113,"ĠGeV":4114,"Ġpositive":4115,"Ġspaces":4116,"çĥĪ":4117,"Ġsearch":4118,"Ġrespect":4119,"vdots":4120,"varrho":4121,"tane":4122,"ç¼ĺ":4123,"Ġexample":4124,"å¤§å°ı":4125,"Ġdou":4126,"Ġfeatures":4127,"å¸ĮèħĬ":4128,"kn":4129,"çļĦæĮ":4130,"harp":4131,"Ġcosmological":4132,"cep":4133,"Ġrecently":4134,"Ġprovides":4135,"Ġexpected":4136,"_{|":4137,"ä¹ĭåĲİ":4138,"rel":4139,"åįļ":4140,"åĪ©äºļ":4141,"æĿĲæĸĻ":4142,"åĬŀ":4143,"äºĭä»¶":4144,"non":4145,"Ġinfinite":4146,"Ġkine":4147,"nges":4148,"Ġmolecular":4149,"çļĦåľ°":4150,"Ġæı":4151,"Ġduring":4152,"ĠèĢĮ":4153,"é½":4154,"Ġmateri":4155,"Ġconstraints":4156,"paga":4157,"Ġleads":4158,"85":4159,"æ¤įçī©":4160,"Ġwhose":4161,"å·±":4162,"asing":4163,"varian":4164,"approx":4165,"spe":4166,"éļıçĿĢ":4167,"Ġhydro":4168,"Ġformal":4169,"çªģ":4170,"94":4171,"ĠæĶ":4172,"èĪ¹":4173,"65":4174,"})}":4175,"çĶŁæĪĲ":4176,"Ġcomponent":4177,"Ġæ³ķ":4178,"è¥¿çıŃ":4179,"å²¸":4180,"Ġcommu":4181,"cer":4182,"|}":4183,"äº®":4184,"æĶ¯æĮģ":4185,"ç³»ç»ŁçļĦ":4186,"Ġdetermined":4187,"åħ³éĶ®":4188,"isot":4189,"å¹³æĸ¹":4190,"åĬ¨éĩı":4191,"Ġquasi":4192,"åº§":4193,"GC":4194,"Ġnoise":4195,"æ¹ĸ":4196,"Ġreport":4197,"èİ«":4198,"side":4199,"èĢ³":4200,"RB":4201,"ç»ĺ":4202,"è¯´æĺİ":4203,"ä¹īå¤§åĪ©":4204,"ĠåĪ°":4205,"æĿĢ":4206,"Ġproje":4207,"ç»ķ":4208,"ä½Ĩæĺ¯":4209,"Ġprec":4210,"æ²¹":4211,"Ġsingular":4212,"ĠæĪĳ":4213,"pc":4214,"35":4215,"åħ±æĮ¯":4216,"80":4217,"}^{(\\":4218,"bigoplus":4219,"å¹¶ä¸Ķ":4220,"}:=\\":4221,"phy":4222,"95":4223,"ida":4224,"Ġ^{\\":4225,"rier":4226,")).":4227,"è´¡":4228,"åĽ½çİĭ":4229,"åĩłä¹İ":4230,"Ġfluctuations":4231,"Ġprinci":4232,"Ġfixed":4233,"éĿ¢ç§¯":4234,"å¼ķåħ¥":4235,"bly":4236,"kl":4237,"nds":4238,"Ġformula":4239,"Ġ\\(|\\":4240,"rable":4241,"è¯Ŀ":4242,"Ġfit":4243,"Ġç§į":4244,"çļĦçĶµ":4245,"tices":4246,"Ġscenari":4247,"æĭħä»»":4248,"eli":4249,"based":4250,"è§Ħæ¨¡":4251,"Ġarbitrary":4252,"tom":4253,"åŃĹç¬¦":4254,"''(":4255,"667":4256,"Ġfermi":4257,"ference":4258,"very":4259,"Ġinvestigated":4260,"è¯¦":4261,"),\\\\":4262,"äº¦è¯·":4263,"idth":4264,"ngular":4265,"Ġdifferential":4266,"ĠHamil":4267,"Ġdegree":4268,"æķ£å°Ħ":4269,"ĠSch":4270,"Ġevidence":4271,"æ¸¡":4272,"cele":4273,"Xi":4274,"medi":4275,"è¶ħå¯¼":4276,"Ġrole":4277,"çľģ":4278,"roscopic":4279,"Ĥ¹":4280,"èµ·æĿ¥":4281,"å¾®åĪĨ":4282,"ĠEx":4283,"dyna":4284,"mooth":4285,"ä»ĭç»į":4286,"çī©ä½ĵ":4287,"}^{+}\\)":4288,"Ġva":4289,"åĽºå®ļ":4290,"åĪĴ":4291,"pr":4292,"Ġprofi":4293,"Ġaction":4294,"}}.\\)":4295,"åıĤèĢĥ":4296,"Ġbul":4297,"æł¼åħ°":4298,"Ġexpansion":4299,"taneous":4300,"RA":4301,"Ġhere":4302,"Ġsignal":4303,"Ġrea":4304,"Ġreve":4305,"ĠæĿ¥":4306,"Ġclose":4307,"è§£åĨ³æĸ¹æ¡Ī":4308,"åį«":4309,"ģĴ":4310,"ĠFinally":4311,"æł·æľ¬":4312,"van":4313,"èĻ«":4314,"wave":4315,"éĢĲ":4316,"ick":4317,"frared":4318,"é¼":4319,"Ġnetworks":4320,"ĠII":4321,"ĠCar":4322,"ç¡¬":4323,"Ġgeneralized":4324,"ince":4325,"sities":4326,"è¡ĮæĺŁ":4327,"97":4328,"Ġphoton":4329,"åĮ»":4330,"éļĶ":4331,"Ġstudies":4332,"Ġtor":4333,"Ġbreak":4334,"æĪı":4335,"é»Ħ":4336,"ä¿¡åı·":4337,"ati":4338,"=\\{":4339,"rations":4340,"Ġluminosity":4341,"Ġenha":4342,"Ġdescription":4343,")).\\)":4344,"mer":4345,"Ġlines":4346,"é»İ":4347,"¨ĭ":4348,"å¤§æĪĺ":4349,"vo":4350,"ä¼łç»Ł":4351,"put":4352,"éĺ»":4353,"æĪĲåĬŁ":4354,"è¥¿çıŃçīĻ":4355,"seteq":4356,"ĠæĹ¶":4357,"è½®":4358,"çļĦæĸ¹æ³ķ":4359,"sinh":4360,"é»ĳæ´ŀ":4361,"90":4362,"æĪĳä»¬è¿ĺ":4363,"ond":4364,"ĠMore":4365,"å°¾":4366,"},\\\\":4367,"Ĭ¶":4368,"Ġcho":4369,"rated":4370,"ä¸°":4371,"rfloor":4372,"titu":4373,"ç³»åĪĹ":4374,"Ġwide":4375,"ï¼Įï¼Į":4376,"Ġcoupled":4377,"æķ°çļĦ":4378,"Ġæį":4379,"åħģè®¸":4380,"å®ĥçļĦ":4381,"æ¹¾":4382,"éĽħ":4383,"Ġcryst":4384,"Ġanti":4385,"Ġcircu":4386,"Ġextended":4387,"é±":4388,"åı¤åħ¸":4389,"dS":4390,"ĠSU":4391,"æ¯Ľ":4392,"cause":4393,"ä¸²":4394,"å¹¿æ³Ľ":4395,"Hz":4396,"Ġtransport":4397,"go":4398,"87":4399,"cies":4400,"Ġåŀĭ":4401,"ä¸įèĥ½":4402,"ĠQCD":4403,"Ġbinary":4404,"é±¼":4405,"mass":4406,"Ġdimensions":4407,"Ġestimate":4408,"Ġplas":4409,"Ġinvariant":4410,"é©±":4411,"Ġmuch":4412,"ç»Ĩèĥŀ":4413,"Ġsolar":4414,"Ġrespon":4415,"Ġ/":4416,"ila":4417,"éģĹ":4418,"æıĲåĩº":4419,"empty":4420,"lfloor":4421,"cosh":4422,"Ġcontinuous":4423,"ĠçŁ":4424,"3333":4425,"Ġfurther":4426,"Ġshort":4427,"äº²":4428,"ä¸ŃåĽ½":4429,"Ġtheories":4430,"ä¸Ģèµ·":4431,"æķ°åĢ¼":4432,"Ġregular":4433,"\\\\&":4434,"Ġapplications":4435,"Ġèĥ½":4436,"Ġsymmetric":4437,"Ġconfigu":4438,"ics":4439,"éĵ¶æ²³":4440,"Ġseries":4441,"Co":4442,"ĠæĮ":4443,"å·²çŁ¥":4444,"å®Ī":4445,"band":4446,"rk":4447,"å·¥ä¸ļ":4448,"æģ©":4449,"fle":4450,"Ġradiation":4451,"ç¼º":4452,"çĪµ":4453,"Ġä½ĵ":4454,"æŁ±":4455,"çŁ¿":4456,"åħīåº¦":4457,"Ġmagnitu":4458,"å®¡":4459,"åĩıå°ĳ":4460,"Ġupper":4461,"Ġoptimal":4462,"versal":4463,"ison":4464,"Ġmultiple":4465,"6667":4466,"avy":4467,"45":4468,"pping":4469,"Ġbasis":4470,"Ġthus":4471,"gative":4472,"bul":4473,"Ġgeometry":4474,"Ġcomponents":4475,"Ġentropy":4476,"\\,,":4477,"range":4478,"!\\!\\":4479,"Ġtechnique":4480,"^*_":4481,"æĹłæ³ķ":4482,"ĠFermi":4483,"Ġè¿ĻäºĽ":4484,"}}^":4485,"view":4486,"bund":4487,"ndamental":4488,"æ°§":4489,"èĩªå·±":4490,"çĹĩ":4491,"length":4492,"}:=":4493,"Ġopera":4494,"çİ°ä»£":4495,"dual":4496,"Ġneutrino":4497,"uld":4498,"ä¼¸":4499,"åĤ¨":4500,"æĶ¹åıĺ":4501,"Ġevalu":4502,"å¸ķ":4503,"Ġru":4504,"ĠçĽ¸":4505,"Ġ12":4506,"ymmetry":4507,"Ġterm":4508,"Ġdetection":4509,"å¿Ĺ":4510,"ski":4511,"Ġcalculate":4512,"Bigg":4513,"èĥĮæĻ¯":4514,",\\\\\\":4515,"Ġstrength":4516,"Ġil":4517,"Ġtrac":4518,"Ġæ°":4519,"age":4520,"æĸ¯åĿ¦":4521,"isions":4522,"è¾ĳ":4523,"Ġ\\|\\":4524,"ä¸ĭçļĦ":4525,"çİ»":4526,"ĠSi":4527,"energies":4528,"æĪĳä»¬åı¯ä»¥":4529,"çĶŁæ´»":4530,"Ġachie":4531,"åŃĶ":4532,"äº§çĶŁçļĦ":4533,"Ġgood":4534,"å°ıè¯´":4535,"æ®ĸ":4536,"Ġcalculated":4537,"Ġsufficient":4538,"å¤¸":4539,"åıĬåħ¶":4540,"Ġmaximum":4541,"åħį":4542,"Ġstring":4543,"è¦Ĩ":4544,"éĿ¢çļĦ":4545,"instein":4546,"ĥŃ":4547,"ĠNe":4548,"Ġdust":4549,"Ġsyn":4550,"}\\}_{":4551,"Ġå¼ı":4552,"Ġalpha":4553,"ropic":4554,"Ġafter":4555,"Ġpropaga":4556,"Ġsmooth":4557,"åĪº":4558,"å¹´åľ¨":4559,"æ´»åĬ¨":4560,"most":4561,"))\\)":4562,"Ġangular":4563,"Ġrepresentation":4564,"Ġå®ļ":4565,"Ġstable":4566,"Ġmeasurement":4567,"å´":4568,"Ġlik":4569,"æĸ¯çī¹":4570,"Ġbeing":4571,"çłĶç©¶äºĨ":4572,"Ġspecial":4573,"ould":4574,"struct":4575,"Ġconject":4576,"'+":4577,"åĶ¯":4578,"Im":4579,"æĽ¿":4580,"è®¨è®ºäºĨ":4581,"Ġpeak":4582,"emptyset":4583,"ä¸įåı¯":4584,"ĠGala":4585,"èĪª":4586,"æ¡Ĩ":4587,"tries":4588,"æµ®":4589,"æľ¬å¾ģ":4590,"Ġdecre":4591,"ĠæĽ":4592,"çļĦæ¸":4593,"Ġdeveloped":4594,"PS":4595,"}>":4596,"åħ¬å°º":4597,"cd":4598,"faces":4599,",...,":4600,"æĪ·":4601,"37":4602,"Ġiso":4603,"çĶ¨æĿ¥":4604,"é¦ĸåħĪ":4605,")^*":4606,"Ġpolarization":4607,"elect":4608,"Ġloop":4609,"|_{\\":4610,"Ġfull":4611,"seu":4612,"Ġcen":4613,"Ġexamples":4614,"çļĦä¸»è¦ģ":4615,"Ġir":4616,"äº¦è¯·åıĤéĺħ":4617,"|\\)":4618,"ä¹±":4619,"è§¦":4620,"ĠHamiltonian":4621,"tors":4622,"Ġgenerated":4623,"è¿ĩæ¸¡":4624,"Ġeither":4625,"åįĥ":4626,"40":4627,"isms":4628,"Ġscaling":4629,"å¾Ĵ":4630,"Ġäºº":4631,"]_":4632,"æĺ¯åľ¨":4633,"ä¹Į":4634,"å¾Ĺåĩº":4635,"ç§ĳåŃ¦":4636,"that":4637,"cope":4638,"Ġscales":4639,"temp":4640,"æķ°åŃ¦":4641,"Ġanisot":4642,"å¥ĸ":4643,"èıĮ":4644,"æµĭè¯ķ":4645,"åĿĢ":4646,"Ġæ²":4647,"mogeneous":4648,"usion":4649,"gence":4650,"æ¬¡ä¸ĸçķĮ":4651,",(":4652,"ĠåŃ¦":4653,"æķ´ä¸ª":4654,"ç¯":4655,"åıĺå¼Ĥ":4656,"Ġshe":4657,"warf":4658,"MB":4659,"å©":4660,"Ġspecific":4661,"Ġimple":4662,"åĽŃ":4663,"Ġfocu":4664,"ĠMa":4665,"ising":4666,"viron":4667,"èį¯":4668,"Ġproto":4669,"èĦ±":4670,"å¼Ģåıĳ":4671,"å¼ºåº¦":4672,"{(\\":4673,"åħ±åĴĮ":4674,"Ġdouble":4675,"åĪĨè§£":4676,"Ġanalog":4677,"Ġelements":4678,"ounded":4679,"Ġfraction":4680,"ĠæĪĲ":4681,"\\!":4682,"Ġ'":4683,"Ġshould":4684,"æľºåĪ¶":4685,"å½ĵæĹ¶":4686,"Ġevery":4687,"nces":4688,"ĠIf":4689,"åĲ¸æĶ¶":4690,"ĠDe":4691,"mod":4692,"Ġrest":4693,"}}{(":4694,"Ġundersta":4695,"MC":4696,"mong":4697,"Ġless":4698,")&":4699,"ä½³":4700,"è¡¥":4701,"å¼ķèµ·":4702,"_{{\\":4703,"åıĸåĨ³":4704,"å±ķç¤ºäºĨ":4705,"ç»Łä¸Ģ":4706,"Ġconse":4707,"Ġdetected":4708,"Ġnuclear":4709,"Ġstatistical":4710,"Ġsum":4711,"unction":4712,"ĠMon":4713,"èĨľ":4714,"\\,.":4715,"Ġsee":4716,"ĠæĬ":4717,"Ġbroad":4718,"ok":4719,"å¼¦":4720,"æİĴæĶ¾":4721,"stic":4722,"Ġå¤ļ":4723,"ĠBe":4724,"æ¯Ĵ":4725,"Ġenergies":4726,")\\;":4727,"sh":4728,"Ġwould":4729,"bili":4730,"Ġpatter":4731,"no":4732,"æķı":4733,"éĤ»":4734,"ids":4735,"ances":4736,"è¶£":4737,"Ġresulting":4738,"seudo":4739,"})+":4740,"è´§":4741,"semb":4742,"Ġapplication":4743,"Ġglobal":4744,"Ġerror":4745,"æĢ»ç»Ł":4746,"Ġintroduced":4747,"¨ª":4748,"Ġvariables":4749,"°æĴŀ":4750,"éĿł":4751,"].\\)":4752,"Ġsuggest":4753,"vaila":4754,"è¡°åıĺ":4755,"å»ºè®®":4756,"åĨ³å®ļ":4757,"rical":4758,"Ġfundamental":4759,"allel":4760,"æ®Ĭ":4761,"è¾¨":4762,"herent":4763,"Ġaccretion":4764,"åįĬå¾Ħ":4765,"Ġnatural":4766,"èĸĦ":4767,"åĬ¨åĬĽ":4768,"ä¾§":4769,"åĨħéĥ¨":4770,"berg":4771,"çĲ´":4772,"ä¹ħ":4773,"Ġtensor":4774,"Ġ\\\\&\\":4775,"\\,,\\)":4776,"Ġfew":4777,"è·¯å¾Ħ":4778,"ud":4779,"Ġye":4780,"Ġcontra":4781,"Ġcorrelations":4782,"å¾ªçİ¯":4783,"Ġsupers":4784,"è¯ĳ":4785,"æĭĵ":4786,"Ġintroduce":4787,"å®ĮæĪĲ":4788,"Ġè¡Į":4789,"Ġtechniques":4790,"MS":4791,"çģµ":4792,"iled":4793,"Ġcompute":4794,"'(\\":4795,"inter":4796,"lastic":4797,"æįķ":4798,"æĥħåĨµä¸ĭ":4799,"è´¡çĮ®":4800,"CO":4801,"Ġinduced":4802,"Ġcosmic":4803,"div":4804,"ĠçŃī":4805,"Ġ;":4806,"Ġrates":4807,"subseteq":4808,"Ġhis":4809,"æİ¥è¿ĳ":4810,"åŀĤ":4811,"Ġgives":4812,"è¯ģæį®":4813,"Ġresolution":4814,"check":4815,"éĢĨ":4816,"åĪĨç¦»":4817,"åĲĪçī©":4818,"cial":4819,"éĩįåĬĽ":4820,"çİĽ":4821,"Ġpath":4822,"åłĤ":4823,"è¡¨çİ°":4824,"ordin":4825,"^{[":4826,"limin":4827,"ĠGaussian":4828,"Ġpopulation":4829,"nov":4830,"åı«":4831,"Ġ&=\\":4832,"å®£":4833,"Ġcle":4834,"åĬ³":4835,"Ġconclu":4836,"Ġsequence":4837,"Ġpu":4838,"ç©ºéĹ´çļĦ":4839,"dv":4840,"æĮ¯åĬ¨":4841,"Ġmeans":4842,"Ġ\\{\\":4843,"Ġdisper":4844,"Ġpressure":4845,"è¯¸":4846,"æĹłéĻĲ":4847,"åĲįçļĦ":4848,"Ġ(.":4849,"éĩįè¦ģçļĦ":4850,"Ġaverage":4851,"äº¡":4852,"})_{":4853,"stackrel":4854,"more":4855,"åľ°çĲĥ":4856,"Ġ),":4857,"Ġenviron":4858,"Ġproduct":4859,"éľį":4860,"ĠçĦ¶":4861,"!}":4862,"Ġcurv":4863,"Ġasymptotic":4864,"Ġbran":4865,"æī¹":4866,"éĿŀçº¿æĢ§":4867,"Ġplan":4868,"é»ĺ":4869,"bur":4870,"æĪª":4871,"ç²¾ç¡®":4872,"å¸ĿåĽ½":4873,"yr":4874,"ĠçĶ±":4875,"\\}}":4876,"Ġè®º":4877,"Ġangle":4878,"Ġpredictions":4879,"Ġabund":4880,"ĠFurther":4881,"Ġtun":4882,"èĢ¶":4883,"Ġperformed":4884,"åĩĿ":4885,"æĹłçº¿":4886,"Ġrotation":4887,"Ġrespectively":4888,"éĻ©":4889,"è¥¿åħĥåīįå¹´":4890,"ji":4891,"ĠåĲİ":4892,"çĽ¸ä¼¼":4893,"edimensional":4894,"Ġrelev":4895,"IS":4896,"tons":4897,"Ġ}{\\":4898,"Ġcollisions":4899,"FT":4900,"æĸľ":4901,"åĵ²":4902,"ä¹ĭåīį":4903,"éĴĪ":4904,"Ġba":4905,"particle":4906,"inte":4907,"orted":4908,"Ġul":4909,"36":4910,"æĺ¯åĲ¦":4911,"ä¸īè§Ĵ":4912,"Ġrelative":4913,")_{\\":4914,"Ġefficient":4915,"Ġassump":4916,"ĠLie":4917,"lat":4918,"çī¹æ®Ĭ":4919,"ä¼½":4920,"Ġradius":4921,"æŃ£å¸¸":4922,"éĹ»":4923,"æĮĩæķ°":4924,"leqslant":4925,"æ±ī":4926,"96":4927,"ois":4928,"Ġavaila":4929,"Ġextra":4930,"çĲĨè§£":4931,"çļĦç£ģ":4932,"éĺ²":4933,"å£³":4934,"Ġæ¨¡åŀĭ":4935,"ä¼łæĴŃ":4936,"å°ºåº¦":4937,"æŀĦæĪĲ":4938,"é¡¹å¼ı":4939,"fficients":4940,"Ġnature":4941,"æľ«":4942,"ĠAt":4943,"ency":4944,"Ġå°Ĩ":4945,"44":4946,"Ġindi":4947,")}{(":4948,")},\\)":4949,"sfer":4950,"ĠHiggs":4951,"lass":4952,"NA":4953,"osition":4954,"racy":4955,"ä¸ĢæŃ¥":4956,"Ġmap":4957,"Ġpartial":4958,"formal":4959,"Ġtopological":4960,"ĠåĽ½":4961,"åĢ¼çļĦ":4962,"çĳŀ":4963,"Ġequivalent":4964,"bullet":4965,"ĠäºĽ":4966,"Ġabs":4967,"Ġcolle":4968,"åŃĲçļĦ":4969,"æĺ¯ä¸Ģ":4970,"Ġvarie":4971,"Ġinten":4972,"åıĸåĨ³äºİ":4973,"ä¿ĿæĮģ":4974,"Ġtemperatures":4975,"çĪĨ":4976,"Ġax":4977,"Ġanalyze":4978,"ģĴæĺŁ":4979,"mance":4980,"Ġentanglement":4981,"({":4982,"Ġconden":4983,"æŁĵ":4984,"Ġalgebras":4985,"å±Ģéĥ¨":4986,"èĵĿ":4987,"ä¸ĥ":4988,"çŃĸ":4989,"æıĲåĩºäºĨ":4990,"æ¦Ĥçİĩ":4991,"Ġè¦ģ":4992,"æľīä¸Ģä¸ª":4993,"ä»ĸåľ¨":4994,"æº¶":4995,"biggr":4996,"Ġspacetime":4997,"Ġques":4998,"çĦ¶èĢĮ":4999,"Ġcalled":5000,"Ġheavy":5001,"ä»Ģä¹Ī":5002,"26":5003,"body":5004,"DE":5005,"Ġgre":5006,"Ġfact":5007,"chastic":5008,"æĺ¯çĶ±":5009,"ä¾µ":5010,"çĲĨæĥ³":5011,"~~~":5012,"Ġpreviously":5013,"^{*}":5014,"Ġbelow":5015,"åħ«":5016,"biggl":5017,"åĩłä¸ª":5018,"lit":5019,"}}+":5020,"ç¬¬ä¸Ģä¸ª":5021,"èľ":5022,"ä»¥åīį":5023,"Ġou":5024,"æ³¢åĬ¨":5025,"Ġwaves":5026,"Ġsignificantly":5027,"æĬ¥åĳĬ":5028,"ka":5029,"Ġfamily":5030,"å½¹":5031,"æµģä½ĵ":5032,"åĪĿå§ĭ":5033,"Ġsets":5034,"çĻ»":5035,"çĽ®åīį":5036,"pole":5037,"ĠSta":5038,"Ġæŀľ":5039,"éĢģ":5040,"Ġsyste":5041,"change":5042,"Ġcore":5043,"æķ´æķ°":5044,"roup":5045,")\\,\\":5046,"Ġaccele":5047,"å¼Ĺ":5048,"Ġsimulation":5049,"éĺ¿æĭī":5050,"çļĦä¸į":5051,"è§ī":5052,"æľĢé«ĺ":5053,"ĠSN":5054,"å¥ı":5055,"Ġchange":5056,"SU":5057,"Ġleading":5058,"Ġcontext":5059,"metric":5060,"though":5061,"ĠåĲĪ":5062,"TE":5063,"cated":5064,"exis":5065,"Ġnumbers":5066,"Ġtypical":5067,"loy":5068,"stro":5069,"å°½ç®¡":5070,"Ġphases":5071,"æ¦Ĥå¿µ":5072,"ĠåĲĮ":5073,"grees":5074,"Tr":5075,"Ġbar":5076,"ĠThere":5077,")\\\\&=":5078,"æī§è¡Į":5079,"bol":5080,"}}^{\\":5081,"Ġvie":5082,"èĦīåĨ²":5083,"æī°åĬ¨":5084,"mediate":5085,"çĽ®æłĩ":5086,"Ġmagnitude":5087,"](":5088,"Ġforce":5089,"Ġmade":5090,"Ġconstruction":5091,"Ġclosed":5092,"Ġrecon":5093,"Ġconduc":5094,"å¤§åŀĭ":5095,"ef":5096,"Ġpure":5097,"Ġç±»":5098,"æĺİç¡®":5099,"Ġgrowth":5100,"Ġanomal":5101,"Ġnecess":5102,"licity":5103,"æ¬¡ä¸ĸçķĮå¤§æĪĺ":5104,"sen":5105,"tera":5106,"ä»½":5107,"ä»¥ä¸ĭ":5108,"Ġneutron":5109,"é¹":5110,"esis":5111,"èģĶåĲĪ":5112,"æįŁ":5113,"lescope":5114,"Ġmer":5115,"Ġstability":5116,"ä¿®æĶ¹":5117,"Ġleast":5118,"Ġåı¯ä»¥":5119,"Ġsigma":5120,"çĶ¨çļĦ":5121,"Ġcoefficients":5122,"è°·":5123,"æĸĩåŃ¦":5124,"äº¤æį¢":5125,"osi":5126,"è¿Ľåħ¥":5127,"èĥľ":5128,"ternal":5129,"bule":5130,"é«ĺåº¦":5131,"Ġcontribution":5132,"åŃ¦ä¹ł":5133,"çº½çº¦":5134,"))=\\":5135,"Ġvacu":5136,"}&=":5137,"åĨĽéĺŁ":5138,"Ġplasma":5139,"åĪ¶éĢł":5140,"olume":5141,"Ġdwarf":5142,"äºĨä¸Ģ":5143,"Ġå½ĵ":5144,"æĪĳä»¬è¯ģæĺİ":5145,"Ġelectrons":5146,"æĿ¥çļĦ":5147,"ip":5148,"¯ı":5149,"ĠSe":5150,"åŁºçĿ£":5151,"Ġindex":5152,"Ġdiscrete":5153,"è¿ģ":5154,"Ġavailable":5155,"Au":5156,"sun":5157,"çĪ¶":5158,"Ġamplitude":5159,"Ġresonance":5160,"]+":5161,"æ¨¡åŀĭçļĦ":5162,"ä¸ĢçĽ´":5163,"ä¸¹":5164,"ich":5165,"Ġwor":5166,"IM":5167,"è¿¹":5168,"å°¤":5169,"Ġproced":5170,"lash":5171,"Ġatoms":5172,"Ġdirection":5173,"}}\\,":5174,"Ġlike":5175,"resh":5176,"Ġfer":5177,"ceil":5178,"}.\\":5179,"Ġmicro":5180,"GL":5181,"å½¢çĬ¶":5182,"77":5183,"Ġpolynomial":5184,"åıįå¯¹":5185,"èĲ¥":5186,"OS":5187,"åıł":5188,"=\\,":5189,")}+":5190,"ched":5191,"æĭ¥":5192,"ĠEu":5193,"åĶ¯ä¸Ģ":5194,"åĽ½éĻħ":5195,"Ġcap":5196,"ç»ıåħ¸":5197,"wise":5198,"]_{":5199,"Ġrepro":5200,").\\":5201,"å¹¶ä¸į":5202,"Ġcoun":5203,"äº¦ç§°":5204,"Ġpara":5205,"é½Ĳ":5206,"Ġdevi":5207,"Ġmedium":5208,"åĽ¾åĥı":5209,"æĭľ":5210,"Ġcurves":5211,"DM":5212,"ç®ĢåįķçļĦ":5213,"-|":5214,"oriz":5215,"pres":5216,"cm":5217,"ĠPro":5218,"æł¸å¿ĥ":5219,"æľ¬åľ°":5220,"Ġminimal":5221,"Ġgap":5222,"äººä»¬":5223,"ĠåĮĸ":5224,"å¤§éĥ¨åĪĨ":5225,"å²ģ":5226,"Ġvariable":5227,"Ġillu":5228,"ju":5229,"æĹ¶ä»£":5230,"Ġdemonstra":5231,"28":5232,"Ġvor":5233,"ali":5234,"æĺİæĺ¾":5235,"åįķä¸Ģ":5236,"Ġdomain":5237,"Ġcre":5238,"ä¸ŃåŃĲ":5239,"éŃ":5240,"è¾¾åĪ°":5241,"Ġproperty":5242,"è¶ĭ":5243,"}}+\\":5244,"Ġä½¿çĶ¨":5245,"æĿ¥æºĲ":5246,"})^{-":5247,"åŃĹæ®µ":5248,"Ġperformance":5249,"flu":5250,"Cu":5251,"Ġbulk":5252,"æľīä¸Ģ":5253,"ç©·":5254,"ä¸´çķĮ":5255,"50":5256,"xt":5257,"Ġcorrections":5258,"Ġdetail":5259,"Ġ*":5260,"ĠWith":5261,"ä¼łè¾ĵ":5262,"Ġç½":5263,"mbed":5264,"åĻ¨çļĦ":5265,"...":5266,"mely":5267,"ĠçļĦç":5268,"texts":5269,"tyle":5270,"èģĶç³»":5271,"Ġperiodic":5272,"èŀº":5273,"ä¸Ģæł·":5274,"nian":5275,"Ġhad":5276,"ä¿ĿæĬ¤":5277,"æ¢°":5278,"Ġnano":5279,"èī¯":5280,"Ġç¤":5281,"å¥Ĺ":5282,"æ¸¯":5283,"llip":5284,"é¢Ĺ":5285,"Ġabsorption":5286,"))^":5287,"è¿ĽåĪ¶":5288,"'-":5289,"din":5290,"ets":5291,"Ġ\\(-\\":5292,"åĨħå®¹":5293,"çļĦæĥħåĨµä¸ĭ":5294,"éļĲ":5295,"ä»įçĦ¶":5296,"ĠçĶµ":5297,"çŃīäºİ":5298,"Ġintegral":5299,"Ġä»İ":5300,"Ġmanifold":5301,"oh":5302,"ĠLe":5303,"Ġchiral":5304,"Ġcommon":5305,"å¤§éĩı":5306,"Ġapply":5307,"cept":5308,"Ġestimates":5309,"Ġrelativistic":5310,"meq":5311,"meter":5312,"äººåı£çº¦":5313,"Ġfinding":5314,"æī¾åĪ°":5315,"åĻª":5316,"è¯¦ç»Ĩ":5317,"Ġadditional":5318,"})^{\\":5319,"çłĶ":5320,"Ġfunctional":5321,"Ġcurvature":5322,"¾İ":5323,"åŃ¦éĻ¢":5324,"Ġcaus":5325,"Ġshock":5326,"åħ·ä½ĵ":5327,"gy":5328,"Ġstochastic":5329,"algebra":5330,"ä¸»æķĻ":5331,"äººç±»":5332,"ĠMoreover":5333,"éĽķ":5334,"è¿«":5335,"æŃ£äº¤":5336,"odyna":5337,"Ġincrease":5338,"ä½ł":5339,"æ³°":5340,"Le":5341,"pq":5342,"Ġrefle":5343,"å¯»":5344,"Ġequilibrium":5345,"çĬ¹":5346,"Ġhel":5347,"å®ļå¾ĭ":5348,"è¶ħè¿ĩ":5349,"äºĭå®ŀ":5350,"åĪļ":5351,"å®Įæķ´":5352,"Ġholes":5353,"Ġbounds":5354,"Ĭ¶æĢģ":5355,"stitu":5356,"Ġrema":5357,"forma":5358,"olved":5359,"free":5360,"Ġç¡":5361,"¦»":5362,"Ġbecause":5363,"è´¢":5364,"Ġ\\({":5365,"åıĸå¾Ĺ":5366,"è®²":5367,"¼Ķ":5368,"æľĢåĪĿ":5369,"æ°´å¹³":5370,"æ¸Ĳ":5371,"Ġcurve":5372,"}|^":5373,"Ġstra":5374,"é£İæł¼":5375,"CP":5376,"Ġend":5377,"åº·":5378,"çĶļ":5379,"Ġsoft":5380,"}}}\\":5381,"ression":5382,"ç»´åº¦":5383,"]^":5384,"bert":5385,"èĤī":5386,")+(":5387,"ľç´¢":5388,"Ġvis":5389,"fect":5390,"Ġamong":5391,"åĮ¹":5392,"quences":5393,"è¿Ķ":5394,"Ġcode":5395,"è¿Ĳè¡Į":5396,"duces":5397,"Ġsemi":5398,"äº§åĵģ":5399,"èĦĬ":5400,"Ġearly":5401,"ddot":5402,"ŁĲ":5403,"Ġä¸ĭ":5404,"Ġtransfer":5405,"ijk":5406,"Ġinflu":5407,"æŀĦå»º":5408,"ĠComp":5409,"çĽ¸æ¯Ķ":5410,"è§Ĵåº¦":5411,"æķ°ç»Ħ":5412,"æĸĩç«ł":5413,"Ġtypes":5414,"çĸĹ":5415,"known":5416,")~":5417,"Ħı":5418,"vered":5419,"Ġapproximate":5420,"ä¹Łå°±æĺ¯":5421,"Ġsuperconducting":5422,"ndida":5423,"éĩİ":5424,"åı¦ä¸Ģ":5425,"ä»ĭè´¨":5426,"roscopy":5427,"down":5428,"Ġidentify":5429,"tage":5430,"Ġhard":5431,"æĹ¥æľ¬":5432,"çĽ¸åºĶ":5433,"é¢Ĩå¯¼":5434,"åĳ¨åĽ´":5435,"Ġå¯¹äºİ":5436,"Ġprobab":5437,"Ġorbital":5438,"Pr":5439,"çº¤":5440,"ç¢°æĴŀ":5441,"å¼§":5442,"Ġextre":5443,"ically":5444,"Ġdown":5445,"light":5446,"Ġtool":5447,"æĿ°":5448,"æī©å¼ł":5449,"Ġelectronic":5450,"é¢ľ":5451,"ĠRa":5452,"é¢Ŀ":5453,",[":5454,"Ġalgorithms":5455,"Ġexponential":5456,"Ġreview":5457,"Ġnegative":5458,"ç»Ļå®ļ":5459,"ED":5460,"_{*":5461,"Ġexternal":5462,"Ġfar":5463,"èĹı":5464,"é¢ĨåŁŁ":5465,"Ġalter":5466,"Ġsph":5467,"è§ĦåĪĻ":5468,"Ġclasses":5469,"Ġloss":5470,"ined":5471,"ĠAGN":5472,"Ġmaps":5473,"jor":5474,"åĬłåħ¥":5475,"elds":5476,"Ġelectric":5477,"Ġcate":5478,"AR":5479,"çļĦæ¨¡åŀĭ":5480,"Ġevents":5481,"éĺ¿å°Ķ":5482,"åĳ³çĿĢ":5483,"pid":5484,"éķĩ":5485,"çļĦå¤ļ":5486,"ãĢĤãĢĤ":5487,"Ġç¨ĭ":5488,"æ¯ķ":5489,"Ġdesign":5490,"bel":5491,"ĠæĪĸ":5492,"ba":5493,"rity":5494,"Ġobser":5495,"èĢĮä¸Ķ":5496,"Ġuniform":5497,"Ġcm":5498,"åı¥":5499,"Ġproduced":5500,"åĳ½ä»¤":5501,"æļ´":5502,"Ġreveal":5503,"æĪĳä»¬åľ¨":5504,"Ġfuture":5505,"SN":5506,"çŃĶ":5507,"æľĢä½³":5508,"Ġcu":5509,"ä½ľå®¶":5510,"çº³ç±³":5511,"dd":5512,"Ġ).":5513,"Ġçº¿":5514,"ist":5515,"çĶ²":5516,"å®³":5517,"éŁ¦":5518,"é¥°":5519,"å½ĵåīį":5520,"vial":5521,"Ġincreasing":5522,"Ġatomic":5523,"Ġvio":5524,"ä½ĵç§¯":5525,"ped":5526,"pped":5527,"Ġradial":5528,"Ġcomparison":5529,");":5530,"äººçī©":5531,"Ġsmaller":5532,"è¿Ĳç®Ĺ":5533,"Ġmust":5534,"Ġhalo":5535,"70":5536,"Ġconcent":5537,"mentation":5538,"Ġquad":5539,"ĠOn":5540,"Ġæ´":5541,"åĲĮæł·":5542,"åİŁåĲį":5543,"local":5544,"éĶĻè¯¯":5545,"86":5546,"DF":5547,"ice":5548,"é¢ĳè°±":5549,"ĠMonte":5550,"çļĦæĽ":5551,"Ġcandida":5552,"ä¼´":5553,"ç§»åĬ¨":5554,"éĻ¤äºĨ":5555,"Ġring":5556,"Ġmixing":5557,"pho":5558,"underset":5559,"29":5560,"æĮ¥":5561,"ystem":5562,"ç¯ĩ":5563,"Ġusu":5564,"trices":5565,"ĠæıĲ":5566,"cation":5567,"çĶµæµģ":5568,"çĽ´åĪ°":5569,"åħ¸åŀĭ":5570,"èı²":5571,"Ġcrystal":5572,"çļĦç¼":5573,"åĸĦ":5574,"Ġjet":5575,"Ġexhibit":5576,"whi":5577,"ç½Ĺæĸ¯":5578,"nova":5579,"Ġellip":5580,"åİĭåĬĽ":5581,"Ġpredicted":5582,"Ġchanges":5583,"æ¢ħ":5584,"gue":5585,"mology":5586,"å¯¹ç§°æĢ§":5587,"simeq":5588,"æľºæ¢°":5589,"Ġdra":5590,"Ġdepends":5591,"cing":5592,"ä¸Ģå®ļ":5593,"æĹ§":5594,"å¼ºçĥĪ":5595,"Ġpseudo":5596,"ĠTr":5597,"Ġæ¯Ķ":5598,"åĿı":5599,"Si":5600,"mos":5601,"})-":5602,"quid":5603,"èļ":5604,"èī¾":5605,"Ġsuc":5606,"åĳĪ":5607,"çº¦æĿŁ":5608,"Ġè¿ĩ":5609,"cli":5610,"Ġdz":5611,"ah":5612,"slash":5613,"ady":5614,"éĢļéĩı":5615,"æľįåĬ¡":5616,"ç»¿":5617,"Ġvan":5618,"ç¾İæ´²":5619,"Ġtransitions":5620,"åħ»":5621,"Ġbra":5622,"Ġoff":5623,"=|":5624,"Ġhar":5625,"Ġalmost":5626,"{(-":5627,"éĿ©åĳ½":5628,"Ġcondens":5629,"=&":5630,"genera":5631,"éĥ½æľī":5632,"Ġåı¯":5633,"Ġçİ°":5634,"lan":5635,"æľ¬æĸĩä¸Ń":5636,"Ġam":5637,"åħĭæĸ¯":5638,"éĴ¢":5639,"Ġ}(":5640,"Ġinclude":5641,"rs":5642,"ĠçĤ¹":5643,"Ġchemical":5644,"éģŃ":5645,"pton":5646,"ĠçĶŁ":5647,"55":5648,"Ġembed":5649,"çĽĬ":5650,"æħ¢":5651,"Ġrelevant":5652,"Ġåĩº":5653,"Ġformalism":5654,"Ġturbule":5655,"sharp":5656,"Ġwidth":5657,"Ġstri":5658,"ĠTe":5659,"ĠæĪĳä»¬è¿ĺ":5660,"Ġcontrast":5661,"æĶ»":5662,"å½ĵåľ°":5663,"Ġconjecture":5664,"Ġconta":5665,"Ġreduced":5666,"çļĦæ·":5667,"ĠLi":5668,"çļĦç±»":5669,"å®«":5670,"Ġmis":5671,"Ġcolla":5672,"Ġgraphs":5673,"éĨ":5674,"Ġflat":5675,"where":5676,"ned":5677,"Ġcoordin":5678,"èį¡":5679,"Ġversion":5680,"Ġclear":5681,"Ġè¢«":5682,"çĽĳ":5683,"Ġæĺİ":5684,"_{\\{":5685,"Ġalgebraic":5686,"Ġshape":5687,"Ġmake":5688,"åĽłç´ł":5689,"ç£ģçĽĺ":5690,"hys":5691,"Ġscenario":5692,"Ġlimits":5693,"Ġpuls":5694,"æķ¦":5695,"åºĶè¯¥":5696,"Ġess":5697,"æ¡Ĩæŀ¶":5698,"Ġsquare":5699,"lay":5700,"æĻ®éģį":5701,"ĠæĺŁ":5702,"äºĮæ¬¡":5703,"ĠåĬĽ":5704,"Ġ\\:":5705,"Ġextension":5706,"Ġdetailed":5707,"lassi":5708,"æĸĩåĮĸ":5709,"æıĴ":5710,"ä¸įåıĺ":5711,"åŁºåºķ":5712,"Ca":5713,"æ¥":5714,"åĬłéĢŁ":5715,"Ġsati":5716,"æ°¢":5717,"Ġgraphene":5718,"æ¨ª":5719,"æ³¢åĩ½æķ°":5720,"èµ°":5721,"äº¤åıī":5722,"orizon":5723,"Ġintr":5724,"Ġ(.)":5725,"lesssim":5726,"åĨ°":5727,"çĶµå½±":5728,"targe":5729,"Ġsurvey":5730,"èĽĭ":5731,"electric":5732,"ĠCha":5733,"Ġä»ĸ":5734,"èĥĢ":5735,"çī¹å®ļ":5736,"Ġextrac":5737,"Ġbounded":5738,"åıĺå½¢":5739,"ĠUni":5740,"Ġvacuum":5741,"uv":5742,"Ġable":5743,"è§Ĩä¸º":5744,"bolic":5745,"polar":5746,"ç¬¦åı·":5747,"vor":5748,"Ġshift":5749,"ighb":5750,"ç©Ĩ":5751,"è¿ĽåĮĸ":5752,"bigcap":5753,"Ġlatter":5754,"æŀĦéĢł":5755,"fined":5756,"éª¨":5757,"è¡¨è¾¾å¼ı":5758,"Ġanalytic":5759,"Ġmath":5760,"Ġwi":5761,";\\;\\;":5762,"Ġinvarian":5763,"gain":5764,"Ġdetector":5765,"ĠCP":5766,"Ġsurfaces":5767,")\\\\&":5768,"Ġindivi":5769,"åīĸ":5770,"è¦ĨçĽĸ":5771,"Ġna":5772,"å¤ļä¸ª":5773,"åį¢":5774,"corre":5775,"ised":5776,"ç§ĺ":5777,"}={\\":5778,"Ġsui":5779,"éĻ·":5780,"Ġappear":5781,"}&\\":5782,"Ġori":5783,"æľīçļĦ":5784,"oo":5785,"|^{\\":5786,"åį·":5787,"till":5788,"MN":5789,"ä¸ºçļĦ":5790,"Ġdifference":5791,"å·¥åħ·":5792,"çº¢å¤ĸ":5793,"Ġsatisf":5794,"gg":5795,"èĥ¶":5796,"åħ±åĲĮ":5797,"åĢ¾":5798,"æĹ¶åĢĻ":5799,"Ġtransverse":5800,"ĠWhen":5801,")}^":5802,"çĶµåľº":5803,"Ġdefine":5804,"éĢĬ":5805,"Ġrelax":5806,"ĠCa":5807,"31":5808,"ES":5809,"ç¬Ķ":5810,"}}-":5811,"Ġpairs":5812,"è¿Ľä¸ĢæŃ¥":5813,"åħ³èģĶ":5814,"æ±ĩ":5815,"æŀģåĮĸ":5816,",\\;":5817,"Ġpoly":5818,"Ġthresh":5819,"ern":5820,"Ġç«":5821,"|\\,":5822,"super":5823,"quark":5824,"lock":5825,"Ġargu":5826,"Ġdiffusion":5827,"èĩªåĬ¨":5828,"stable":5829,"ä¸Ŀ":5830,"orphic":5831,"ä»¥åĲİ":5832,"Ġuniverse":5833,"Ġdecays":5834,"å¤¸åħĭ":5835,"BA":5836,"å±ŀäºİ":5837,"é¡µ":5838,"89":5839,"ntz":5840,"Ġåį³":5841,"PA":5842,"Ġä½ľ":5843,"gether":5844,"æ³ķå¾ĭ":5845,"Ġaccurate":5846,"lier":5847,"Ġ)\\":5848,"çĶ·":5849,"ĠæĢģ":5850,"ĠCO":5851,"è¥¿éĥ¨":5852,"Ġcannot":5853,"monic":5854,"Ġprovided":5855,"é¸Ł":5856,"Ġbright":5857,"å¤ļé¡¹å¼ı":5858,"åĮĢ":5859,"ä¸Ģæ¬¡":5860,"å¯¼æķ°":5861,"çī©çĲĨåŃ¦":5862,"åĲĪå¹¶":5863,"Ġkey":5864,"inger":5865,"nical":5866,"Ġequal":5867,"æľĢç»Ī":5868,"sa":5869,"\\|_{\\":5870,"Ġcharged":5871,"è¾¹ç¼ĺ":5872,"Ġmultip":5873,"Ġobservation":5874,"Ġhighly":5875,"radi":5876,"Ġimprove":5877,"Ġnor":5878,"Ġadd":5879,"thesis":5880,"Ġmaterial":5881,"æĬ½":5882,"Ġé«ĺ":5883,"oung":5884,"ä¼¤":5885,"can":5886,"å¾®åŃĲ":5887,"çīĪæľ¬":5888,"ming":5889,"Ġinner":5890,"å¹³è¡Į":5891,"ç³»ç»Łä¸Ń":5892,"è´¸":5893,"Ġhand":5894,"Ġconstructed":5895,"Ġbri":5896,"å°ĺ":5897,"ç»¼":5898,"è¿ĩç¨ĭä¸Ń":5899,"ç¢³":5900,"ition":5901,"sts":5902,"Ġtes":5903,"é¦Ļ":5904,"çģ°":5905,"Sch":5906,"Ġç³»":5907,"Ġæĸ¯":5908,"Ġanalytical":5909,"å¤®":5910,"Ġvi":5911,"ç»ĵè®º":5912,"è¾ĵåħ¥":5913,"ĠåĪ¶":5914,"æĪĳä»¬å°Ĩ":5915,"Ġneed":5916,"FeAs":5917,"Ġview":5918,"Ġç¤º":5919,"å£ģ":5920,"ĠæŃ¤":5921,"ä¸½":5922,"åľĪ":5923,"Ġvolume":5924,"æĴĴ":5925,"Ġgeometric":5926,"tero":5927,"çļĦçłĶç©¶":5928,"è®¾ç½®":5929,"éĢłæĪĲ":5930,"^{*}\\)":5931,"åŀĤçĽ´":5932,"flow":5933,"ya":5934,"ressed":5935,"Ġcell":5936,"äººåĴĮ":5937,"firm":5938,"äºĮç»´":5939,"Ġfollowing":5940,"æ°ı":5941,"å¥´":5942,"Ġuniversal":5943,"Ġdual":5944,"[(":5945,"Ġslow":5946,"åĬª":5947,"quent":5948,"æķĻèĤ²":5949,"'}\\":5950,"tran":5951,"Ġmat":5952,"ading":5953,"tory":5954,"ç®¡çĲĨ":5955,",{\\":5956,"|}\\":5957,"æŃ¦":5958,"varpi":5959,"Ġnovel":5960,"Ġfluid":5961,"Ġmatrices":5962,"47":5963,"limsup":5964,"Ġbest":5965,"=(\\":5966,"Ġri":5967,")=(\\":5968,"éļľ":5969,"ç»Ļåĩº":5970,"longrightarrow":5971,"ç«Ļ":5972,"çĶ»å®¶":5973,"ilbert":5974,"reg":5975,"éĴŁ":5976,"åŃĹç¬¦ä¸²":5977,"Ġextend":5978,"Al":5979,"Ġspi":5980,"çĲĨè®ºçļĦ":5981,"å®¹æĺĵ":5982,"åĩºçīĪ":5983,"ä¸Ģä¸ĸ":5984,"Ġcalculation":5985,"Ġperform":5986,"],\\)":5987,"Ġæľ¬":5988,"éħĴ":5989,"èĳĹ":5990,"è¾¨çİĩ":5991,"ĠFurthermore":5992,"chy":5993,"Ġbeam":5994,"ç»ıè¿ĩ":5995,"æ£Ģæµĭ":5996,"'}(":5997,"Ġtarge":5998,"çĽĽ":5999,"_+(":6000,"éĢĤå½ĵ":6001,"å¿«éĢŁ":6002,"Ġpossibility":6003,"åı¯èĥ½æĺ¯":6004,"Ġthermodyna":6005,"}^{*}\\)":6006,"Ġrequired":6007,"ĠCarlo":6008,"æ¶īåıĬ":6009,"Ġmar":6010,"ĠéĢļè¿ĩ":6011,"åį°ç¬¬":6012,"Ġincreases":6013,"Ġemer":6014,"å½¢æĢģ":6015,"æĹħ":6016,"Ġconnected":6017,"æĹłçº¿çĶµ":6018,"é¢ľèī²":6019,"èĤ¯":6020,"Ġmagneto":6021,"Ġprocedure":6022,"Ġaffe":6023,"well":6024,"ĠMe":6025,"Ġrather":6026,"}=\\{":6027,"Ġwhe":6028,"å®ĥä»¬çļĦ":6029,"Ġæ¸":6030,"Ġç¬¬":6031,"Ġrenormal":6032,"èĩ³å°ĳ":6033,"ried":6034,"model":6035,"ema":6036,"ç½ª":6037,"æŁı":6038,"Ġresponse":6039,"ĠGalactic":6040,"Ġimages":6041,"éģ¿":6042,"Ġreco":6043,"ducing":6044,"æĻļ":6045,"Ġdiagram":6046,"æĪĲåĳĺ":6047,"MR":6048,"Ġcool":6049,"å¤įåĪ¶":6050,"pin":6051,"Ġdistin":6052,"åī²":6053,"tating":6054,"ĠModel":6055,"HE":6056,"å¢Ļ":6057,"ubb":6058,"Ġdegrees":6059,"\\\\&=":6060,"Ġå®ĥ":6061,"çļĦéĿŀ":6062,"ä¹Ķ":6063,"ĠQu":6064,"Ġposition":6065,"Ġrequire":6066,"¢å¤į":6067,"wards":6068,"åĬłæĭ¿":6069,"æĦıåĳ³çĿĢ":6070,"formations":6071,"Ġinequ":6072,"Ġç¼":6073,"})}{":6074,"Ġdiag":6075,")^{-\\":6076,")),\\)":6077,"|^{-":6078,"è¡į":6079,"Ġç²":6080,"Ġreach":6081,"mall":6082,"æī©æķ£":6083,"æĲľç´¢":6084,"è¿½":6085,"}},\\":6086,"äºĮè¿ĽåĪ¶":6087,"Ġæµĭ":6088,"ĠåĢ¼":6089,"åħµ":6090,"ĠçļĦæ":6091,"éĢļçĶ¨":6092,"çļĦæĸ°":6093,"çļĦåĩ½æķ°":6094,"Ġexchange":6095,"Ġ...":6096,"pher":6097,"ĠçĲĨ":6098,"è´µ":6099,"ç©ºéĹ´ä¸Ń":6100,"onical":6101,"overset":6102,"Ġarticle":6103,"Ġexists":6104,"Ġidentified":6105,"Ġbecomes":6106,"bon":6107,"Ġtaken":6108,"è·¨":6109,"èĻļ":6110,"kj":6111,"Ġju":6112,"SP":6113,"ç©¿":6114,"Ġdispersion":6115,"Ġyears":6116,"antum":6117,"å¤ĸéĥ¨":6118,"é¦Ĩ":6119,"Ġinteresting":6120,"å¹´ä»ĸ":6121,"å¸¸è§ģ":6122,"tization":6123,"sitivity":6124,"å¼Ĥå¸¸":6125,"å½©":6126,"Ġnd":6127,"Ġbary":6128,"å¼ıçļĦ":6129,"ĠThen":6130,"Ġinteger":6131,"èĨ¨":6132,"Ġperturbation":6133,"Ġè¯¥":6134,"å¸ģ":6135,"cong":6136,"çľ¼":6137,"çº¢èī²":6138,"çº¹":6139,"Ġconfirm":6140,"æĪĳä»¬ä½¿çĶ¨":6141,"Ġsection":6142,"æĬĺ":6143,"å¸®":6144,"ç¦ģ":6145,"æĸĹ":6146,"CA":6147,"Ġseen":6148,">\\":6149,"çİĭåĽ½":6150,"èĥ½åĬĽ":6151,"Ġrestri":6152,"Ġstill":6153,"ĠWhi":6154,"ç¼ł":6155,"è¿ĺæľī":6156,"æĿľ":6157,"Ġsupernova":6158,"æĿİ":6159,"Ġbetter":6160,"ä¸įä¼ļ":6161,"ä¼ļè®®":6162,"å°±åı¯ä»¥":6163,"arent":6164,"Ġtwodimensional":6165,"çļĦçĥŃ":6166,"æĹłç©·":6167,"è½¬ç§»":6168,"fies":6169,"éĢĴ":6170,"peci":6171,"çĽ¸åħ³çļĦ":6172,"çĩ":6173,"Ġç»Ł":6174,"cture":6175,"orphism":6176,"Ġorth":6177,"æĪĪ":6178,"zz":6179,"wo":6180,"}),\\)":6181,"åĩĨç¡®":6182,"mits":6183,"åĪ°äºĨ":6184,"cr":6185,"iton":6186,"aries":6187,"Ġfully":6188,"tron":6189,"çĦ":6190,"Ġmajor":6191,"æĢ§åĴĮ":6192,"fficiency":6193,"äºİæĺ¯":6194,"ltaneous":6195,"lications":6196,"©éĺµ":6197,"ä¸īç»´":6198,"Ġheat":6199,"èŀį":6200,"tition":6201,"åĬ¨åĬĽåŃ¦":6202,"æĻ®éĢļ":6203,"åį°ç¬¬å®ī":6204,"èĥ½æºĲ":6205,"ç¬¦åĲĪ":6206,"ĠéĿ¢":6207,"æĥ¯":6208,"grang":6209,"Ġuseful":6210,"è´Ŀå°Ķ":6211,"mm":6212,"ink":6213,"priate":6214,"Ġchain":6215,"å°ģéĹŃ":6216,"Ġfactors":6217,"é¾Ļ":6218,"æĪĳä»¬çĶ¨":6219,"Ġ\\;\\;":6220,"ĠNa":6221,"çº¿çļĦ":6222,"Ġconve":6223,"{|\\":6224,"Ġlaser":6225,"å¯¸":6226,"itz":6227,"nging":6228,"ĠkeV":6229,"orentz":6230,"Ġevent":6231,"Ġlarges":6232,"å¼łéĩı":6233,"Ġforms":6234,"ç¨ĭåº¦":6235,"Ġbehaviour":6236,"square":6237,"Ġcontinuum":6238,"ER":6239,"Ġdecomp":6240,"}+(":6241,"\\\\&\\":6242,"è°Ĳ":6243,"backslash":6244,"©åº¦":6245,"bc":6246,"Ma":6247,"suming":6248,"state":6249,"åĩĳ":6250,"å¤©ä½ĵ":6251,"Ġsemic":6252,"åİŁåĪĻ":6253,"åķĨä¸ļ":6254,"SM":6255,"omorphic":6256,"åĸľ":6257,"df":6258,"mentary":6259,"}<":6260,"ometric":6261,"Ġexist":6262,"Ġbuil":6263,"Ġdirectly":6264,"Ġ\\(\\|\\":6265,"è´£":6266,"Ġè¿Ļä¸ª":6267,"è¥¿äºļ":6268,"Ġanalyzed":6269,"åľ¨ä¸Ń":6270,"way":6271,"ç¿»":6272,"Ġedge":6273,"çģŃ":6274,"Ġoscillations":6275,"æ®ĸæ°ĳ":6276,"æĭīæĸ¯":6277,"Ġnecessary":6278,"çļĦæĹ¶éĹ´":6279,"åħ±åĴĮåĽ½":6280,"Ġmaximal":6281,"åľ¨æŃ¤":6282,"ĠCh":6283,"æŃ£ç¡®":6284,"æĳĦ":6285,"uni":6286,"å¤§å¤ļæķ°":6287,"39":6288,"Ġvariety":6289,"}},\\)":6290,"çŃ¾":6291,"åĮºéĹ´":6292,"çĶµç£ģ":6293,"Ġintermediate":6294,"Ġcriteri":6295,"ç£":6296,"hip":6297,"çĶ°":6298,"å¦Ĥä¸ĭ":6299,"Ġdensities":6300,"èģĶçĽŁ":6301,"Ġlikely":6302,"Ġunderstanding":6303,"Ġ:=\\":6304,"æīĳ":6305,"ĠLHC":6306,"izes":6307,"çļĦä¸Ń":6308,"æī©å¤§":6309,"åı¦ä¸Ģä¸ª":6310,"çº¸":6311,"Ġsamples":6312,"oulo":6313,"parame":6314,"bust":6315,"Ġunique":6316,"Ġapproaches":6317,"å©ļ":6318,"Ġç´":6319,"çļĦæ¦Ĥå¿µ":6320,"Ġplay":6321,"åįłé¢Ĩ":6322,"ä¸¥æł¼":6323,"çĬ¹å¤ª":6324,"Ġcomputation":6325,"è´¸æĺĵ":6326,"UV":6327,"åħĪåīį":6328,"Ġ\\,\\,":6329,"illi":6330,"åĨħçļĦ":6331,"Ġneutral":6332,"Ġred":6333,"å®¶åºŃ":6334,"Ġbasic":6335,"æľĽè¿ľ":6336,"|,":6337,"æĺ¾çĦ¶":6338,"æķĪæŀľ":6339,"Ġsuggests":6340,"ä¼¼ä¹İ":6341,"Ġphotons":6342,"Ġeigenval":6343,"ķĮ":6344,"Ġelectro":6345,"åĶ±":6346,"å»¶ä¼¸":6347,"æ½ľåĬĽ":6348,"çĽ¸å½ĵäºİ":6349,"åĽ°":6350,"Ġinteracting":6351,"çº¤ç»´":6352,"Ġessential":6353,"Ġæį®":6354,"SD":6355,"ä¿ĥ":6356,"Ġexc":6357,"åİļ":6358,"^+(":6359,"Ġmanifolds":6360,"çļĦäºº":6361,"Ġcoherent":6362,".}":6363,"ĴåŃĲ":6364,"åŃ£":6365,"Ġcontributions":6366,"åµ":6367,"Ġå°ı":6368,"åı¦å¤ĸ":6369,"æĻ¶ä½ĵ":6370,"Ġattrac":6371,"Ġliquid":6372,"ç»§ç»Ń":6373,"ater":6374,"Ġ{{":6375,"åµĮ":6376,"Ġpredi":6377,"å·´é»İ":6378,"æ±½":6379,"èĭ±æł¼åħ°":6380,"åŁºçĿ£æķĻ":6381,"insic":6382,"åĨĽäºĭ":6383,"tered":6384,"Ġhowever":6385,"Ġbur":6386,"æľ¯è¯Ń":6387,"Ġtherefore":6388,"Ġemploy":6389,"Ġwhether":6390,"ĠNew":6391,",\\\\&":6392,"¹ģ":6393,"Ġside":6394,"åĪĨç±»":6395,"æģ¢å¤į":6396,"grams":6397,"äºĴåĬ¨":6398,"Ġminimum":6399,"éĢ»":6400,"Ġspeed":6401,"åĲ¯":6402,"éº»":6403,"Ġunderlying":6404,"Ġåħī":6405,"å®¢":6406,"å§Ķ":6407,"æĪĲåĪĨ":6408,"Ġrapid":6409,"åĿļ":6410,"æĦıä¹ī":6411,"å±±èĦī":6412,")<":6413,"ises":6414,"Ġconnection":6415,"Ġprinciple":6416,"alog":6417,"ĠEinstein":6418,"ç¼ĵ":6419,"ave":6420,"éļĨ":6421,"Ġspherical":6422,"Ġæĥ":6423,"tionary":6424,"Ġdiver":6425,"åį³ä½¿":6426,"Ġquestion":6427,"terature":6428,"vari":6429,"unctions":6430,"Ġfinal":6431,"Ġä¼ļ":6432,"çļĦå¯¹":6433,")}-":6434,"æķıæĦŁ":6435,")_\\":6436,"åĴĮåħ¶ä»ĸ":6437,"Ġglu":6438,"ĠAu":6439,"Ġhorizon":6440,"è·ĥ":6441,"Ġconside":6442,")}\\,":6443,"Tf":6444,"Ġinfrared":6445,"art":6446,"Ġrelaxation":6447,"Ġbreaking":6448,"'}{":6449,"Ġrec":6450,"Ġdependent":6451,"äºĮä¸ĸ":6452,"è®°ä¸º":6453,"lassical":6454,"nm":6455,"ode":6456,"ç¥ŀç»ı":6457,"}\\|_{":6458,"çļĦæ¯Ķ":6459,"Ġchannels":6460,"Ġaccuracy":6461,"è¿ĶåĽŀ":6462,"Ġtogether":6463,"Ġconformal":6464,"ç²Ĺ":6465,"Ġstrate":6466,"Ġenvironment":6467,"Ġdeco":6468,"}_{-":6469,"Ġ\\,.":6470,"ĠDirac":6471,"Ġcenter":6472,"Ġconven":6473,"Ġsplit":6474,"Ġtunnel":6475,"Ġbeta":6476,"Ġç£ģ":6477,"åı¯ä»¥çĶ¨":6478,"ĠSuch":6479,"èĽĭçĻ½":6480,"Ġä½Ĩ":6481,"å®¶æĹı":6482,"Ġsatisfy":6483,"}_{(":6484,"æ¨¡åŀĭä¸Ń":6485,"Ġstep":6486,"Ġagain":6487,"dap":6488,"Ġmodified":6489,"Ġthreshold":6490,"grangian":6491,"ĠæĻ":6492,"å®ŀæķ°":6493,"åĪĽå»º":6494,"Ġelectromagnetic":6495,"çļĦç²¾":6496,"Ġå¦Ĥæŀľ":6497,"ices":6498,"Ġ&&":6499,"å¹´è¢«":6500,"Ġåıĳ":6501,"æľīæĹ¶":6502,"çŁ¥éģĵ":6503,"Ġph":6504,"=\\;":6505,"åħ¬åĪĨ":6506,"åİŁåĽł":6507,"Ġinfluence":6508,"Ġmathema":6509,"rvert":6510,"Ġåįķ":6511,"ĠNGC":6512,"éħįç½®":6513,"ä¾ĿèµĸæĢ§":6514,"Ġhaving":6515,"å°Ķé¡¿":6516,"Ġactive":6517,"Ġauth":6518,"Ġappears":6519,"Ġlimi":6520,"çºł":6521,"éĿŀæ´²":6522,"è¸":6523,")\\|":6524,"erar":6525,"underbrace":6526,"trical":6527,"¥ŀ":6528,"})\\\\":6529,"Ġå¤ĸ":6530,"å½¢çļĦ":6531,"ĠåĬł":6532,"tios":6533,"åħ¨çĲĥ":6534,"Ġreas":6535,"æīŃ":6536,"çĤ¸":6537,"è·³":6538,")\\,.\\)":6539,"ĠæīĢ":6540,"Ġones":6541,"Ġappropriate":6542,"Ġdop":6543,"}}}{":6544,"è°ĵ":6545,"Ġwavelength":6546,"é¦ĸæ¬¡":6547,"åİĭç¼©":6548,"åľºçļĦ":6549,"èĴ¸":6550,"]}\\":6551,"yond":6552,"})}\\":6553,"Ġimplies":6554,"Ġfocus":6555,"which":6556,"hood":6557,"Ġprofile":6558,"rr":6559,")\\,,":6560,"arge":6561,"éķ¿çļĦ":6562,"åİŁçĲĨ":6563,"Ġcontains":6564,"zero":6565,"è¥¿åĵ¥":6566,"SA":6567,"Ġag":6568,"textup":6569,"anti":6570,"Ġpotentials":6571,"Ġhomogeneous":6572,"*\\":6573,"bot":6574,"hspace":6575,"çļĦçŃī":6576,"Ġatmos":6577,"Ġlayer":6578,"commu":6579,"ĿĢ":6580,"sur":6581,"Ġalterna":6582,"Upsilon":6583,"tity":6584,"geqslant":6585,"Ġéĥ¨":6586,"multi":6587,"LT":6588,"Ġefficiency":6589,"åİĤ":6590,"éķ¿æľŁ":6591,"Ġè´¨":6592,"ç»ĵæĿŁ":6593,"QCD":6594,"äº¨":6595,"irst":6596,"è¶³å¤Ł":6597,"Ġreduction":6598,"Ġliterature":6599,"Ġcomplexity":6600,"å»·":6601,"tific":6602,"},{\\":6603,"oisson":6604,")}+\\":6605,"Ġcapa":6606,"Ġknow":6607,"Ġboson":6608,"yl":6609,")\\|_{":6610,"è®¢":6611,"æ¢¯":6612,"46":6613,"LE":6614,"oli":6615,"})+\\":6616,"^{-(":6617,"Ġdissi":6618,"LO":6619,"ĭ¬":6620,"èģĶéĤ¦":6621,"Ġhadron":6622,"ights":6623,"æİ¥åıĹ":6624,"Ġ({\\":6625,"HD":6626,"tili":6627,"magnetic":6628,"metry":6629,"åİŁå§ĭ":6630,"éĻįä½İ":6631,"Ġindicate":6632,"Ġvanish":6633,"Ġå¾Ĺ":6634,"éĽĦ":6635,"mization":6636,"è£ħç½®":6637,"Ġåīį":6638,"åį³åı¯":6639,"Ġadvan":6640,"èĨ¨èĥĢ":6641,"Ġsystematic":6642,"åĬłæĭ¿å¤§":6643,"æİĪ":6644,"={\\":6645,"ä»ĳ":6646,"Ġ-(":6647,"ä»¥ä¸Ĭ":6648,"è¯±":6649,"ç»§æī¿":6650,"\\}=":6651,"Ġcodes":6652,"ddots":6653,"Ġastro":6654,"Ġdep":6655,"å¸¦æľī":6656,"Ġinstability":6657,"Ġinverse":6658,"ä¸ºéĽ¶":6659,"Ġprima":6660,"Ġsupport":6661,"Ġtreat":6662,"ĠæľĢ":6663,"åŁ¹":6664,"åľ°éĿ¢":6665,"herence":6666,"Ġstatistics":6667,"Ġçī©":6668,"æµĵ":6669,"æ¯Ķäºļ":6670,"=[":6671,"æ²ĥ":6672,"Ġrobust":6673,"Ġnuclei":6674,"Ġindividual":6675,"éĿĴ":6676,"èĭ¥å¹²":6677,"ç±»åŀĭçļĦ":6678,"åĿĲæłĩç³»":6679,"ini":6680,"ĠGRB":6681,"è®ºæĸĩ":6682,"Ġideal":6683,"Ġconfiguration":6684,"57":6685,"å°Ķæĸ¯":6686,";\\)":6687,"è¢«ç§°ä¸º":6688,"Ġyields":6689,"ightarrow":6690,"éĢĥ":6691,"æĹłåħ³":6692,"å·¥ç¨ĭ":6693,"Ġsimultaneous":6694,"}\\{":6695,"åĪĨä¸º":6696,"è¿ĺæĺ¯":6697,"Ġåıĺ":6698,"odic":6699,"test":6700,"Ġsince":6701,"Ġfast":6702,"èĢħçļĦ":6703,"Ġdr":6704,"åĩ¯":6705,"Ġconvergence":6706,"Ġinterpretation":6707,"æľĽè¿ľéķľ":6708,"Ġnow":6709,")\\,.":6710,"Ġfeature":6711,"Rightarrow":6712,"Ġratios":6713,"çĴ":6714,"çĽ¸å¯¹è®º":6715,",~":6716,"]^{":6717,"é³":6718,"ç»ĥ":6719,"äºĨä¸Ģç§į":6720,"Mn":6721,"graph":6722,"Ġcounter":6723,"Ġç¡®":6724,"Ġrepresentations":6725,"Ġcharacterized":6726,"Ġconserv":6727,"å¿ħè¦ģ":6728,"ä»·åĢ¼":6729,"Ġcombination":6730,"Ġcharacteristics":6731,"Ġä»¥åıĬ":6732,"æķĻä¼ļ":6733,"è§ĤæµĭåĪ°çļĦ":6734,"Ne":6735,"Ġproved":6736,"æĪĺå½¹":6737,"point":6738,"oulomb":6739,"lvert":6740,"æķĽ":6741,"çĶ¨æĪ·":6742,"åıįå°Ħ":6743,"é¦ĸéĥ½":6744,"Ġ\\|_{":6745,"Ġgeneration":6746,"çļĦçĲĨè®º":6747,"ç¤¼":6748,"Ġreported":6749,"((\\":6750,"å¾ħ":6751,"Ġå¸¸":6752,"Ġspectroscopy":6753,"nced":6754,"ºĲ":6755,"Ġfrequencies":6756,"48":6757,"Ġ_\\":6758,"äºĪ":6759,"çĽ´çº¿":6760,"èĬĤçĤ¹":6761,"ass":6762,"¬¡":6763,"çļĦé«ĺ":6764,"Ġremain":6765,"å¹¶åľ¨":6766,"çĽ®å½ķ":6767,"ä¸ľéĥ¨":6768,"åĮ¹éħį":6769,"ŀ¬":6770,"ĠĠĊ":6771,"å¹´ç¾İåĽ½":6772,"De":6773,"åĩºæĿ¥":6774,"ĠThus":6775,"inos":6776,")},\\":6777,"trivial":6778,"çļĦæ²":6779,"Ġdiscover":6780,"comple":6781,"Ġcyc":6782,"small":6783,"Ġç»Ħ":6784,"Ġarea":6785,"=~":6786,"AC":6787,"æŃ£åľ¨":6788,"åįıè®®":6789,"')\\":6790,"={":6791,"Ġthin":6792,"ĠOne":6793,"'^":6794,"ç¬¬ä¸ī":6795,"Ġvalid":6796,"sistent":6797,"Ġinflation":6798,")ãĢĤ":6799,"ä¿ĦåĽ½":6800,"ĠRie":6801,"Ġargue":6802,"Ġhypo":6803,"æĭĵæīĳ":6804,"Ġç»ĵæŀľ":6805,"Ġsitu":6806,"åĪ¶åº¦":6807,"é¡¾":6808,"çļĦåı¯":6809,"æĹ¢":6810,"idal":6811,"iy":6812,"Ġprac":6813,"å¤Ħäºİ":6814,"Ġunit":6815,"pto":6816,"Ġparallel":6817,"ç¾¤å²Ľ":6818,"_{,":6819,"Ġins":6820,"åĲĮä¸Ģ":6821,"Ġbeyond":6822,"Ġlay":6823,"Ġformed":6824,"ount":6825,"æĺ¯ä¸Ģç§į":6826,"ä¹³":6827,"æľīäºĽ":6828,"èİ·å¾ĹçļĦ":6829,"Ġobserve":6830,"å®¾":6831,"æľ¬èº«":6832,"ç²ī":6833,"Ġproduce":6834,"tanh":6835,"è®°å½ķ":6836,"ä¼ĳ":6837,"Ġquas":6838,"Ġresis":6839,"Ġdynamic":6840,"å¾Īå¤§":6841,"å®ŀéĻħä¸Ĭ":6842,"å°ıçļĦ":6843,"å¯¼ä½ĵ":6844,"ç¹ģ":6845,"éĽª":6846,"cl":6847,"çĽĲ":6848,"æ³½":6849,"ĠAr":6850,"ĠSp":6851,"è¯Ħä¼°":6852,"æ³¡":6853,"å¤§äºİ":6854,"è¯¯å·®":6855,"){\\":6856,"è¢«è®¤ä¸º":6857,"äºĮåįģ":6858,"èĢĮä¸įæĺ¯":6859,"ĠåĲĳ":6860,"çī§":6861,"åİĦ":6862,"Ġmolecules":6863,"Ġaxis":6864,"ceed":6865,"çĶŁäºİ":6866,"coup":6867,"å¼¹æĢ§":6868,"rting":6869,"aran":6870,"Ġè¿Ļç§į":6871,"plane":6872,"duci":6873,"Ġexplicitly":6874,"IN":6875,"bold":6876,"åŁĥåıĬ":6877,"ŃåľĨ":6878,"çŃīå¼ı":6879,"å¹³æĸ¹åħ¬éĩĮ":6880,"ET":6881,"sc":6882,"Ġexpression":6883,"+(\\":6884,"DA":6885,"Ġsy":6886,"Ġopp":6887,"Ġimpact":6888,"Ġdriven":6889,"49":6890,"arth":6891,"search":6892,"å¼Ł":6893,"åľ°ä½į":6894,"Ġpolynomials":6895,"å®īè£ħ":6896,"çļĦåįķ":6897,"éĽĨä¸Ń":6898,"æŁĲä¸ª":6899,"ç»Ŀå¯¹":6900,"Ġhalf":6901,"Ġexplore":6902,"arith":6903,"èķ":6904,"Se":6905,"layer":6906,")}}\\":6907,"æĭį":6908,"ĠFrom":6909,"éĢ»è¾ĳ":6910,")}}{":6911,"å¥½çļĦ":6912,"\\}_{":6913,"Xå°Ħçº¿":6914,"gory":6915,"_{(\\":6916,"Ġoscillator":6917,"åĬŀæ³ķ":6918,"Ax":6919,"He":6920,"Ġprogram":6921,"å±ķå¼Ģ":6922,"é¢ĦæľŁ":6923,"XY":6924,"åĴĮçļĦ":6925,"Ġexamine":6926,"æĹ¶çļĦ":6927,"Ġposi":6928,"ä¿Ĺ":6929,"å¤ı":6930,"åŃĺåĤ¨":6931,"è¿Ĳè¾ĵ":6932,"+|\\":6933,"])":6934,"Ġexisting":6935,"å¸Ń":6936,"çļĦæģĴæĺŁ":6937,"åĮĸåĲĪçī©":6938,"Ġsense":6939,"Ġultra":6940,"Ġbecome":6941,"Ġdistinct":6942,",&":6943,"æ¾":6944,"å°ĸ":6945,"mented":6946,"Ġnotion":6947,"Ġcombined":6948,"tinu":6949,"Ġsensitivity":6950,"çĶļèĩ³":6951,"sk":6952,"Ġ\\([\\":6953,"}))":6954,"æ·»":6955,"çİĭæľĿ":6956,"åĪĨè¾¨çİĩ":6957,"çĸ¾":6958,"æĸĳ":6959,"Ġæĸ¹":6960,"Ġbund":6961,"åĵ²åŃ¦":6962,"ç§ģ":6963,"Ġtransformation":6964,"EC":6965,"^*,":6966,"èµ·æºĲ":6967,"ways":6968,"ourier":6969,"éĢĲæ¸Ĳ":6970,"osite":6971,"çļĦä¸Ģç§į":6972,"çļĦéĹ®é¢ĺ":6973,"çŁ®":6974,"è¢ĸ":6975,"æ¬¢":6976,"Ġearlier":6977,"pse":6978,"Ġwri":6979,"pmod":6980,"æµª":6981,"sqcup":6982,"Ġsuitable":6983,"ĠAdS":6984,"Ġexcess":6985,"Ġhierar":6986,"Ġions":6987,"åĲĪä½ľ":6988,"Ġenhance":6989,"Ha":6990,"Ġ\\}.":6991,"Ġcolor":6992,"ĠTeV":6993,"çĽ¸åıį":6994,"56":6995,"æľĢæĹ©":6996,"éľ²":6997,"group":6998,"lbrace":6999,"è¾ĵåĩº":7000,"Ġperturbations":7001,"Ġsucces":7002,"Ġ=-":7003,"çļĦæŁĲ":7004,"å¤º":7005,"Ġyoung":7006,"Ġgradi":7007,"åĻªéŁ³":7008,"Ba":7009,"atu":7010,"ä¼Ĭæĸ¯":7011,"è§Ĥå¯ŁåĪ°":7012,"Ġauto":7013,"çļĦç½":7014,"æŃ£å¼ı":7015,"ç²ĴåŃĲçļĦ":7016,"Ġoriginal":7017,"æĻº":7018,"å¢¨è¥¿åĵ¥":7019,"åºŁ":7020,"Ġker":7021,"åīª":7022,"ĠæĪĳä»¬åıĳçİ°":7023,"Ġconcer":7024,"Ġelement":7025,"ccc":7026,"}}_{\\":7027,"Ġrun":7028,"åıªèĥ½":7029,"Ġsetting":7030,"pheric":7031,"edback":7032,"æ¯ģ":7033,"ä¸¥éĩį":7034,"ĠSO":7035,"Ġæ³¢":7036,"size":7037,"æĢ§èĥ½":7038,"}&=\\":7039,"æ¯Ķä¾ĭ":7040,"RS":7041,"ç¼ĸçłģ":7042,"åľ¨è¿Ļ":7043,"å¼ºè°ĥ":7044,"Ġlink":7045,"å®½åº¦":7046,"æĢĿæĥ³":7047,"Ġcoefficient":7048,"æĭ¥æľī":7049,"Ġinput":7050,"Ġmight":7051,"ä¹Ŀ":7052,"Ġissu":7053,"åģľ":7054,"çĬ¶æĢģçļĦ":7055,"Ric":7056,"elle":7057,"tual":7058,"ĠMark":7059,"Ġans":7060,"åĲĪæĪĲ":7061,"å¿½":7062,"ens":7063,"åĲįç§°":7064,"Ġvariations":7065,"æ°ĳæĹı":7066,"Ġanother":7067,"Ġbrief":7068,"!}\\":7069,"è®Ń":7070,"Ġstatic":7071,"ĠçłĶç©¶":7072,"ctron":7073,"éĢŁçİĩ":7074,"Ġamplitudes":7075,"çĨŁ":7076,"01":7077,"å¤§éĻĨ":7078,"ĠNo":7079,"Ġsatis":7080,"Ġhydrodyna":7081,"ening":7082,"Ġhot":7083,"38":7084,"Ġinside":7085,")}_{\\":7086,"äºĨè§£":7087,"Ġtransmission":7088,"Sp":7089,"Ġsci":7090,"äºĨåľ¨":7091,"Ġæİ¥":7092,"Ġantifer":7093,"bed":7094,"Ġneighb":7095,"å¸®åĬ©":7096,"Ġaspe":7097,"ç»ĵçĤ¹":7098,"åıĳå°Ħ":7099,"è§ĦèĮĥ":7100,"çĴĥ":7101,"ĠåĽłæŃ¤":7102,"Ġvariation":7103,"å»ºéĢł":7104,"Ġrepresent":7105,"Ġprincip":7106,"Ġsynch":7107,"èĮ¨":7108,"Ġclassification":7109,"Ġexcitation":7110,"ĠMeV":7111,"å±ħä½ı":7112,"Ġkinetic":7113,"æł¡æŃ£":7114,"é¦ĸåºľ":7115,"Ġestimated":7116,"è´¨çĤ¹":7117,"Ġcorrect":7118,"Ġirre":7119,"åľ¨è¿ĻéĩĮ":7120,"è¾Ľ":7121,"tingu":7122,"ductivity":7123,"high":7124,"Ġtowards":7125,"Gs":7126,"Ġtree":7127,"åĽĽä¸ª":7128,"Ġlevels":7129,"å¦ĩ":7130,"^*)":7131,"Ġintrinsic":7132,"Ġage":7133,"å°±ä¼ļ":7134,"çļĦæĻ":7135,"dX":7136,"function":7137,"Ġthick":7138,"Ġrelatively":7139,"Ġwhat":7140,"Ġgeneric":7141,"è¿ĲåĬ¨çļĦ":7142,"ĠWhile":7143,"}^+":7144,"èĬ¬":7145,"Ġ~~":7146,"Ġ=&":7147,"åĽłåŃĲ":7148,"entation":7149,"ç³ĸ":7150,"Ġgeneralization":7151,"Ġinternal":7152,"Ġnodes":7153,"çļĦæ¦Ĥçİĩ":7154,"åı«åģļ":7155,"Ġactivity":7156,"è¥¿åħĥå¹´":7157,"¤Ĳ":7158,"covered":7159,"Ġ\\,,":7160,"å°Ĩåħ¶":7161,"å°Ķåħ°":7162,"éĩįå»º":7163,"etary":7164,"Ġprofiles":7165,"Li":7166,"Ġç®Ĺ":7167,"ĠçĲĨè®º":7168,"Ġthre":7169,"ä½ĵç³»":7170,"rag":7171,"åĨľä¸ļ":7172,")^{(":7173,"èĦļ":7174,"tances":7175,"Ġçİĩ":7176,"Ġprobe":7177,"Ġcanonical":7178,"Ġimage":7179,"ĠéĩĮ":7180,"éĩıåŃĲåĬĽåŃ¦":7181,"fluid":7182,"åº¦éĩı":7183,"Ġkpc":7184,"çļĦä¸¤":7185,")\\\\&=\\":7186,"Ġrank":7187,"Ġcompa":7188,"Ġmerger":7189,"ĵį":7190,"}),\\":7191,"æĪıåī§":7192,"Cs":7193,"çļĦè¶ħ":7194,"å¼ĥ":7195,"åĪĨéħį":7196,"Ġnote":7197,"Ġtake":7198,"ä»ĸæĺ¯":7199,"ä»¿":7200,"called":7201,"erature":7202,"}\\,.":7203,"å¡«":7204,"ç¢İ":7205,"Ġcollision":7206,"Ġoccurs":7207,"Ġshear":7208,"|(":7209,"è®¡ç®Ĺæľº":7210,"éĺ¿æĭīä¼¯":7211,"LS":7212,"gala":7213,"ĠåıĬ":7214,"æĮģç»Ń":7215,"ç´«":7216,"çļĦä¸ĢäºĽ":7217,"rela":7218,"è¡ĮåĬ¨":7219,"åĲįä¸º":7220,"fficul":7221,")[":7222,"Ġå¦Ĥ":7223,"å¤¹":7224,"Ġdisks":7225,"Ġnumerically":7226,"Ġquadra":7227,"Ġ.\\":7228,"éĢĤçĶ¨äºİ":7229,"çļĦæĶ¿":7230,"çİ»çĴĥ":7231,"ä¸ĭéĻį":7232,"Ġnontrivial":7233,"gene":7234,"Ġerrors":7235,"Ġæĸ¹æ³ķ":7236,"è®¿":7237,"izing":7238,"position":7239,"Ġstructural":7240,"åľŁåľ°":7241,"its":7242,"Ġbo":7243,"Ġmorph":7244,"Ġrise":7245,")-(":7246,"Ġcorrelated":7247,"phere":7248,"æĬµ":7249,"Ġmeasures":7250,"åģıå·®":7251,"Ġpropagation":7252,"Ġaxi":7253,"Be":7254,"åĺ":7255,"è¿ħ":7256,"),(":7257,"Ġshowing":7258,"åĬŁçİĩ":7259,"èİ·å¾ĹäºĨ":7260,"å°ļ":7261,"åı¯ä»¥éĢļè¿ĩ":7262,"å¢ŀéķ¿":7263,"Ġplanets":7264,"ial":7265,"Ġdeep":7266,"ä¼½é©¬":7267,"Ġä¹Ł":7268,"induced":7269,"Ġobject":7270,"çļĦåħī":7271,"\\},\\)":7272,"|<":7273,"ator":7274,"å¤§çº¦":7275,"Ġexperimentally":7276,"ntom":7277,"èĳ¡":7278,"Ġ\\,.\\)":7279,"æľºåĻ¨":7280,"æķĪçİĩ":7281,"Ġsupersymmetric":7282,"Ġabundance":7283,"onon":7284,"Ġgu":7285,"urally":7286,"ä¸įç¨³å®ļ":7287,"AT":7288,"çļĦå½¢å¼ı":7289,"è¿Ŀ":7290,"çļĦæ¼Ķ":7291,"ĠRecent":7292,"otic":7293,"|}{":7294,"Ġcover":7295,"çļĦä¸Ģéĥ¨åĪĨ":7296,"stellar":7297,"Ġprotocol":7298,"çļĦèĥ½éĩı":7299,"Ġnext":7300,"ĠUV":7301,"Ġhost":7302,")<\\":7303,",ãĢĤ":7304,"ME":7305,"Ġsw":7306,"èĩªæĹĭ":7307,"}([":7308,")\\\\&\\":7309,"åĪĽä½ľ":7310,"Box":7311,"æıĲé«ĺ":7312,"Ġreason":7313,"Ġ}}":7314,"ĠåĽ¾":7315,"Ġç©ºéĹ´":7316,"Ġlife":7317,"Ġtaking":7318,"å®ª":7319,"æĬĳ":7320,"ç»ĻåĩºäºĨ":7321,"å°ºå¯¸":7322,"ĠMsun":7323,"^*(\\":7324,"Ġbias":7325,"_-(":7326,"Ġ10":7327,"èŀºæĹĭ":7328,"æ®ĭ":7329,"å¡ĳ":7330,"éĶ¥":7331,"struction":7332,"çļĦæĮ¯":7333,"law":7334,"ä¸Ńå¤®":7335,"æľºæŀĦ":7336,"è§ĴåĬ¨éĩı":7337,"Ġradiative":7338,"æĶ¹éĿ©":7339,"æ°§åĮĸ":7340,"textstyle":7341,"è¹":7342,"Ġå°Ķ":7343,"Ġè§£":7344,"Ġä»¶":7345,"ĠLagrangian":7346,"Ġconsequence":7347,"certain":7348,"Ġçī¹":7349,"isation":7350,"anal":7351,"ĠLorentz":7352,"èµĭ":7353,"ilities":7354,"æķĻåłĤ":7355,"çĿĢåĲįçļĦ":7356,"ĠCoulomb":7357,"å¡ŀå°Ķ":7358,"çĽ¸åĲĮçļĦ":7359,"Ġachieved":7360,"liminf":7361,"éĻ¶":7362,"ĠPhys":7363,"åı¤ä»£":7364,"æķħäºĭ":7365,"å¹´æĪĲä¸º":7366,"Ġ{{\\":7367,"Ġconcept":7368,"ç§įç±»":7369,"éĶĢ":7370,"çĭĦ":7371,"ç¬¬äºĮæ¬¡ä¸ĸçķĮå¤§æĪĺ":7372,"è£ģ":7373,"Ġrig":7374,"ä¼ģ":7375,"ĠRes":7376,"eneral":7377,"Ġpattern":7378,"arg":7379,"edom":7380,"ĠHubb":7381,"ä½©":7382,"Ġintensity":7383,"|-":7384,"ĠåºĶ":7385,"åıĤåĬł":7386,"éĵľ":7387,"|.\\)":7388,"}/\\":7389,"Ġpredict":7390,"iver":7391,"Ġwind":7392,"Ġanisotropy":7393,"level":7394,"åłĨ":7395,"æ£ĢæŁ¥":7396,"lider":7397,"Ġvary":7398,"Ġmechanics":7399,")=\\{":7400,"}\\,.\\)":7401,"Ġimaging":7402,"å·§":7403,"åĲ«æľī":7404,")}^{":7405,"åĲĽ":7406,"Ġvol":7407,"åĬ¨èĥ½":7408,"Ġenti":7409,"è®¡åĪĴ":7410,"èĶ":7411,"Ġmes":7412,"é¾Ħ":7413,"Ġinvolving":7414,"åĮºåĪĨ":7415,"modu":7416,"dW":7417,"Ġpack":7418,"çļĦæľĢ":7419,"Ġblock":7420,"èĮĥåĽ´åĨħ":7421,"Ġassumption":7422,"ĠåĨħ":7423,"partic":7424,"Ġcomputed":7425,"Lu":7426,"Ġonedimensional":7427,"Ġobservational":7428,"Ġaff":7429,"çļĦå®ļä¹ī":7430,"æĪ¿":7431,"Ġproton":7432,"çĤ¹æĺ¯":7433,"Ġsolve":7434,"fre":7435,"Ġlast":7436,"èĲĦ":7437,"physical":7438,"ĠâĢĿ":7439,"ä¸Ģç»Ħ":7440,"ano":7441,"ç«ŀ":7442,"Ġdifferences":7443,"crip":7444,"Ġdense":7445,"Ġsensitive":7446,"|=\\":7447,"Ġpur":7448,"Ġdiv":7449,"ird":7450,"Ġsubse":7451,"æĪĳä»¬çłĶç©¶äºĨ":7452,"Ġcouplings":7453,"Ġvortex":7454,"dw":7455,"ıè¿°":7456,"åľ¨ä¸Ĭ":7457,"Ġnarrow":7458,"Ġperfect":7459,"Ġgalactic":7460,"Ġgammaray":7461,"nucle":7462,"FR":7463,"Ġç§°":7464,"åħ¼":7465,"})-\\":7466,"Ġformulation":7467,"å¾Ģå¾Ģ":7468,"Ġadap":7469,"Ġwall":7470,"ä¸ªäºº":7471,"Ġç¦»":7472,"çļĦç¬¬ä¸Ģ":7473,"ľŁ":7474,"Ġdifficul":7475,"Ġseparation":7476,"Ġæµģ":7477,"ĠSur":7478,"ĠThey":7479,"æĮ¯å¹ħ":7480,"Ġcooling":7481,"Ro":7482,"Ġ&:=":7483,"Ġstationary":7484,"Ġplanet":7485,"formed":7486,"Ġconclude":7487,"éĢĶ":7488,"åģ¥":7489,"é¢Ĩè¢ĸ":7490,"çļĦæĮĩ":7491,"ä¸Ģç³»åĪĹ":7492,"\\|\\)":7493,"Ġaccor":7494,"Ġfermions":7495,"Ġoc":7496,"ç²¾ç¥ŀ":7497,"çļĩå¸Ŀ":7498,"¾İåĽ½":7499,"MM":7500,"¾¤":7501,"åľ¨ä¸Ģä¸ª":7502,"Ġcavity":7503,"åıįåĲĳ":7504,"Ġquantities":7505,"Ġrequires":7506,"Ġestablished":7507,"ä¸ĭéĿ¢":7508,"æģ¶":7509,"å¾®åĪĨæĸ¹ç¨ĭ":7510,"TT":7511,"ç¨İ":7512,"æĭīæł¼":7513,"çĬ¯":7514,"èĴĻçī¹":7515,"Ġreaction":7516,"DS":7517,"PC":7518,"çĮİ":7519,"Ġconfigurations":7520,"Ġcat":7521,"åľ°æĸ¹":7522,"ç£ģæĢ§":7523,"]}(":7524,"Ġæĺ¾ç¤º":7525,"Ġæ®":7526,"èĭıèģĶ":7527,"Ġphenomena":7528,"Ġè¶ħ":7529,"reen":7530,"æĶ¹è¿Ľ":7531,"rals":7532,"å±ŀæĢ§":7533,"åıĤæķ°çļĦ":7534,"Ġemit":7535,"Ġç»´":7536,"Ġflows":7537,"^*_{":7538,"ä¸ĭæĿ¥":7539,"åĬłä¸Ĭ":7540,"Ġç³»ç»Ł":7541,"åıĤä¸İ":7542,"Ġdepending":7543,"éĵ¾æİ¥":7544,"Ġdemonstrated":7545,"eff":7546,"upsilon":7547,"è®¯":7548,"çĶµèĦĳ":7549,"åħ¨éĥ¨":7550,"Ġkernel":7551,"æ©":7552,"Ġresearch":7553,"èİ·åıĸ":7554,"tivated":7555,"ä»¤äºº":7556,"Xiv":7557,"nx":7558,"Ġåĩ½æķ°":7559,"fg":7560,"dia":7561,"éªĮè¯ģ":7562,"Ġå¸ĥ":7563,"Ġrational":7564,"åı¯èĥ½æĢ§":7565,"å°¤åħ¶":7566,"Ġä¸ŃçļĦ":7567,"æ²³æµģ":7568,"çĳŁ":7569,"GR":7570,"æ³¢æ®µ":7571,"çĽ®çļĦ":7572,"ighted":7573,"}}-\\":7574,"Ġcompletely":7575,"Ġodd":7576,")&\\":7577,"Di":7578,"æĿĳ":7579,"æĺ¾èĳĹ":7580,"Ġprecision":7581,"&-":7582,"dden":7583,"è®¾å¤ĩ":7584,"Ġinsu":7585,"Ġcoho":7586,"Ġshell":7587,"è¿Ļæł·çļĦ":7588,"Ġdel":7589,"æİ¥è§¦":7590,"Ġmaterials":7591,"åŁºåĽł":7592,")|^{":7593,"Ġcommunic":7594,"è·¯æĺĵ":7595,"åĬ¿èĥ½":7596,"Ġexhibits":7597,"Ġwin":7598,"å½¼":7599,"ogonal":7600,"Ġincludes":7601,"è¿İ":7602,"çļĦç´":7603,"TM":7604,"len":7605,"rid":7606,"ĠæŁ":7607,"æīĢè°ĵ":7608,"é¢Ŀå¤ĸ":7609,"Ġusual":7610,"Du":7611,"^-(":7612,"éĺ´":7613,"è®¡çĶ»":7614,"çļĦæ¯ı":7615,"Ġhydrogen":7616,"Ġæµĭéĩı":7617,"åĵª":7618,"CN":7619,"Ġsector":7620,"åħīæ»ĳ":7621,"]{":7622,"off":7623,"ley":7624,"Ġupon":7625,"nihi":7626,"mond":7627,"Ġfeedback":7628,"BH":7629,"dent":7630,"Ġç©¶":7631,"çļĦæĹł":7632,"Ġmeson":7633,"IJ":7634,"çļĦæķ°æį®":7635,"åĲİèĢħ":7636,"å¾Ĺå¤ļ":7637,"çīĽé¡¿":7638,"PT":7639,"åľ°åĿĢ":7640,"Ġæ¶":7641,"Ġcategory":7642,"Mo":7643,"Ġcoinci":7644,"æ³¢éķ¿":7645,"Ġmechanisms":7646,"åĢĻéĢī":7647,"imath":7648,"èª":7649,"mate":7650,"err":7651,"æĪĳä»¬çłĶç©¶":7652,"æĭīåħĭ":7653,"ledge":7654,"çľĭåĪ°":7655,"Ġdescribing":7656,"Ġgenerally":7657,"éĤ£éĩĮ":7658,"Pa":7659,"ĠéĿŀ":7660,"Ġelastic":7661,"å¼ĢæĶ¾":7662,"Ġdefinition":7663,"Ġmetallicity":7664,"gcd":7665,"Ġoften":7666,"è´Ń":7667,"ä¸ĸçºªæĹ¶":7668,"ches":7669,"çļĦæı":7670,"ĠDelta":7671,"ä½Ĩåľ¨":7672,"ducible":7673,"}\\|\\":7674,"å¯¹è±¡":7675,"dV":7676,"Ġ(-\\":7677,"orem":7678,"å¹´ä»»":7679,"^{*}(":7680,"romagne":7681,"æ·»åĬł":7682,"Ġthough":7683,"matically":7684,"Ġmid":7685,"ç»ĵæŀĦçļĦ":7686,"ills":7687,"Ġmagnetization":7688,"AA":7689,"this":7690,"ç¥¨":7691,"è¯ķåĽ¾":7692,"}{(\\":7693,"ä»£åħ¥":7694,"bular":7695,"Ġlocally":7696,"Ġouter":7697,"',\\":7698,"other":7699,"Ġinstru":7700,"åıĺä¸º":7701,"å·¦åı³":7702,"generate":7703,"å°ıäºİ":7704,"Fermi":7705,"arc":7706,"stead":7707,"Ġphi":7708,"èµŀ":7709,"åĪ¶ä½ľ":7710,"Ġcontact":7711,"Ġtunneling":7712,"irical":7713,"ç»ĳ":7714,"Ġasymmetry":7715,"temperature":7716,"Ġè®¡ç®Ĺ":7717,"åıĻ":7718,"part":7719,"ĠRic":7720,"å¤ļç§į":7721,"è·Ł":7722,"))}":7723,"GB":7724,"brack":7725,"å³¡":7726,"å¹´æľĪ":7727,"ĠCol":7728,"åĬ¨ä½ľ":7729,"ocities":7730,"Ġsignals":7731,"Ġmoduli":7732,"æ¶²ä½ĵ":7733,"rates":7734,"Ġ\\!":7735,"lica":7736,"ä¸ŃéĹ´":7737,"Ġselection":7738,"eded":7739,"Ġconsta":7740,"ull":7741,"Ġaim":7742,"å®ı":7743,"aba":7744,"}\\,,":7745,"è°ĭ":7746,"ç¾¤çļĦ":7747,"Ġestimation":7748,"exists":7749,"oring":7750,"æĹ¶ç©º":7751,"æ¬¾":7752,"äº¦ä½ľ":7753,"Ġsuggested":7754,"èĳ¡èĲĦ":7755,"Ġpropor":7756,"Ġharmonic":7757,"hal":7758,"å¹´çļĦ":7759,"Ġexactly":7760,"Ġfreedom":7761,"å¯Ĩå°Ķé¡¿":7762,"mannian":7763,"Ġalternative":7764,"Ġä¹ī":7765,"ĠHilbert":7766,"ĠSince":7767,"from":7768,"æĪĳä»¬èĢĥèĻĳ":7769,"pol":7770,"Ġtau":7771,"ngu":7772,"æĿĥåĬĽ":7773,"Ġacceleration":7774,"çļĦæ¸©åº¦":7775,"Ġconvex":7776,"{[":7777,"telli":7778,"ç¦»æķ£":7779,"_*(":7780,"åħ´è¶£":7781,"Ġenhanced":7782,"&&":7783,"rbrace":7784,"ĠBased":7785,"åĲİçļĦ":7786,"Ġsimpli":7787,"Ġorders":7788,"æĶ¿çŃĸ":7789,"åı¯è§ģ":7790,"))(":7791,"ç»ĦçļĦ":7792,"Ġrealistic":7793,"æĽ¾åľ¨":7794,"')^":7795,"=&\\":7796,"_{|\\":7797,"ably":7798,"ĠPo":7799,"åŃĹæ¯į":7800,"ä¿Ħç½Ĺæĸ¯":7801,"system":7802,"Ġinfin":7803,"çļĦæ´":7804,"åĲĮæŃ¥":7805,"èµ¢":7806,"ç«¥":7807,"two":7808,"ĠæĪĳä»¬æĺ¾ç¤º":7809,"Ġinterference":7810,"rays":7811,"æµħ":7812,"è¿Ļä¸¤ä¸ª":7813,"è¿ħéĢŁ":7814,"BC":7815,"und":7816,"ç§Ĵ":7817,"ĠSD":7818,"izations":7819,"Ġenough":7820,"å½Ĵä¸Ģ":7821,"Ġtarget":7822,"ĠåĪĻ":7823,"Ġresi":7824,"Ġnm":7825,"éħµ":7826,"çľŁç©º":7827,"çļĦæ°´":7828,"cti":7829,"Ġdistributed":7830,"car":7831,"textnormal":7832,"æ¯Ķå¦Ĥ":7833,"Ġatom":7834,"}'(":7835,"oral":7836,"è°ĥæķ´":7837,"çľŁå®ŀ":7838,"Ġorbits":7839,"Ġè¿ĳ":7840,"Ġmechanical":7841,"Ġbrane":7842,"})}{\\":7843,"æĿĨ":7844,"Ġmakes":7845,"ç¬¬ä¸Ģæ¬¡":7846,"bilities":7847,"åıĽ":7848,"ä¸ºä¸»":7849,"Ġplace":7850,"Ġrenormalization":7851,"\\!\\":7852,"rating":7853,"Ġimplications":7854,"|)":7855,"Ġcompound":7856,"Ġmul":7857,"æĶ¶æķĽ":7858,"ĠStandard":7859,"-(\\":7860,"å¹¼":7861,"çĶ±æŃ¤":7862,"æĺŁéĻħ":7863,"çļĦåŁºæľ¬":7864,"ï¼ĮãĢĤ":7865,"Ġtrue":7866,"}\\\\\\":7867,"ĠBa":7868,"å®ĥæĺ¯":7869,"Ġveri":7870,"Ġanomalous":7871,"bre":7872,"åľ¨æľ¬":7873,"Ġdipole":7874,"Ġensemb":7875,"çŃīç¦»åŃĲ":7876,"Ġdeno":7877,"çŁ¥è¯Ĩ":7878,"KL":7879,"Ġ)=":7880,"åĨ·åį´":7881,"oop":7882,"Ġå½¢":7883,"å¤§å¤§":7884,"Ġdisorder":7885,"ĠTelescope":7886,"Ġè¿Ľè¡Į":7887,"Ġarc":7888,"Ġsatelli":7889,"Ġvariability":7890,"ĠGamma":7891,"å¯¹è§Ĵ":7892,"ĠJa":7893,"Ġassumed":7894,"åĬłéĢŁåº¦":7895,"æ¡¥":7896,"uds":7897,"åĩ¡":7898,"Ġyield":7899,"qq":7900,"dg":7901,"Ġexclu":7902,"èĢĮè¨Ģ":7903,"69":7904,"black":7905,"Ġ((":7906,"åĽłæĸ¯åĿ¦":7907,"place":7908,"æĵįä½ľåĳĺ":7909,"land":7910,"ç¢į":7911,"å¾ĹåĪ°äºĨ":7912,"Ġrece":7913,"å±ĤçļĦ":7914,"æİ¢æµĭåĻ¨":7915,"NN":7916,"spin":7917,"Ġnaturally":7918,"é¼ĵ":7919,"Ġdistances":7920,"æľĢå¤§çļĦ":7921,"åıĺæĪĲ":7922,"é«ĺæĸ¯":7923,"Ġconstrain":7924,"Ġcru":7925,"åŃĲéĽĨ":7926,"çļĦç¡":7927,"é©±åĬ¨":7928,"Ġpatterns":7929,"Ġåħ¥":7930,"æŀª":7931,"è¡ĮçļĦ":7932,"ĵįä½ľ":7933,"æĪĳä»¬éĢļè¿ĩ":7934,"ared":7935,"Ġnearly":7936,"Con":7937,"ans":7938,"å®ļå±ħ":7939,"åıĸä»£":7940,"}]=":7941,"Ġexplained":7942,"åıªæĺ¯":7943,"æ¼Ķåĩº":7944,"éĢĤåºĶ":7945,"Ġinho":7946,"Ġalways":7947,"æ¯Ķçİĩ":7948,"èĢĥèĻĳåĪ°":7949,"yy":7950,"¨³å®ļ":7951,"æ¨¡åĿĹ":7952,"}|_{":7953,"notin":7954,"ç»¼åĲĪ":7955,"flat":7956,"ĠçĶ¨äºİ":7957,"inty":7958,"åĨł":7959,"Ġmeta":7960,"å¯¹åºĶçļĦ":7961,"Ġéĩį":7962,"Ġbefore":7963,"ĠBose":7964,"åıĳæĺİ":7965,"åħ¨åĽ½":7966,"}\\\\&":7967,"Ġconsists":7968,"éĹ»åĲį":7969,"'=\\":7970,"çĪ±å°Ķåħ°":7971,"Ġexpressions":7972,"Ġgiant":7973,"è£ħé¥°":7974,"Ġbands":7975,"çļĦä¸»":7976,"Ġisot":7977,"ä¼ª":7978,"Ġvelocities":7979,"çĹĩçĬ¶":7980,"è¸ª":7981,"åĪĨè£Ĥ":7982,"olute":7983,"Ġ$\\":7984,"Ġimproved":7985,"yz":7986,"è¡¨ç¤ºä¸º":7987,"ĠæŃ¤å¤ĸ":7988,"çºµ":7989,"Ġhol":7990,"Ġsumma":7991,"Ġevol":7992,"dean":7993,"å¹´èµ·":7994,"å¤§æ°Ķ":7995,"orial":7996,"Ġlambda":7997,",\\,\\,":7998,"è¡£":7999,"Ġdetect":8000,"å¤ľ":8001,"Ġåħ³":8002,"Ġåıĳçİ°":8003,"isted":8004,"ĠHall":8005,"Ġimpu":8006,"åı¯èĥ½çļĦ":8007,"åħ±äº§":8008,"éģ¿åħį":8009,"Ġprimary":8010,",~~":8011,"bes":8012,"tx":8013,"Ġ^{-":8014,"Ġmoments":8015,"mbers":8016,"ç°":8017,"Ġfive":8018,"ä¼¦æķ¦":8019,"çĿĢåĲį":8020,"ä¸°å¯Į":8021,"gni":8022,"çļĦä½ľåĵģ":8023,"mir":8024,"åī¯":8025,"mini":8026,"èĿ":8027,"Ġsequences":8028,"ket":8029,"çļĦæ±":8030,";\\;\\;\\;\\":8031,"è£Ķ":8032,"Ġagainst":8033,"Ġentire":8034,"|.":8035,"Ġæ¡":8036,"167":8037,"SC":8038,"æĿ¡çº¦":8039,"çº§æķ°":8040,"Xåħī":8041,"Ġvertex":8042,"Ġconstraint":8043,"åĨ²åĩ»":8044,"çĩĥ":8045,"Ġdepth":8046,"ĠFourier":8047,"Ġsuperconductivity":8048,"Ġlogarith":8049,"}<\\":8050,"Ġpreser":8051,"åħħåĪĨ":8052,"ä¸Ĭè¿°":8053,":=\\{":8054,"Ġphenomenon":8055,"è¯Ĺäºº":8056,"æįŁå¤±":8057,"æīŃæĽ²":8058,"Ġä¸Ģç§į":8059,"Ġlepton":8060,"å¹²æ¶ī":8061,"Ġelliptic":8062,"kx":8063,"Ġ}=":8064,"çī©çļĦ":8065,"consistent":8066,"æĸ°æĺŁ":8067,"Ġarise":8068,"Ġcorrection":8069,"å®īåħ¨":8070,"|+":8071,"æĺĨ":8072,"ç±»åĪ«":8073,"å¤©ä¸»æķĻ":8074,"éĿĻæĢģ":8075,"çļĦæ··":8076,"+}":8077,"çİ°å®ŀ":8078,"density":8079,"Ġsections":8080,"ç»´äºļ":8081,"Ġsubsta":8082,"quency":8083,"é¢Ĺç²Ĵ":8084,"Ġkms":8085,"[-":8086,"Ġeff":8087,"å¹³çŃī":8088,"çļĦæİ¨":8089,"ĠAd":8090,"Ġdiscovered":8091,"_{{":8092,"çļĦæĢ»":8093,"çļĦçģ":8094,"è¿Ľç¨ĭ":8095,"Ġmodeling":8096,"å¿ĥçĲĨ":8097,"Ġconventional":8098,"Ġæķ°æį®":8099,"elian":8100,"Ġcarried":8101,"ĠåĮħæĭ¬":8102,"onom":8103,"alk":8104,"è¿Ń":8105,"ä¸Ģç»´":8106,"ĠTwo":8107,"Ġcold":8108,"æ¶Īå¤±":8109,"Ġ},":8110,"ĠæĦı":8111,"è§Ħå®ļ":8112,"Ġoutflow":8113,"ferred":8114,"Ġturbulence":8115,"Ra":8116,"Ġquali":8117,"åı¯ä»¥åľ¨":8118,"åĽ¾å½¢":8119,"Ġine":8120,"ç¨Ģ":8121,"}}\\\\":8122,"è¯ģå®ŀ":8123,"Ġcomputational":8124,"downarrow":8125,"Ġç«ĭ":8126,"Ġconstants":8127,"Ġ=(":8128,"ä¸įè¿ĩ":8129,"å¾Īå¤ļ":8130,"åľŁèĢ³":8131,"Ġcapacity":8132,"Ġwar":8133,"Ġdistingu":8134,"SR":8135,"Ġeasi":8136,"Ġjets":8137,"Ġacross":8138,"èĥ¡":8139,"å¤įåĲĪ":8140,"}:\\":8141,"roups":8142,"Ġspectroscopic":8143,"ä¹ĺæ³ķ":8144,"]-":8145,"ris":8146,"rceil":8147,"Ġuser":8148,"^+_":8149,"Ġéĥ½":8150,"ĠOb":8151,"Ġinterfer":8152,"bration":8153,"Ġrelationship":8154,"Ġthird":8155,"åħĦ":8156,"çĶ¨ä½ľ":8157,"ĠæľŁ":8158,"infrared":8159,"çĶĺ":8160,"Ġobservables":8161,"éĶ¡":8162,"å¢ŀå¼º":8163,"æİ¢ç´¢":8164,",\\,\\,\\,\\":8165,"æŃĮåī§":8166,"Ġexcitations":8167,"Ġremains":8168,"Ġsimp":8169,"brid":8170,"Ġsufficiently":8171,"Ġassumptions":8172,"vices":8173,"stu":8174,"Ġembedded":8175,"Ġsharp":8176,"å¥ī":8177,"æ²»çĸĹ":8178,"Ġcloud":8179,"æİĴåºı":8180,"ĠTc":8181,"åī©":8182,"èĩªå·±çļĦ":8183,"Ġillustra":8184,"ale":8185,"éļ¶":8186,"Ġwater":8187,"æ½®":8188,"Ġå®¶":8189,"Ġå°Ħ":8190,"diag":8191,"Ġcompan":8192,"çļĦç¤":8193,"Ġnonzero":8194,"æµģåĬ¨":8195,"ee":8196,"èĢĮæĺ¯":8197,"ä¸īç§į":8198,"æİ¨å¯¼":8199,"ĠRo":8200,"ç©ºæ°Ķ":8201,"ĠAll":8202,"Ġweight":8203,"åıĺå¾Ĺ":8204,"ants":8205,"æµ·å²¸":8206,"Ġfollows":8207,"åĵģç§į":8208,"Ġè½¬":8209,"ĠGra":8210,"Ġcharacterize":8211,"Ġäºļ":8212,"Ġeta":8213,"Ġexpec":8214,"Ġphotometric":8215,"Ġmathematical":8216,"ready":8217,"èĦĤ":8218,"ams":8219,"Ġslo":8220,"ç¨³":8221,"å¥Ī":8222,"åĭĥ":8223,"çł´åĿı":8224,"burst":8225,"Ti":8226,"ĠApp":8227,"çŃīä»·":8228,"ĠAlthough":8229,"Ġdominant":8230,"Ġdominated":8231,"{-\\":8232,"Ġfrag":8233,"mping":8234,"Ġdec":8235,"elihood":8236,"ona":8237,"åĢĴ":8238,"éĵģè·¯":8239,"Ġschemes":8240,"Ġexcited":8241,"åĸ·æ°Ķ":8242,"çĸ¾çĹħ":8243,"mory":8244,"Ġ\\#":8245,"ĠeV":8246,"sful":8247,"ĠæĽ´":8248,"cripts":8249,"ä¼Ł":8250,"veys":8251,"çļĦçĬ¶æĢģ":8252,"Ġanisotropic":8253,"SY":8254,"èħº":8255,"å¹²æī°":8256,"è§Ĥå¯ŁåĪ°çļĦ":8257,",-\\":8258,"Ġng":8259,"leftrightarrow":8260,"åº¦åĴĮ":8261,"æĺŁç³»çļĦ":8262,"tatively":8263,"tainty":8264,"Ġtu":8265,"æŁ¯":8266,"æ¤ŃåľĨ":8267,"Ġweakly":8268,"åµĮåħ¥":8269,"¬¦":8270,"çļĦè§£":8271,"}-(":8272,"éľĩ":8273,"Ġcomputing":8274,"Ġempha":8275,"EP":8276,"lceil":8277,"Ġpp":8278,"Ġnoncommu":8279,"(\\{":8280,"mpling":8281,"Ġpass":8282,"ä¹ĭå¤ĸ":8283,"Ġuncertain":8284,"Ġsymmetries":8285,"åĸ·å°Ħ":8286,"Ġrule":8287,"åīĸéĿ¢":8288,"Ġgenerate":8289,"èį·åħ°":8290,"ĠPoisson":8291,"æİĮ":8292,"ĠçķĮ":8293,"Ġnamely":8294,"ient":8295,"ĠSome":8296,"pan":8297,"ä»°":8298,"ght":8299,"Ġknowledge":8300,"phase":8301,"ĠBay":8302,"Ġåľº":8303,"ç²ĺ":8304,"Ġinterface":8305,"å¸Ĥåľº":8306,"Ġdevelopment":8307,"ç´§åĩĳ":8308,"CM":8309,"Ġresonant":8310,"åį«æĺŁ":8311,"Ġä½¿":8312,"éĩĮæĸ¯":8313,"af":8314,"abc":8315,"åıªè¦ģ":8316,"èħĲ":8317,"Ġchoice":8318,"å´©":8319,"Ar":8320,"Te":8321,"Ġprediction":8322,"corpo":8323,"skip":8324,"çĤİ":8325,"ducts":8326,"åįģåĪĨ":8327,"å®ļä¹īçļĦ":8328,"gl":8329,"hed":8330,"ä½ľæĽ²":8331,"iven":8332,"éģĩ":8333,"ç»ıå¸¸":8334,"ç»ĦæĪĲçļĦ":8335,"ä¹Łå°±æĺ¯è¯´":8336,"rowave":8337,"ä¸ĢæĿ¡":8338,"å±¿":8339,"å¤ªå¹³":8340,"dow":8341,"itons":8342,"Ġselected":8343,"structure":8344,"ç±į":8345,"æŁĲç§į":8346,"ĠMarkov":8347,"Ġquadratic":8348,"çĶŁéķ¿":8349,"equilibrium":8350,"Ġrotating":8351,"æĪ´":8352,"æŃ¤æĹ¶":8353,"Ġhelp":8354,"Ch":8355,"Ġim":8356,"åŃ¦æł¡":8357,"æĬĽ":8358,"é¢ĳéģĵ":8359,"Ġprojective":8360,"Ġamount":8361,"}^{+\\":8362,"gravity":8363,"æ®ĸæ°ĳåľ°":8364,"ĠéĻĲ":8365,"ä¹Ļ":8366,"åĪĨæĶ¯":8367,"Ġsplitting":8368,"zes":8369,"isen":8370,"Ġsocalled":8371,"Ġdetermination":8372,"Ġdecomposition":8373,"wor":8374,"æ³ķåħ°":8375,"è¡ĮæĶ¿":8376,"é²ľ":8377,"Ġdescribes":8378,"çĽ¸åºĶçļĦ":8379,"Ex":8380,"Ġman":8381,"833":8382,"=}":8383,"])\\)":8384,"orbit":8385,"åľ¨ä¸Ģèµ·":8386,"Ġget":8387,"å¦ĤæŃ¤":8388,"éļ§":8389,"Ġlangu":8390,"Ġexponent":8391,"¢éĩı":8392,"raphic":8393,"ä¸ºåŁºç¡Ģ":8394,"Ġæ±":8395,"æĸĩçĮ®":8396,"Ġresonances":8397,"è¿Ł":8398,"ĠHI":8399,")\\,,\\)":8400,"æĸŃè£Ĥ":8401,"éĢĤåĲĪ":8402,"Einstein":8403,"dal":8404,"wi":8405,"è¯ī":8406,"å±ĭ":8407,"æŁ¥çĲĨ":8408,"forming":8409,"(|\\":8410,"Ġrecur":8411,"Ġè¡¨":8412,"ĠæŃ£":8413,"Ġsphere":8414,"ĠRev":8415,"Ġcarbon":8416,"{}":8417,"çļĦæľī":8418,"ä¹ı":8419,"diaba":8420,"çŃīçº§":8421,"}|^{":8422,"çŁ©éĺµçļĦ":8423,"çļĦæ¡":8424,"åĸĢ":8425,"Car":8426,"è¥¿æĸ¹":8427,"èĤĮ":8428,"çĺ":8429,"+{\\":8430,"joint":8431,"vio":8432,"ç¾Ĭ":8433,"Ġcontaining":8434,"Ġrules":8435,"Ġcondensate":8436,"ĠGe":8437,"åĬĽéĩı":8438,"theory":8439,"}{|\\":8440,"Ġåħĭ":8441,"Ġreli":8442,"certainty":8443,"LR":8444,"Ġ=-\\":8445,"ndra":8446,"æĺ¯çļĦ":8447,"Ġtakes":8448,"çļĦçŁ©éĺµ":8449,"Ġscenarios":8450,"ä¼Ĭæĸ¯åħ°":8451,"ĠBoth":8452,"çĲĨè®ºä¸Ń":8453,"å¥¥åľ°":8454,"å±ħæ°ĳ":8455,"çļĦå¤§å°ı":8456,"æīįèĥ½":8457,"äº¨åĪ©":8458,"Pro":8459,"½ľ":8460,"ĠæŀĦ":8461,"Ġåħ·æľī":8462,"Ġ\\}.\\)":8463,"å®ģ":8464,"sec":8465,"æĹ¶åĪ»":8466,"thermal":8467,"çĵľ":8468,"Ġconcentration":8469,"Ġcandidate":8470,"(,":8471,")=(-":8472,"ä»¥æĿ¥":8473,"ä½ľèĢħ":8474,"Ġlate":8475,"åıįæĺł":8476,"ĠSpe":8477,"ĠPa":8478,"çļĦçĪ":8479,")}\\\\":8480,"^+}":8481,"Ġvectors":8482,"AS":8483,"çĹĽ":8484,"å¤įæĿĤçļĦ":8485,"ĠåĪĨæŀĲ":8486,"tian":8487,"æĽ´å¤ļ":8488,"æĸĩä»¶ä¸Ń":8489,"Ġgradient":8490,"GS":8491,"Mills":8492,"åĲĮè´¨":8493,"Ġutili":8494,"ä¸Ńå¾®åŃĲ":8495,"å¹´è½»":8496,"Ġsix":8497,"æķ´ä½ĵ":8498,"Ġvisco":8499,"-{":8500,"Na":8501,"ä¿ĿçķĻ":8502,"å¾ģæľį":8503,"Ġmixed":8504,"Ġferromagnetic":8505,"Ġillustrate":8506,"åľŁèĢ³åħ¶":8507,"çļĦæīĢæľī":8508,"çļĦç«":8509,"æıŃ":8510,"æķĻå®Ĺ":8511,"Ġinterval":8512,"Ġcite":8513,"orts":8514,"123":8515,"å¤įæķ°":8516,"åĪºæ¿Ģ":8517,"çļĦéĩįè¦ģ":8518,"Ġlocalized":8519,"ware":8520,"å°ıåŀĭ":8521,"continu":8522,"III":8523,"Ġindicates":8524,"Ġlon":8525,"Ġdif":8526,"ĠYang":8527,"Ġtransformations":8528,"gani":8529,"åľ¨è¿Ļä¸ª":8530,"hole":8531,"Ġannihi":8532,"CR":8533,"Ġä¸¤":8534,"termin":8535,"ĠFirst":8536,"åľ°åĽ¾":8537,"èĪ°":8538,"lanck":8539,"AP":8540,"Ġmac":8541,"Ġuses":8542,"cepti":8543,"AGN":8544,"æııè¿°äºĨ":8545,"Su":8546,"ĠUniverse":8547,"Ġdiscovery":8548,"Ġè®¡":8549,"Ġæĸ°":8550,"Ġconstitu":8551,"ils":8552,"Ġcorresponds":8553,"åĶ®":8554,"å¿½çķ¥":8555,"Ġleft":8556,"))-":8557,"Ġcohomology":8558,"EM":8559,"=\\|":8560,"ĠCu":8561,"Ġneeded":8562,"Ġneutrinos":8563,"Ġabsence":8564,"}$":8565,"çļĦåĨħ":8566,"itter":8567,"åĳ¢":8568,"luster":8569,"è¯Ńä½ľ":8570,"Ġapproximately":8571,"ĠåĻ¨":8572,"Ġremo":8573,"cccc":8574,"Ġtrig":8575,"è¯Ħè®º":8576,"é£ŀæľº":8577,"Ġlocated":8578,"Ġallowed":8579,"çļĦç¥ŀ":8580,"Ġquite":8581,"çŀ¬":8582,"Ġéķ¿":8583,"fraction":8584,"åľ¨ç¾İåĽ½":8585,")}-\\":8586,"åĪĨæķ£":8587,"ĠGreen":8588,"éĥ½ä¼ļ":8589,"LC":8590,"ĠLy":8591,"Ġfermion":8592,"æ¾³":8593,"HO":8594,"Ġrho":8595,"Ġä½İ":8596,"å±ı":8597,"çĽ¸çŃī":8598,"è´¨éĩıçļĦ":8599,"ĠLambda":8600,"iu":8601,"éĢļä¿¡":8602,"Ġerg":8603,"ren":8604,"Ġaspects":8605,"MF":8606,"NS":8607,"phantom":8608,"section":8609,"æİī":8610,"omorphism":8611,"Ġsubset":8612,"ib":8613,"Ġlear":8614,"å´ĩ":8615,"Ġpc":8616,"any":8617,"æĭĶ":8618,"Ġassuming":8619,"posi":8620,"fying":8621,"Ġhyperbolic":8622,"Ġthermodynamic":8623,"Ġlayers":8624,"åĪĽéĢł":8625,"Ġimportance":8626,"ä»ĭç»įäºĨ":8627,"Ġä»£":8628,"\\\\&=\\":8629,"æ³¨åħ¥":8630,"Ģæľ¯":8631,"Ġtelescope":8632,"')=":8633,"ä¹°":8634,"forms":8635,"æ°¸":8636,"è¢«è§Ĩä¸º":8637,"èĤ¡":8638,"Ġèĩª":8639,"atorial":8640,"mode":8641,"å§Ķåĳĺ":8642,"ock":8643,"Ġpion":8644,"è´¨åŃĲ":8645,"Ġtreatment":8646,"è¡¨æ¼Ķ":8647,"Ġwhereas":8648,"çļĦæĥħ":8649,"Ġsuccessful":8650,"Tc":8651,"æ²Ī":8652,"jector":8653,"èļĢ":8654,"å¤§è§Ħæ¨¡":8655,"Ġtopology":8656,"è¡°åĩı":8657,"Ġempirical":8658,"bx":8659,"Ġä½į":8660,"æµ·åĨĽ":8661,"å»ºç«ĭäºĨ":8662,"{$":8663,"çļĦåĢ¼":8664,"äº«":8665,"ĠLand":8666,"Ġpicture":8667,"Ġinver":8668,"Ġalready":8669,"å¯»æī¾":8670,"Ġrecover":8671,"ä¿ĿåŃĺ":8672,"æİĴåĪĹ":8673,"BI":8674,"lling":8675,"clidean":8676,"Ġlimited":8677,"Ġaccording":8678,"scepti":8679,"oc":8680,"æĪĲåĥı":8681,"èµ¤":8682,"ä¹Łæľī":8683,"Ġalthough":8684,"åĿĩåĮĢ":8685,"çļĦåıĮ":8686,"orn":8687,"Ġ.,":8688,"ditional":8689,"æ¼ĶåĮĸ":8690,"æĮīçħ§":8691,"ots":8692,"Ġ\\},":8693,"})_":8694,"parallel":8695,"electron":8696,"æĤ£":8697,"Ġintegrated":8698,"ĠçĦ¶åĲİ":8699,"width":8700,"Ġactu":8701,"è°ĥçĶ¨":8702,"æ·¡":8703,"è®®ä¼ļ":8704,"ĠæĮĩ":8705,"Ġdistinguish":8706,"ott":8707,"åĮºåĪ«":8708,"éªĳ":8709,"åĮĹç¾İ":8710,"scal":8711,"çļĦæĸ¹å¼ı":8712,"Ġhetero":8713,"]=[":8714,"æļĹçī©è´¨":8715,"quently":8716,"Ġsubject":8717,"imp":8718,"};\\":8719,"ital":8720,"Ġordin":8721,"ologies":8722,"çĽ®çļĦæĺ¯":8723,"åįĬå²Ľ":8724,"Ġnearby":8725,"ç¬¬äºĮä¸ª":8726,"zi":8727,"Ġright":8728,"Ġæľº":8729,"rily":8730,"çĽ¸ä½į":8731,"Ġgenerating":8732,"åĦ¿åŃĲ":8733,"Ġprecise":8734,"Ġabsolute":8735,"Ġsubstantial":8736,"))+":8737,"Ġ{(":8738,"æ³¢æĸ¯":8739,"Ġexamin":8740,"Ġinequality":8741,"Ġeigenvalues":8742,"hd":8743,"sider":8744,"æ³¢åħ°":8745,"Ġcharacterization":8746,"çļĦæĶ¹":8747,"Ġachieve":8748,"HI":8749,"éĽĨçļĦ":8750,"åı¯èĥ½ä¼ļ":8751,"Ġjust":8752,"itzer":8753,"ä»ĺ":8754,"èİİ":8755,"çĻ½èī²":8756,"çªĹ":8757,"Ġpolarized":8758,"Ġflavor":8759,"Ġquarks":8760,"å³°åĢ¼":8761,"éĢļéģĵ":8762,"Ġbosons":8763,"Ġcompe":8764,"è°¢":8765,"åĳ¼":8766,"æıĲåıĸ":8767,"Ġfractional":8768,"çĦ¦":8769,"ai":8770,"\\|^{":8771,"è¥¿æ´ĭ":8772,"ä½¿çĶ¨çļĦ":8773,"ĠåĪĹ":8774,"mar":8775,"}_+":8776,"ĠGHz":8777,"Ġsurveys":8778,"åį±":8779,"çĥ§":8780,"å²Ľå±¿":8781,"Ġ(,":8782,"Ġmaking":8783,"æĸ¹å½¢":8784,"ults":8785,"æ¡ĳ":8786,"Ġgreater":8787,"ĠæĪĳä»¬çļĦ":8788,"æŃ»äº¡":8789,"è¥¿åħĥåīįä¸ĸçºª":8790,"Ġdiagrams":8791,"An":8792,"tite":8793,"Ġæ·":8794,"å»ī":8795,"Ġpartition":8796,"èĦı":8797,")|_{":8798,"æĿ¡ä»¶ä¸ĭ":8799,"wp":8800,"lates":8801,"åľ¨ä¸Ģ":8802,"æ¯«":8803,"ash":8804,"åĨ²çªģ":8805,"æĢ¥":8806,"çī¹çļĦ":8807,"æĹ¶éĹ´çļĦ":8808,"Ġ\\;\\":8809,"è¾ħ":8810,"Ġ||":8811,"tency":8812,"éĺµåĪĹ":8813,"ä¿Ŀè¯ģ":8814,"è§ĤæµĭåĪ°":8815,"åħħçĶµ":8816,"ä¼ĺåĮĸ":8817,"Ġturn":8818,"æĤ¬":8819,"Ġabundances":8820,"Ġswit":8821,"æĬĳåĪ¶":8822,"éļ§éģĵ":8823,"å¥¥åľ°åĪ©":8824,"mains":8825,"æķĮ":8826,"ductor":8827,"å®¡æŁ¥":8828,"mor":8829,"scale":8830,"èĩ£":8831,"æĸ¯åŁº":8832,"}\\}":8833,"åĪł":8834,"é©»":8835,"è§ĤçĤ¹":8836,"Ġcorrespondence":8837,"-{\\":8838,"Ġincorpo":8839,"åįµ":8840,"ĠçĬ¶æĢģ":8841,"å¾®å¼±":8842,"Ġcandidates":8843,"Ġæł¼":8844,"èį£":8845,"AX":8846,"Ġwhite":8847,"çĥŃå¸¦":8848,"æ¼Ķåıĺ":8849,"qx":8850,"æľĢä½İ":8851,"Ġviolation":8852,"Ġproportional":8853,"aves":8854,"ä»¥ä¾¿":8855,"}={":8856,"perturb":8857,"Ġspecies":8858,"Ġgover":8859,"è¯ĨåĪ«":8860,"Ġsuperconductors":8861,"ĠAfter":8862,"çŃīäºº":8863,"æĬķå½±":8864,"Ge":8865,"clo":8866,"èĮİ":8867,"GRB":8868,"fold":8869,"ĠæĹł":8870,"Ġsatu":8871,"æĸ¹ä¾¿":8872,"diabatic":8873,"Ġåħĥ":8874,"é«ĺçļĦ":8875,"Ġuncertainty":8876,"çļĦä¸ĢèĪ¬":8877,"å¤±è´¥":8878,"æľªæĿ¥":8879,"ype":8880,"than":8881,"^{(-":8882,"éĹ®é¢ĺçļĦ":8883,"æ¹¿":8884,"ä»ĸä»¬çļĦ":8885,"ä¸°åº¦":8886,"pecially":8887,"8333":8888,"uu":8889,"åŃ¤":8890,"Ġperio":8891,"IT":8892,"åħ¥ä¾µ":8893,"valu":8894,"orphisms":8895,"çļĦæĶ¯":8896,"åĪ¤æĸŃ":8897,"åĮ»åŃ¦":8898,"Ġel":8899,"abi":8900,"Ġmemory":8901,"1667":8902,"æķĳ":8903,"net":8904,"ĠæºĲ":8905,"Ġæ¬¡":8906,"çļĦçĤ¹":8907,"Ġconsidering":8908,"CC":8909,"Ġdeformation":8910,"æĮĩæĮ¥":8911,"}\\\\&\\":8912,"å®ŀæĸ½":8913,"å¤ĸäº¤":8914,"Ġchalle":8915,"å«":8916,"å®Ŀ":8917,"))^{":8918,"ä¸īåįģ":8919,"ä¸»è¦ģçļĦ":8920,"Ġconfir":8921,"Ġä½ķ":8922,"éĻĢ":8923,"Ġspre":8924,"Ġpowerlaw":8925,"Ġedges":8926,"Ġinvariants":8927,"particles":8928,"ences":8929,"Ġstron":8930,"éĥ½åı¯ä»¥":8931,"Ġgeometrical":8932,"Ġwhole":8933,"76":8934,"Ġfas":8935,"è¿Ī":8936,"Ġlen":8937,"ĠĠĠ":8938,"pation":8939,"Ġonto":8940,"Ġdetectors":8941,"èĭıæł¼åħ°":8942,"Ġtests":8943,"frequency":8944,"Eu":8945,"odot":8946,"MAP":8947,"}_{+":8948,"Ġcompati":8949,"æīĢåľ¨":8950,"Ps":8951,"è´«":8952,"Ġjoint":8953,"æµģå½¢":8954,"Ġunitary":8955,"æ¥ļ":8956,"æ¬¢è¿İ":8957,"Ġbranching":8958,"\\,\\,":8959,"vin":8960,"Ġpresents":8961,"æĮĩæłĩ":8962,"æ¡Īä¾ĭ":8963,"Ġbinaries":8964,"éŀ":8965,"Ġdv":8966,"heres":8967,"Ġstabili":8968,"æĭīä¸ģ":8969,"æ¼Ķåĳĺ":8970,"Ġanalytically":8971,"Ġimplementation":8972,"UT":8973,"åĲ¬":8974,"domin":8975,"åĴĮå¹³":8976,"parrow":8977,"Ġhence":8978,"tism":8979,"blished":8980,"59":8981,"MO":8982,"ç¬Ķè®°":8983,"ae":8984,"åħ¬åĽŃ":8985,"ĠæĪĳä»¬è¯ģæĺİ":8986,"Ġallowing":8987,"Ġlattices":8988,"çªĦ":8989,"é¼ł":8990,"è¿Ŀåıį":8991,"ä¸įæĸŃ":8992,"çļĦæ°Ķ":8993,"Ġsingularities":8994,"fo":8995,"ĠMil":8996,"è¾©":8997,"æĢ»æĺ¯":8998,"Ġeasily":8999,"hol":9000,"Ġarchi":9001,"äºĭå®ŀä¸Ĭ":9002,"Ġcatalog":9003,"ĠåĪ«":9004,"tus":9005,"Ġvertices":9006,"å®¹åĻ¨":9007,"æ¤İ":9008,"Ġconductance":9009,"ja":9010,"bula":9011,"å®ĪæģĴ":9012,"åıĳè¡¨":9013,"åĿ¡":9014,"Ġgeneralize":9015,"æĳĨ":9016,"Ġorthogonal":9017,"zs":9018,"Ġmoving":9019,"æĭĴ":9020,"Ġapplic":9021,"ç®ĹåŃĲ":9022,"è½¬åĬ¨":9023,"è¶ħå¯¹ç§°":9024,"Ġpulse":9025,"lity":9026,"Ġvir":9027,"Ġqubit":9028,"Ġæĭ¬":9029,"Ġclu":9030,"Ġholds":9031,"Ġ16":9032,"åĽłèĢĮ":9033,"Ġwellknown":9034,"Ġevaluate":9035,"å¥´éļ¶":9036,"è®Ńç»ĥ":9037,"Ġantiferromagnetic":9038,"ĠèĢħ":9039,"æĭ¼":9040,"Ġitself":9041,"Ġfilms":9042,"Ġaffine":9043,"Ġé¢ĺ":9044,"ä¸Ńéĥ¨":9045,"new":9046,"ĠåĪ©":9047,"han":9048,"çļĦçĭ¬":9049,"èĸĽ":9050,"juga":9051,"GP":9052,"day":9053,"Ġforces":9054,"Ġclouds":9055,"Ġdecrease":9056,"ured":9057,"})\\,":9058,"çļĦåħ³ç³»":9059,"duct":9060,"éª¤":9061,"variance":9062,"Ġdelta":9063,"kov":9064,"Ġidea":9065,"Ġdecreases":9066,"Ġcriterion":9067,"eak":9068,"vities":9069,"Ġyet":9070,"Ġspon":9071,"èµ¢å¾Ĺ":9072,"æµģè¡Į":9073,"æĮĩå®ļ":9074,"åĨĻæĪĲ":9075,"åľĨå½¢":9076,"èªī":9077,"Ġæŀģ":9078,"ä»İäºĭ":9079,"ä»»åĬ¡":9080,"æīĢæľīçļĦ":9081,"åį°ç¬¬å®īäºº":9082,"è®¿éĹ®":9083,"å¤ªå¹³æ´ĭ":9084,",+":9085,"Ds":9086,"å¹ķ":9087,"æłĸ":9088,"^*=":9089,"æĸĩåŃĹ":9090,"ç²¹":9091,"æłĩéĩı":9092,"çľŁæŃ£":9093,"åıĤèĢĥç³»":9094,"kin":9095,"lm":9096,"vent":9097,"Ġunderstand":9098,"Ġcommunication":9099,"ĠCal":9100,"çļĦæĦı":9101,"èµĦæºĲ":9102,"Ġinterpreted":9103,"çļĦç²ĴåŃĲ":9104,"Ġinfinity":9105,"Ad":9106,"Ġrough":9107,"å¹´é¾Ħ":9108,"æµĭéĩıçļĦ":9109,"åĵĪå¯Ĩ":9110,"æļĤ":9111,"å¼¯":9112,"æºĥ":9113,"é¡¹çĽ®":9114,")!}":9115,"çĭ¬ç«ĭçļĦ":9116,"Ni":9117,"rents":9118,"åĪĬ":9119,"ĠJu":9120,"éĤ£äºĽ":9121,"Ġunstable":9122,"ohn":9123,"åĲĮæŀĦ":9124,"Ġentangled":9125,"Ġcollapse":9126,"éĥ¡":9127,"èĢĮä¸į":9128,"ç¿°":9129,"å®£å¸ĥ":9130,"è¤Ĳ":9131,"invariant":9132,"åľ¨äºİ":9133,"Ġproducts":9134,"Ġsuscepti":9135,"Ġapparent":9136,"Ġsim":9137,"ä½İæ¸©":9138,"è°ĥæŁ¥äºĨ":9139,"Ġcall":9140,"ĠdW":9141,"çļĦæ¶":9142,"Ġæ¯ı":9143,"Ġsimultaneously":9144,"Ġirreducible":9145,"Ġpairing":9146,"Ġmodules":9147,"éĢıè¿ĩ":9148,"Ġns":9149,"ranes":9150,"æĪĺçķ¥":9151,"Ġmicroscopic":9152,"æıĴåħ¥":9153,"Ġhypothesis":9154,"GA":9155,"èĢĹ":9156,"resolution":9157,"differe":9158,"ä¸įçĽ¸":9159,"Ġtransform":9160,"tate":9161,"åľ¨æľ¬æĸĩä¸Ń":9162,"}=(\\":9163,"å¤ļåħĥ":9164,"Ġarising":9165,"Ġè¿ĺ":9166,"Ġcomposition":9167,"åĮĸä¸º":9168,"child":9169,"èº«ä½ĵ":9170,"Ġéģĵ":9171,"æĢĢ":9172,"äº®åº¦":9173,"LF":9174,"~.\\)":9175,"mplectic":9176,"æ°ĳä¸»":9177,"æģĴæĺŁçļĦ":9178,"Ġequivalence":9179,"Ġbriefly":9180,"'.":9181,"\\},\\":9182,"ited":9183,"cot":9184,"æ»¤":9185,"Ġspins":9186,"è´µæĹı":9187,"Ġisotropic":9188,"Ġ..:":9189,"åıĭ":9190,"å¯¿":9191,"çº²":9192,"éĩĮäºļ":9193,"è¶ħçº§":9194,"èıľ":9195,"Sr":9196,"ining":9197,"ery":9198,"terior":9199,"Ġdwarfs":9200,"Ġenhancement":9201,"54":9202,"sus":9203,"ä¼ı":9204,"Ġcali":9205,"^{*}\\":9206,"ual":9207,"ä¸»å¼ł":9208,"orous":9209,"æ³ķçļĦ":9210,"Ġpopulations":9211,"Ġuncertainties":9212,"ĠLandau":9213,"PO":9214,"ä¸īä¸ĸ":9215,"åĲĦä¸ª":9216,"Ġremark":9217,"Ġthreedimensional":9218,"Ġçº¦":9219,"Ġavo":9220,"ĠæĪĳä»¬çĶ¨":9221,"Ġslight":9222,"Ġglass":9223,"Ġexpressed":9224,"çĪĨåıĳ":9225,"è¿Ńä»£":9226,"Ġsolving":9227,"çļĦå®ŀéªĮ":9228,"ä¸ĢçĤ¹":9229,"Ġxy":9230,"Ġlet":9231,"å¹¿ä¹ī":9232,"gr":9233,"Ġcircular":9234,"Ġfindings":9235,"Ġè´¨éĩı":9236,"}((":9237,"Ġvisi":9238,"éĹª":9239,"å¤įåħ´":9240,"è´§å¸ģ":9241,"cen":9242,"za":9243,"Ġ)^{":9244,"Ġ+(":9245,"éĽķåĪ»":9246,"Ġdot":9247,"ries":9248,"}})\\":9249,"Ġspiral":9250,"ä¸Ģä¸ĭ":9251,"Ġperturbative":9252,"Ġ}^{":9253,"ĠæŀĲ":9254,"çĶµç¦»":9255,"plan":9256,"èħĵ":9257,"Ġprior":9258,"ä¸Ģèĩ´çļĦ":9259,"Ġcomparable":9260,"ĠSurvey":9261,"\\})":9262,"show":9263,"Ġè¯ģæĺİ":9264,"Ġdistor":9265,"ç¡ħ":9266,"grega":9267,"ä¿®æŃ£":9268,"81":9269,"bound":9270,"åĪĳ":9271,"ĠCMB":9272,"ĠPar":9273,"ç¡®è®¤":9274,"Ġgreat":9275,"+{":9276,"Ġèĩ´":9277,"Ġsel":9278,"åŃĲç©ºéĹ´":9279,"éĩįå¤į":9280,"ç±»çļĦ":9281,"Ġsuperfluid":9282,"Ġduality":9283,"photon":9284,"æĬ½è±¡":9285,"è¢«è®¤ä¸ºæĺ¯":9286,"èŃ":9287,")={\\":9288,"ä¼Ĳ":9289,"ĠLarge":9290,"æįĨ":9291,"Ġnonlocal":9292,"Ġchains":9293,"Ġdevices":9294,"Ġespecially":9295,"Ġgoal":9296,"Ġtight":9297,"Ġå¯¼":9298,"è½¬åıĺ":9299,"Ġtriang":9300,"~~~~~~~~":9301,"Ġasymptotically":9302,"Ġinvariance":9303,"ĠObserv":9304,"Ġconcep":9305,"Ġmapping":9306,"^*}":9307,"å¹³æ»ĳ":9308,"çĥŁ":9309,"Ġstress":9310,"79":9311,"lip":9312,")}|":9313,"åĲĪçĲĨ":9314,"ç»ıéªĮ":9315,"éģĹä¼ł":9316,"Ġaddress":9317,"Ġä¸¤ä¸ª":9318,"Ġsq":9319,"ĠSun":9320,"dial":9321,"ç»Ħç¾¤":9322,"è®¡ç®ĹäºĨ":9323,"å®ļä¹īä¸º":9324,"Ġgluon":9325,"Ġstrategy":9326,"Ġdoping":9327,"å°ıæĹ¶":9328,"éĵ¶æ²³ç³»":9329,"Ġreproduce":9330,"opf":9331,"é»ĺè®¤":9332,"ML":9333,"lein":9334,"åĬłä»¥":9335,"Ġradii":9336,"å¨ģå°Ķ":9337,"Ġsecondary":9338,"axwell":9339,"em":9340,"æĪĳä»¬æĬĬ":9341,"æıĲè®®":9342,"Ġtrajector":9343,"Ġseparate":9344,"}}|":9345,"åĿİ":9346,"è§Ĵèī²":9347,"Ġsolid":9348,"Ġparticularly":9349,"coun":9350,"uparrow":9351,"Ġmag":9352,"è¯ģæ¯ķ":9353,"è¯ķéªĮ":9354,"Ġturns":9355,"Ġmono":9356,"Ġspontaneous":9357,"functions":9358,"Ġevolutionary":9359,"Ġfamilies":9360,"Cha":9361,"metal":9362,"ä»ĸè¿ĺ":9363,"å¸¸è§Ħ":9364,"Ġtriple":9365,"belian":9366,")/\\":9367,"py":9368,"}(-\\":9369,"çĶµè·¯":9370,"Ġenco":9371,"}\\\\&=":9372,"Ġformulas":9373,"Ġcosmology":9374,"dB":9375,"mps":9376,"Ġcontent":9377,"å¿Ĩ":9378,"Ġheating":9379,"èķ¾":9380,"Ġfore":9381,"dop":9382,"æĪĳä»¬å¯¹":9383,"èĩªæĪĳ":9384,"éģµ":9385,"Ġlater":9386,"Ġtransmit":9387,"ç´¢å¼ķ":9388,"Ġredshifts":9389,"jo":9390,"\\|=":9391,"Ġstudying":9392,"],\\":9393,"|+|":9394,"ä¸ºæŃ¢":9395,"resis":9396,"Ġæ®µ":9397,"tle":9398,"Ġrich":9399,"})(\\":9400,"liar":9401,"\\|_\\":9402,"jection":9403,"åį¡æ´Ľ":9404,"åİ»ä¸ĸ":9405,"Long":9406,"Ġparts":9407,"éĵ¶è¡Į":9408,"èµĦæĸĻ":9409,"Ġcoordinates":9410,"hu":9411,"è²":9412,"Ġå®ŀ":9413,"åįķä¸ª":9414,"åıĳçİ°äºĨ":9415,"ç§»æ°ĳ":9416,"åģĩå®ļ":9417,"relativistic":9418,"tern":9419,"ium":9420,"spa":9421,"Ġèī²":9422,"çļĦç»ĵæŀĦ":9423,"æ³Ĭ":9424,"Ġsecu":9425,")]=":9426,"Ġå¹¶ä¸Ķ":9427,"Ġreveals":9428,"Ġconductivity":9429,"æŀĿ":9430,"brane":9431,"Ġquantitative":9432,"é¥±":9433,"Ġplanar":9434,"çļĦæĽ²":9435,"Ġpurpose":9436,"Ġnoncommutative":9437,"Ġamb":9438,"çļĦçī¹æĢ§":9439,"çļĦæĢ§è´¨":9440,"èĢ¦":9441,"toff":9442,"Ġlaws":9443,"é½¿":9444,"çļĦæŃ£":9445,"åľ¨é«ĺ":9446,"éĹ´éļĶ":9447,"åıĳéħµ":9448,"æĮĩä»¤":9449,"ç±»ä¼¼äºİ":9450,"Ġsingularity":9451,"çºłç¼ł":9452,"æĭīæł¼æľĹ":9453,"alities":9454,")\\\\\\":9455,"ä½İäºİ":9456,"Ġcomputer":9457,"Ġordinary":9458,"])=":9459,"arest":9460,"åĪĻæĺ¯":9461,"è½¨è¿¹":9462,"SSM":9463,"å·¨å¤§":9464,"NC":9465,"åŃŁ":9466,"æľīè¶£":9467,"Ġkind":9468,"process":9469,"æĥĬ":9470,"Ġsampling":9471,"åįıåĬ©":9472,"Ġæĸĩ":9473,"Ġreduce":9474,"Ġmas":9475,"Ġoscillation":9476,"Ġviscosity":9477,"Ġæĭī":9478,"ä¸Ľ":9479,"éĩıåĮĸ":9480,"è°Ķ":9481,"Ġproviding":9482,"çĽ¸å¯¹åºĶ":9483,"åĪ°å¹´":9484,"è°Ī":9485,"Ġparton":9486,"100":9487,"Ġtion":9488,"ignment":9489,"é£ŀè¡Į":9490,"èŃ¦":9491,"åĮĪ":9492,"å¥ĳ":9493,"Ġconstrained":9494,"¬§":9495,"çļĦåĪĨæŀĲ":9496,"Ġbase":9497,"å¿ł":9498,"éĽĨåĽ¢":9499,"Ġdomains":9500,"Ġspatially":9501,"åĵĪå¯Ĩé¡¿":9502,"onent":9503,"Ġpen":9504,"Ġbody":9505,"Gaussian":9506,"Ġcolum":9507,"Ġsimulated":9508,"Ġassume":9509,"æľ¬å¾ģåĢ¼":9510,"ĠçĶ±äºİ":9511,"çļĦçī¹":9512,"Ġexpa":9513,"ĠçĿĢ":9514,"å¤©æĸĩ":9515,"åĪĽç«ĭ":9516,"Ġwire":9517,"ĠçĥŃ":9518,")}{|":9519,"Ġlikelihood":9520,"Ġ}.":9521,"åŃ¦çĶŁ":9522,"åĵ©":9523,"è¯¾":9524,"çĽ¾":9525,"ĠPA":9526,"è¶ħå¯¼ä½ĵ":9527,"ĠTherefore":9528,"cence":9529,"çļĦå·¥ä½ľ":9530,")=|":9531,"æĪĳä»¬ä»İ":9532,"Ġ~\\":9533,"Ġbaryon":9534,"isenberg":9535,"ĠIR":9536,"Ġphotometry":9537,"Ġintegrals":9538,"æĥ¯æĢ§":9539,"AF":9540,"åľ¨ä¸ĸçºª":9541,"ĠBrow":9542,"Ġordering":9543,"ä¼¦åħ¹":9544,"å¸ĮæľĽ":9545,"ĠWil":9546,"è¿ĻäºĽç»ĵæŀľ":9547,"åĲ¸å¼ķ":9548,"åĬ©äºİ":9549,"Ġoptimization":9550,"çļĦç±»åŀĭ":9551,"Ġä½ľä¸º":9552,"è®®åĳĺ":9553,"Ġcaused":9554,"§åĪ¶":9555,"ĠSo":9556,"æ¼«":9557,"å°ĳæķ°":9558,"é£Łçī©":9559,"ĠæĹ¶éĹ´":9560,"}^{[":9561,"åĲįåŃĹ":9562,"'.\\)":9563,"rea":9564,"å¼ķåıĳ":9565,"Ġ\\;=\\;":9566,"Ġloops":9567,"åľ¨åħ¶":9568,"åŃ¦çļĦ":9569,"æĸ¯çļĦ":9570,"Ġray":9571,"ç»Łç§°":9572,"Ġmicron":9573,"analy":9574,"zy":9575,"Ġrm":9576,"Ġ}=\\":9577,"ç§©":9578,"ysis":9579,"tention":9580,"rect":9581,"Ġhidden":9582,"Ġresponsible":9583,"Ġæ°Ķ":9584,"nation":9585,"Ġtheta":9586,"cks":9587,"Ġsemicon":9588,"Ġinstead":9589,"æĹ¨":9590,"ä½ĽæķĻ":9591,"Ġcycle":9592,"ĠæľĢåĲİ":9593,"Ġregimes":9594,"Ġce":9595,"}}}{\\":9596,"Ġiron":9597,"Ġdeg":9598,"æ³ķéĻ¢":9599,"æı´":9600,"Ġnode":9601,"lll":9602,"ç¡®å®ļæĢ§":9603,"Ġworks":9604,"å¦»":9605,"Ġcrucial":9606,"nti":9607,"èĤł":9608,"æī¿è®¤":9609,"GeV":9610,"|>":9611,"Ġé©¬":9612,"Ġ\\,=\\,":9613,"èĥİ":9614,")|=":9615,"ä¹ĭéĹ´çļĦåħ³ç³»":9616,"ç¼ĸè¾ĳ":9617,"\\;.\\)":9618,"\\:":9619,"fically":9620,"pos":9621,"ä¸įä»ħ":9622,"ĠPe":9623,"Ġquality":9624,"Ġmargin":9625,"ĠQuantum":9626,"ĠSuper":9627,"Ġå¾®":9628,"æīĢéľĢ":9629,"åĪĨå¸ĥçļĦ":9630,"çŁ³å¢¨":9631,"çĪ±åĽłæĸ¯åĿ¦":9632,"Ġfitting":9633,"Ġcub":9634,"äººæ°ĳ":9635,"åĩºçĶŁ":9636,"èĩªæ²»":9637,"Ġobservable":9638,"Ġsupersymmetry":9639,"Ġmi":9640,"Ġcoo":9641,"çļĦåĬ¨æĢģ":9642,"åºĬ":9643,"åįĸ":9644,"è¿ĲçĶ¨":9645,"åħ¶ä¸Ńæĺ¯":9646,"HIC":9647,"ier":9648,"çļĦåŃĺåľ¨":9649,"Ġdone":9650,"ä¸ŃæľĢ":9651,"hydro":9652,"éļľç¢į":9653,"ims":9654,"ä¸ĺ":9655,"resul":9656,"mathop":9657,"ĠEarth":9658,"Ġelementary":9659,"åĩłç§į":9660,"å½¢æĪĲçļĦ":9661,"volution":9662,"ĠäºĮ":9663,"ĠéĩıåŃĲ":9664,"),\\\\\\":9665,"stood":9666,"Ġplanetary":9667,"Ġturbulent":9668,"ĠåıĮ":9669,"dete":9670,"ĠMg":9671,"static":9672,"}]\\":9673,"Me":9674,")={":9675,"propto":9676,"èĭ¯":9677,"supset":9678,"fere":9679,"èĦĬæ¤İ":9680,"Ġprog":9681,"ĠIa":9682,"ĠæģĴæĺŁ":9683,"Ġordered":9684,"Ġrotational":9685,"Ġdirections":9686,"Ġspar":9687,"Ġtoo":9688,"Ġrings":9689,"roweak":9690,"åĽŀåĪ°":9691,"Ġlargescale":9692,"Ġmesons":9693,"Ġsizes":9694,"))}{":9695,"potential":9696,"Ġnucleon":9697,"^+\\":9698,"è¡¨å±Ĥ":9699,"Ġrepla":9700,"Ġrelativity":9701,"*}":9702,"æĪĳä»¬çļĦç»ĵæŀľ":9703,"éĹ´çļĦ":9704,"è¿ĩåİ»":9705,"åįģäºĮ":9706,"asimir":9707,"82":9708,"Ġdelay":9709,"nged":9710,"éģĵè·¯":9711,"matics":9712,"çļĦçº¿æĢ§":9713,"cally":9714,"ext":9715,"poch":9716,"Ġconsisting":9717,"ĠæĽ²":9718,"è¹Ī":9719,"Ru":9720,"çº¦ç¿°":9721,"éĩĬæĶ¾":9722,"åĨįæ¬¡":9723,"ĠResults":9724,"ĠGau":9725,"Ġtheoretically":9726,"æĵ¦":9727,"ç¼ĸè¯ĳ":9728,"åĵ¥ä¼¦":9729,"np":9730,"çļĦåıį":9731,"çļĦè®¡ç®Ĺ":9732,"Ġbal":9733,"Ġpractical":9734,"ered":9735,"æĪĳä»¬å±ķç¤ºäºĨ":9736,"Ġclos":9737,"Ġprime":9738,"ļĹ":9739,"Ġarises":9740,"å·ŀçļĦ":9741,"è§£æŀĲ":9742,"\\{(":9743,"ä¿Ŀå®Ī":9744,"_+^":9745,"é»ĳèī²":9746,"éĢıéķľ":9747,"kr":9748,"xz":9749,"ĳç»ľ":9750,"ĠLo":9751,"},\\,":9752,"å®¶åĴĮ":9753,"fications":9754,"éĢīä¸¾":9755,"Ġdiscus":9756,"Ġclearly":9757,"LHC":9758,"ç®Ń":9759,"ä¿¡ä»°":9760,"è½¯ä»¶":9761,"æº¶æ¶²":9762,"ID":9763,"ĠåŁŁ":9764,"Ġ().":9765,"åĢº":9766,"æŃ¥éª¤":9767,"è´Łè´£":9768,"èĽĭçĻ½è´¨":9769,"'_{\\":9770,"Ġ\\}\\)":9771,"ometry":9772,"éĢłæĪĲçļĦ":9773,"ä¸»ä¹īèĢħ":9774,"æ¦Ĥæĭ¬":9775,"}^{*}":9776,"mas":9777,"ssess":9778,"Ġatta":9779,"tribution":9780,"algebras":9781,"HS":9782,"ions":9783,"éĩįå¤§":9784,"ĠarXiv":9785,"Ġunknown":9786,"Ġlongitu":9787,"Ġsatisfies":9788,"resolved":9789,"è¿Ľè¡Įæ¯Ķè¾ĥ":9790,"çĿĢä½ľ":9791,"å¤ĦçļĦ":9792,"Ġpropos":9793,"Ġoperations":9794,"Ġvarying":9795,"Ġç»ĵæŀĦ":9796,"çļĦæĹ¶åĢĻ":9797,"ĠTi":9798,"ç´¯":9799,"æ±Ł":9800,"è®¡ç®Ĺåĩº":9801,"éĶģ":9802,"æĮĩåĩº":9803,"èħ¹":9804,"Ġderivative":9805,"ç¿¼":9806,"Ġlargest":9807,"Ġdissipation":9808,"Id":9809,"ages":9810,"Ġphenomenological":9811,"Ġtorus":9812,"Pe":9813,"ordered":9814,"æī«":9815,"Ġcategor":9816,",|":9817,"fu":9818,"äº¬":9819,"rial":9820,"Ġpolym":9821,"Ġmetallic":9822,"Ġdiagonal":9823,"Ġconfirmed":9824,"pite":9825,"Ġsite":9826,"èĬŃ":9827,"æ¡£":9828,"æĮ¯èį¡":9829,"Ġcrystals":9830,"dle":9831,"esian":9832,"åľ¨è¿Ļç§į":9833,"term":9834,"mentum":9835,"rank":9836,"ĠæĮ¯":9837,"raction":9838,"ĠEq":9839,"è®¾æĺ¯":9840,"æľīéĻĲçļĦ":9841,"Ġmodulation":9842,"ä¹ĺä»¥":9843,"Ġcontrolled":9844,"Ġoxy":9845,"atory":9846,"Ġweighted":9847,"çİ°æľī":9848,"Ġvariational":9849,"æł·çļĦ":9850,"Ġconsequences":9851,"!(":9852,"DR":9853,"sively":9854,"ä¸ŃæĢ§":9855,"Ġtimedependent":9856,"This":9857,"æŃ»åĲİ":9858,"observ":9859,"Ġtools":9860,"Ġ^\\":9861,"Ġçī¹åĪ«æĺ¯":9862,")\\}":9863,"ĠBer":9864,"Ġç¾¤":9865,"Ġsites":9866,"èĬĿ":9867,"Ġinvestigation":9868,"é»ĳäºº":9869,"coupling":9870,"fit":9871,"mig":9872,"ªæĸ½":9873,"ĠåŃĺåľ¨":9874,"çīĮ":9875,"Ġexceed":9876,"æºĲäºİ":9877,"çģĮ":9878,"Ġgeode":9879,"åı¦ä¸Ģç§į":9880,"ĠçĲĥ":9881,"Ġè°±":9882,"ä»¥èī²":9883,"åĨĮ":9884,"åĽ½ä¼ļ":9885,"æĿ¥æııè¿°":9886,"Ġcurrents":9887,"Ġincluded":9888,"ç¼©æĶ¾":9889,"çļĦæİĴ":9890,"ä¸ĵéĹ¨":9891,"çļĦä½ľçĶ¨":9892,"atop":9893,"ĠGL":9894,"æĴ¤":9895,"Ġbrightness":9896,"æ¦":9897,"ä¸Ńæľī":9898,"èĭ¦":9899,"ç£ģåĮĸ":9900,"èħĶ":9901,"galactic":9902,"Ġ}_{":9903,"isely":9904,"æĪĳä»¬è¡¨æĺİ":9905,"çļĦç¨ĭ":9906,"ä½¿ä»ĸ":9907,"regular":9908,"bs":9909,"~,":9910,"oustic":9911,"Ġcorrespond":9912,"ç©Ĩæĸ¯":9913,"clin":9914,"Ġvo":9915,"æĪĳä»¬æıĲåĩºäºĨ":9916,"æĿ¥çľĭ":9917,"å½ĵéĢī":9918,"ä»»åĳ½":9919,"dependence":9920,"Ġbelong":9921,"çļĦç¼ĸ":9922,"Ġéĥ¨åĪĨ":9923,"åĨ»":9924,"Ġcores":9925,"Ġmembers":9926,"åĳ¨æľŁæĢ§":9927,"ç»ĺçĶ»":9928,"èĸĽå®ļ":9929,"SL":9930,"Ġandor":9931,"ä¸ºä¸Ģ":9932,"iting":9933,"å¥ĭ":9934,"Ġoverall":9935,"Ġmicrowave":9936,"Ġextremely":9937,"NL":9938,"dri":9939,"|^\\":9940,"Ġ\\\\&=\\":9941,"ĠSDSS":9942,"Ġsky":9943,"}^{-\\":9944,"åħ¬åħ±":9945,"wers":9946,"è§Ī":9947,"tained":9948,"Ġpossibly":9949,"Ja":9950,"éķ¿çº¦":9951,"èĤĸ":9952,"å§Ĩæĸ¯":9953,"å¼ķåħ¥äºĨ":9954,"bos":9955,"Ġattribu":9956,"åĨħç§¯":9957,"ç¥Ń":9958,"è¿Ļä¸ĢçĤ¹":9959,"ĠåĩĨ":9960,"manif":9961,"ç¥ĸ":9962,"Ġtemporal":9963,"Ġsolved":9964,"çĪĨçĤ¸":9965,"æ±½è½¦":9966,"nity":9967,"Ġå¼Ĥ":9968,"æľīåı¯èĥ½":9969,"Ġsignature":9970,"é¡¶çĤ¹":9971,"çļĦå¤ĸ":9972,"Ġing":9973,"Tx":9974,"æĹ¦":9975,"åı¯å¾Ĺ":9976,"äº§äºİ":9977,"æ¶ħ":9978,"}\\\\&=\\":9979,"è¾¹çķĮæĿ¡ä»¶":9980,"åĪłéĻ¤":9981,"mination":9982,"Ġequi":9983,"Ġcheck":9984,"Ġcost":9985,"å¯¹æķ°":9986,"æī¬":9987,"ĠIII":9988,"æ´ģ":9989,"Ġcylin":9990,"Ġæ°´":9991,"xa":9992,"Ġåı¯èĥ½":9993,"partite":9994,"Ġke":9995,"ç½ķ":9996,"å¤§åĪ©äºļ":9997,"Ġauthors":9998,"AM":9999,"ĠéĽĨ":10000,"Ġfila":10001,"Ġvariance":10002,"CuO":10003,"å¹´åİŁåĲį":10004,"æł¸æł¸":10005,"Ġlimiting":10006,"Ġincreased":10007,"Ġsuggesting":10008,"çĶµåİĭ":10009,"Ġnonequilibrium":10010,"æŀģç«¯":10011,"åĤħ":10012,"è¡¥åħħ":10013,"å§Ķåĳĺä¼ļ":10014,"tten":10015,"mat":10016,"çļĦä¸Ĭ":10017,"çļĦç³»ç»Ł":10018,"ĠHD":10019,"éĿŀéĽ¶":10020,"ä¸ľåįĹ":10021,"éĿĻæŃ¢":10022,"ĠåıĤæķ°":10023,"è¿Ļé¡¹":10024,"tokes":10025,"ä¸Ĭå¼ı":10026,"æİ¥æĶ¶":10027,"Ġåľ¨æľ¬æĸĩä¸Ń":10028,"Ġreconstruction":10029,"oseph":10030,"Ġcoordinate":10031,"è²Į":10032,"_+\\":10033,"ara":10034,"gent":10035,"gine":10036,"Ġforward":10037,"å¼ķçĶ¨":10038,"critical":10039,"Ġ\\{(":10040,"ĠAlso":10041,"è¡įçĶŁ":10042,"çļĦæĻ®":10043,"cities":10044,"æľĢå¤ļ":10045,"æĺ¥":10046,"åįģåŃĹ":10047,"åĪĨæŀĲäºĨ":10048,"Ġpulsar":10049,"aw":10050,"iint":10051,"|{\\":10052,"çļĦæĹĭè½¬":10053,"é¦Ī":10054,"åıĳçİ°çļĦ":10055,"åį¡å°Ķ":10056,"Ġrealized":10057,"Ġastrophysical":10058,"blacktriangle":10059,"Ġheli":10060,"è½Ń":10061,"Ġdays":10062,"ttle":10063,"Ġtrace":10064,"Ġpublished":10065,"Ġarguments":10066,"å¹Ĥ":10067,"è¾ŀ":10068,"Ġasymmetric":10069,"}+{\\":10070,"yx":10071,"çļĦçī©çĲĨ":10072,"åĪ·":10073,"çļĦç¦»":10074,"\\,(":10075,"èĢĮåľ¨":10076,"å¯ĨåĪĩ":10077,"Ġextensions":10078,"Ġmainly":10079,"èĽĩ":10080,"ĠæŁ¥":10081,"Ġsatellite":10082,"SI":10083,"Ġrou":10084,"Ġå¾·":10085,"çļĦçľŁ":10086,"states":10087,"\\,,\\":10088,"è¶ħæĸ°æĺŁ":10089,"è°ĥèĬĤ":10090,"Ġidentical":10091,"çĨµ":10092,"prising":10093,"Ġsymplectic":10094,"Ġåıį":10095,"Ġnt":10096,"å¯Ħ":10097,"ä¸¤æŀģ":10098,"Ġresol":10099,"Ġclustering":10100,"æ¿Ģåħī":10101,"åĪĨåĪ«ä¸º":10102,"Ġlonger":10103,"tellar":10104,"çļĦå¾®":10105,"rcl":10106,"ç»ĨèıĮ":10107,"ĠChern":10108,"Ġvoltage":10109,"Ġcompatible":10110,"Ļ½":10111,"ç»´æĮģ":10112,"çĭŃ":10113,"ĠæĶ¾":10114,"ĠEuclidean":10115,"çļĦéĩıåŃĲ":10116,"^{'":10117,"ref":10118,"Ġhomo":10119,",,":10120,"åıĳåĬ¨":10121,"Ġspan":10122,"Ġsignatures":10123,"dynamics":10124,"ä¸įåŃĺåľ¨":10125,"Ġattemp":10126,"ource":10127,"å¤©çĦ¶":10128,"real":10129,"åĪ°è¾¾":10130,"ĠUnder":10131,"sol":10132,"æĪĳä»¬è®¨è®ºäºĨ":10133,"menta":10134,"ä¸»å¯¼":10135,"è¿Ľè¡ĮçļĦ":10136,"jected":10137,"Ġarray":10138,"Ġinterstellar":10139,"Ġcount":10140,"æ½ľåľ¨":10141,"Ġoperation":10142,"Ġslope":10143,"AG":10144,"sy":10145,"Ġ)^":10146,"çļĦå°ı":10147,"Ġstarting":10148,"ower":10149,"CT":10150,"independent":10151,"éļıåĲİ":10152,"ä¸»è¦ģæĺ¯":10153,"trans":10154,"igure":10155,"Ġremn":10156,"Ġconfined":10157,"come":10158,"Ġçł":10159,"Ġrepresented":10160,"Ġcomparing":10161,"Ġhistory":10162,"Ġhadronic":10163,"ä¼Ĭæĸ¯åħ°æķĻ":10164,"Df":10165,"Ġå¹³":10166,"igi":10167,"åİĮ":10168,"Ġexplanation":10169,"Ġensemble":10170,"èĢ¦åĲĪ":10171,",}":10172,"ope":10173,"ĠUn":10174,"åıªéľĢè¦ģ":10175,"ç¿ħ":10176,"èĹī":10177,"Ġintegration":10178,"dq":10179,"lVert":10180,"magne":10181,"å¤§è¥¿æ´ĭ":10182,"è¯Ńåı¥":10183,"Ġsuppressed":10184,"Ġinvolves":10185,"Ġstrict":10186,"ç£·":10187,"çļĦæµ·":10188,"å¹³åĿĩåĢ¼":10189,"Ġreflection":10190,"Ġè¿°":10191,"Ġè¾ĥ":10192,"å¹´ä¸İ":10193,"åľ°è¯´":10194,"æ³¢çļĦ":10195,"Ġanalogous":10196,"IG":10197,"è©":10198,"Ġæłĩ":10199,"icular":10200,"æľīä¸ª":10201,"ç¤ºäºĨ":10202,"ä¹Łä¼ļ":10203,"Ġcollective":10204,"Ġbarrier":10205,"eq":10206,"æľŃ":10207,"Ġnons":10208,"è¥¿è¥¿":10209,"æĢ»çĲĨ":10210,"Ġpowerful":10211,"Ġbundle":10212,"NT":10213,"æĺ¯å¯¹":10214,"ĠæıĲä¾Ľ":10215,"parameter":10216,"è©¹":10217,"dp":10218,"çļĦä¾ĭåŃĲ":10219,"åı¬":10220,"bora":10221,"Ġsimply":10222,"avi":10223,"ä¹¡":10224,"Ġquen":10225,"owski":10226,"ä¸ĸçºªåĪĿ":10227,"ç»ĺåĪ¶":10228,"&(":10229,"mark":10230,"lepton":10231,"ĠAnal":10232,"è¢Ń":10233,"Ġshowed":10234,"è§Ĥæµĭç»ĵæŀľ":10235,"ä¼¯çī¹":10236,"æĸ¹åĲĳçļĦ":10237,"atives":10238,"çļĦåĴĮ":10239,"Ġball":10240,"rian":10241,"æĽ´é«ĺ":10242,"æİ¨æĸŃ":10243,"å°ģä¸º":10244,"æĻļæľŁ":10245,"SF":10246,"ondo":10247,"ĠGiven":10248,"Ġrays":10249,"Ġregar":10250,"ç²¾åº¦":10251,"ĠéĹ®é¢ĺ":10252,"Ġid":10253,"éĺ±":10254,"æį·":10255,"_{+}":10256,"Ġworld":10257,"Ġusually":10258,"Ġprincipal":10259,"ĠTheorem":10260,"Ġqubits":10261,"Ġdesigned":10262,"Ġunderstood":10263,"Ġelectroweak":10264,"Ġåħīè°±":10265,"quantum":10266,"ND":10267,"ĠéĢļ":10268,"Ġçº¿æĢ§":10269,"ĠAB":10270,"è´¯":10271,"åİħ":10272,"éħįå¯¹":10273,"ermitian":10274,"Ġsuperconductor":10275,"Ġprobabilities":10276,"Ġphonon":10277,"Ġdifficult":10278,"Ġlensing":10279,"èĸĽå®ļè°Ķ":10280,"SE":10281,"¾ä¼ļ":10282,"éĩįéĩı":10283,"conne":10284,"èĤ¥":10285,"æ±Ĥè§£":10286,"Ġfluxes":10287,"è¿ģç§»":10288,"Ġrepul":10289,"å¥¥æĸ¯":10290,"éĩĩåıĸ":10291,"åħĦå¼Ł":10292,"{}^":10293,"Ġè®¾":10294,"çļĦçī¹å¾ģ":10295,"|\\\\":10296,"ĠPr":10297,"asure":10298,"é»ı":10299,"''+":10300,"Ġundergo":10301,"Ġdetermining":10302,"æĭ¿çł´":10303,"_-\\":10304,"jl":10305,"ä¹ĥ":10306,"Land":10307,"åĽ¾ä¸Ń":10308,"Ġgene":10309,"èĵĿèī²":10310,"dinal":10311,"Ġcells":10312,"PP":10313,"ĠåĨ³":10314,"æĿ¯":10315,"çļĦæĳ":10316,"Ġgrav":10317,"Ġevaluated":10318,"Ġçº§":10319,"iss":10320,"Ġapplying":10321,"ä¼łè¯´":10322,"ç®ĢåĮĸ":10323,"tinction":10324,"èĪŀè¹Ī":10325,"coming":10326,"Ġimplemented":10327,"çŁ®æĺŁ":10328,"ire":10329,"vector":10330,"åıĺéĩıçļĦ":10331,"çĽ´å¾Ħ":10332,"åĨĻäºĨ":10333,"Ġæį¢":10334,"Ġtypically":10335,"å¯¿åĳ½":10336,"]_{\\":10337,"Ġ)=\\":10338,"åĨ¬":10339,"Ġgenus":10340,"æ²¿çĿĢ":10341,":\\,":10342,"Ġåħ¨":10343,"Ĺħ":10344,"pendicular":10345,"å·®è·Ŀ":10346,"Ġreactions":10347,"å®ªæ³ķ":10348,"Ġinci":10349,"ĠIsing":10350,"Ġtechn":10351,"Ġisolated":10352,"Ġconcerning":10353,"mordial":10354,"oti":10355,"inc":10356,"ering":10357,"ä¸įä¹ħ":10358,"Ġpast":10359,"æĦ¿":10360,"Ġlowest":10361,"åĽºä½ĵ":10362,"Ġidentity":10363,"åĽ¢ä½ĵ":10364,"å¥¹çļĦ":10365,"breve":10366,"åĲ»":10367,"Ġprocessing":10368,"New":10369,"iff":10370,"Ġresolved":10371,"Ġè¿Ļä¸Ģ":10372,"Ġpm":10373,"}{{\\":10374,"rotron":10375,"Ġpossess":10376,"][":10377,"ĠåĽł":10378,"ĦŁ":10379,"çļĦæķ°":10380,"å¹»":10381,"Ġum":10382,"ĠAU":10383,"æĹłè®º":10384,"ä¼½é©¬å°Ħçº¿":10385,"Ġinhomogeneous":10386,"Ġslightly":10387,"CH":10388,"çļĦåħīè°±":10389,"char":10390,"ä¸İåħ¶":10391,"è¯ģæĺİäºĨ":10392,"Ġdevice":10393,"ĠæķĻ":10394,"})|":10395,"ä¸İåħ¶ä»ĸ":10396,"ĠDM":10397,"æģ°":10398,"èĤ¿":10399,"evat":10400,"ä»¥èī²åĪĹ":10401,"BV":10402,"åª":10403,"riers":10404,"theore":10405,"èĥ¸":10406,"Ġforming":10407,"æ¾³å¤§åĪ©äºļ":10408,"\\}=\\":10409,"sets":10410,"äººåĳĺ":10411,"èµı":10412,"åħ³æ³¨":10413,"odinger":10414,"é©¬æĭī":10415,"çĥŃåĬĽåŃ¦":10416,"ĠHeisenberg":10417,"Ġcutoff":10418,"IV":10419,"groups":10420,"Ġçİ¯":10421,"åºĻ":10422,"æ³¥":10423,"Ġprote":10424,"diff":10425,"è±¡å¾ģ":10426,"Ġmeanfield":10427,"Ġ~=~":10428,"å¹´åĲİ":10429,"å®ļæĢ§":10430,"åŃ¦èĢħ":10431,"Ġdielectric":10432,"Ġlocalization":10433,"åĩºçİ°åľ¨":10434,"Ġmixture":10435,"åĽ°éļ¾":10436,"Ġannihilation":10437,"lor":10438,"vis":10439,"gap":10440,"irr":10441,"æĸ¹ç¨ĭçļĦ":10442,"çĸ«":10443,"Ġfilter":10444,"ç»¿èī²":10445,"hskip":10446,"æľīæľº":10447,"pies":10448,"Ġstage":10449,"æŃ£è§Ħ":10450,"Ġabelian":10451,"ĠEuler":10452,"nes":10453,"Ġhu":10454,"dimension":10455,"ä½ľæĽ²å®¶":10456,"Ġsusceptibility":10457,"por":10458,"Ġconjuga":10459,"vil":10460,"å°Ķå¾·":10461,"Ġmassless":10462,"Ġoutput":10463,"Ġcombinatorial":10464,"class":10465,"ä¸ºä»Ģä¹Ī":10466,"å·Ŀ":10467,"çºªå¿µ":10468,"Ġchosen":10469,"Ġsituation":10470,"Ġaway":10471,"èĢĲ":10472,"é©¬åħĭ":10473,"Ġtested":10474,"Ġold":10475,"Ġepsilon":10476,"stre":10477,":=(":10478,"è¥¿æĸ¯":10479,"Ġionization":10480,"ĠåĮº":10481,"Ġåħ¶ä¸Ń":10482,"Ġsti":10483,"ĠMn":10484,"çŁĽ":10485,"è¥¿åĮĹ":10486,"æŀĦæĪĲçļĦ":10487,"~~\\":10488,"}|=":10489,"Ġderivation":10490,"Ġnucleus":10491,"æīĵå¼Ģ":10492,"Ġrevealed":10493,"gies":10494,"å®ļæľŁ":10495,"ometer":10496,"é¢ĨåľŁ":10497,"Ġcurrently":10498,"Ġfilm":10499,"Ġhierarchy":10500,"ius":10501,"åºŀ":10502,"Ġmess":10503,"colone":10504,"Ġ<\\":10505,"!\\!":10506,"å¨ģå»ī":10507,"Ġanomaly":10508,"Ġinequalities":10509,"ole":10510,"¢æµĭ":10511,"åĪĨæķ°":10512,"ĠçĪ":10513,"è¶³ä»¥":10514,"Ġbubb":10515,"Ġquestions":10516,"cta":10517,"çļĦåıĺåĮĸ":10518,"supp":10519,"itor":10520,"èĥ½çº§":10521,"ç©´":10522,"äºļåİĨ":10523,"åħĭéĩĮ":10524,"arily":10525,"æ¸¸æĪı":10526,"Left":10527,"Ġè¯´":10528,"laton":10529,"+\\|":10530,"äºĨå¯¹":10531,"äººåľ¨":10532,"Ġattention":10533,"æįī":10534,"åºĶçĶ¨äºİ":10535,"æ¯ĶèµĽ":10536,"éķ¿åħ¬éĩĮ":10537,"Ġlinearly":10538,"Ġelectrical":10539,"çĸĳ":10540,"Ġmetrics":10541,"éĨĩ":10542,"Ġç´ł":10543,"Ġemployed":10544,"42":10545,"Qu":10546,"jj":10547,"ĠOmega":10548,"orth":10549,"oltz":10550,"Ġreduces":10551,"periodic":10552,"Ġconfid":10553,"çļĦçŁ¢éĩı":10554,"è´¢äº§":10555,"doped":10556,"atz":10557,"}^-":10558,"Ġpos":10559,"å°¼æĸ¯":10560,"Ġhalos":10561,"æĪªéĿ¢":10562,"Ġæ»":10563,"çĶŁåĳ½":10564,"æĦŁæŁĵ":10565,"éĵģç£ģ":10566,"Ġprecisely":10567,"ih":10568,"æĪĳä»¬ä¸º":10569,"çİ©":10570,"neutr":10571,"teness":10572,"åĪ¸":10573,"gan":10574,"Ġtoward":10575,"data":10576,"Ġlocation":10577,")]\\":10578,"èģĮä¸ļ":10579,"æĭ¿çł´ä»ĳ":10580,"Bs":10581,"EX":10582,"scripts":10583,"ä¸Ģé¡¹":10584,"qubit":10585,"åĲĮçĽŁ":10586,"æīĢç¤º":10587,"},\\\\\\":10588,"å¹³åİŁ":10589,"çļĦç¬¬äºĮ":10590,"éģŃåĪ°":10591,"Ġthickness":10592,"Ġèµ·":10593,"çļĦéĤ£":10594,"ĠTho":10595,"ä¸įå¯¹ç§°":10596,"ĠDo":10597,"Ġnebula":10598,"Ġextends":10599,"Ġæ²¡":10600,"æĭĴç»Ŀ":10601,"ben":10602,"Ġ}}\\":10603,"tification":10604,"æŀ¢":10605,"Ġcoherence":10606,"Ġsubgroup":10607,"Ġlowenergy":10608,"éĴ±":10609,"çĻ¾ç§ĳ":10610,"çļĩå®¶":10611,"æĶ»åĩ»":10612,"ĠBayesian":10613,"symmetric":10614,"ä½Ľç½Ĺ":10615,"Ġsemiclassical":10616,"ä¸Ĭæĺ¯":10617,"Ġæģ":10618,"åĲĮä¸Ģä¸ª":10619,"ä¸ĭåĪĹ":10620,"ä»»æķĻ":10621,"æĸ¹ç¨ĭç»Ħ":10622,"Ġbursts":10623,"arance":10624,"diamond":10625,"vour":10626,"ĠæīĢæľī":10627,"allow":10628,"åİĺ":10629,"å¹¶å°Ĩ":10630,"éĽ¨":10631,"ç¼ºéĻ·":10632,"lbrack":10633,"çºº":10634,"å¯¹æ¯Ķ":10635,"åı¯çŁ¥":10636,"ĠFi":10637,"ĠDis":10638,"ç¨į":10639,"ĠæĪĳä»¬ä½¿çĶ¨":10640,"éļĻ":10641,"ront":10642,"Ġgiving":10643,"|=|":10644,"ellent":10645,"43":10646,"ĠåŁº":10647,"ĠåĨµ":10648,"}\\,,\\)":10649,"åħ±è½Ń":10650,"''_":10651,"Ġtrapped":10652,"Ġcarry":10653,"ä¼ģä¸ļ":10654,"ap":10655,"rVert":10656,"ying":10657,"Ġä¹ĭ":10658,"_{}":10659,"åĴĮä¸Ń":10660,"ĠSpace":10661,"))^{-":10662,"^-_":10663,"çĹħæ¯Ĵ":10664,"ĠHubble":10665,"Ġimpurity":10666,"å´©æºĥ":10667,"~,\\)":10668,"åĪĨéĩı":10669,"å¹´éĹ´":10670,"äºļæ´²":10671,"æĸ¹æ³ķçļĦ":10672,"åħĥç´łçļĦ":10673,"åħ±äº§åħļ":10674,"coloneqq":10675,"YM":10676,"branes":10677,"fla":10678,"Ġreference":10679,")})\\":10680,"dotsc":10681,"Ġ\\,,\\)":10682,"éĺ¶çº§":10683,"Ġfluctuation":10684,"lattice":10685,"Ġcompanion":10686,"ĠYangMills":10687,"Ġlearning":10688,"fted":10689,"æĺ¯çĶ¨":10690,"æĮĳ":10691,"wift":10692,"èĬŃèķ¾":10693,"EG":10694,"Ġblue":10695,"Ġæ¯":10696,"æĽ´åĬł":10697,"è¾ĥä½İ":10698,"åŁİéķĩ":10699,"Ġsynchron":10700,"cz":10701,"mk":10702,"nz":10703,"Ġç©º":10704,"Ġadiabatic":10705,"lap":10706,"å¼¥":10707,"å¯¼æ¼Ķ":10708,"Ġcollider":10709,"ahler":10710,"Sim":10711,"[-\\":10712,"Ġèĥ½éĩı":10713,"Ġ\\(&":10714,"momentum":10715,"æµ·å³¡":10716,"ä¸»ä¹īçļĦ":10717,"Ġcrossover":10718,"Ġquantization":10719,"ĠSchr":10720,"ĠéªĮ":10721,"æĸ¹çļĦ":10722,"æĭ¬åı·":10723,"ç®Ģè¦ģ":10724,"complete":10725,"Ġhydrodynamic":10726,"Ju":10727,"NO":10728,"ĠæĹĭè½¬":10729,"overrightarrow":10730,"Ġæ£":10731,"å¸ĥå°Ķ":10732,"åĽ¾è¡¨":10733,"Ġapproximations":10734,"dk":10735,"mulation":10736,"ĠSr":10737,"éĥ¨éķ¿":10738,"Ġindicating":10739,"Ġseparated":10740,"tup":10741,"Ġpermu":10742,"èĤº":10743,"}]\\)":10744,"prec":10745,"Ġmonot":10746,"ls":10747,"ovi":10748,"ĠMyr":10749,"åħ¬çĪµ":10750,"æ£Ĵ":10751,"Ġtransient":10752,"Ġprojection":10753,"Ġvarieties":10754,"surface":10755,"ĠRiemann":10756,"Ġcolumn":10757,"Ġdiscussion":10758,"Ġå¿ĥ":10759,"çļĦåıĤæķ°":10760,"qua":10761,"æĪĳä»¬æĺ¾ç¤º":10762,"xial":10763,"ĠSitter":10764,"å¹´çĶ±":10765,"çľĭæĪĲ":10766,"Ġautom":10767,"ä»ªå¼ı":10768,"Ġbelie":10769,"ĠSpitzer":10770,"RG":10771,"Ġåºı":10772,"æĺĤ":10773,"åıĮéĩį":10774,"Ġorientation":10775,"å¦ĩå¥³":10776,"\\;\\":10777,"çļĦçĽ¸":10778,"dies":10779,"cate":10780,"åıĹæ¬¢è¿İ":10781,"Ġprimordial":10782,"Ġintegrable":10783,"Ġç½Ĺ":10784,"æĺĨèĻ«":10785,"BB":10786,"Higgs":10787,"]=-":10788,"è¯ºè´Ŀå°Ķ":10789,"ä¼ĹæīĢ":10790,"Ġpurely":10791,"Ġextracted":10792,"Ġå§ĭ":10793,"Ġå®ŀéªĮ":10794,"æĸ¤":10795,"ĠCe":10796,"æ¶¡":10797,"KK":10798,"fil":10799,"Ġomega":10800,"site":10801,"çľĭä½ľ":10802,"çļĦæĽ´":10803,"çļĦç²¾ç¡®":10804,"Ġscien":10805,"tf":10806,"Ġdegenerate":10807,"Ġmacroscopic":10808,"ata":10809,"ĠåĽłä¸º":10810,"riction":10811,"åĬ±":10812,"Ġcoding":10813,"Ġmotions":10814,"ĠNi":10815,"çĶµç£ģåľº":10816,"åįķåħĥ":10817,"åĽ¾çļĦ":10818,"æº¯":10819,"åī§éĻ¢":10820,"Ġmoderate":10821,"cel":10822,"nn":10823,"tified":10824,"Ġastr":10825,"åľ¨è¯¥":10826,"})]":10827,"ception":10828,"æľīäºº":10829,"å¯¹çŃī":10830,"Ġlack":10831,"Ġ\\;,":10832,"æºĲçļĦ":10833,"çģ¯":10834,"Ġnorm":10835,"Ġdiffraction":10836,"~.":10837,"æ³ķåĴĮ":10838,"çī©ä½ĵçļĦ":10839,"Ġzer":10840,"izable":10841,"Ġaccomp":10842,"åĨĻä½ľ":10843,"åĳ¨çŁ¥":10844,"åĩĿèģļ":10845,"æ¢¯åº¦":10846,"*{":10847,"BL":10848,"ä¸įåĨį":10849,"Ġgate":10850,"å¼ºå¤§çļĦ":10851,"Ġassess":10852,"ä¹Ķæ²»":10853,"})_{\\":10854,"æī®":10855,"æµĨ":10856,"Ġchaotic":10857,"Ġessentially":10858,"ĠBrownian":10859,"cryst":10860,"dP":10861,"iq":10862,"Ġep":10863,"è¿¦":10864,"çĽ´è§Ĵ":10865,"Ġvalu":10866,"Ġbroken":10867,"ĠdS":10868,"åĨĪ":10869,"cus":10870,"å¹¿æĴŃ":10871,"Ġcreated":10872,"correlation":10873,"Ġrapidly":10874,"evatron":10875,"Ġæł¹æį®":10876,"çĶŁæĪĲçļĦ":10877,"ä¸ľåįĹéĥ¨":10878,"æ¥¼":10879,"ĠæĻ®":10880,"Ġwavelengths":10881,"fol":10882,"çļĦåŁºç¡Ģ":10883,"åĩĢ":10884,"ä»ĸä¸º":10885,"Ġidentification":10886,"Ġpeaks":10887,"+(-":10888,"Ġè§Ĵ":10889,"Ġsoci":10890,"å¹´èĭ±åĽ½":10891,"ĠBan":10892,"åĬłçĥŃ":10893,"crete":10894,"Ġderivatives":10895,"Ġlinks":10896,"Ġdetails":10897,"rd":10898,"çļĦä¸¤ä¸ª":10899,"æľīä¸¤ä¸ª":10900,"åŃ¦ä½į":10901,"ously":10902,"èĤ¤":10903,"äº¤æĺĵ":10904,"æĽ´æĸ°":10905,"åĽºå®ļçļĦ":10906,"NGC":10907,"Ġè¿Ľ":10908,"Ġkm":10909,"æıĲåĩºçļĦ":10910,"Ġtheorems":10911,"æ¸¯åı£":10912,"Ġissues":10913,"Ġbf":10914,"|\\,\\":10915,"çĽ¸å¯¹äºİ":10916,"Ġhom":10917,"ionization":10918,"Ġtidal":10919,"Ġembedding":10920,"ç©Ĩæĸ¯æŀĹ":10921,"MD":10922,"}\\{\\":10923,"åħĥä»¶":10924,"Ġfaci":10925,"çİĭä½į":10926,"Ġlogic":10927,"Ġpulses":10928,"Ġtorsion":10929,"ĠGalaxy":10930,"Ġperiods":10931,"é¥±åĴĮ":10932,"Ġmolecule":10933,"ä¸¾è¡Į":10934,"å°¤åħ¶æĺ¯":10935,"Landau":10936,"ctivity":10937,"è¿·":10938,"date":10939,"ç§įæĹı":10940,"cape":10941,"çĨĶ":10942,"éĴ¢çĲ´":10943,"å½¼å¾Ĺ":10944,"æķ°ä¸º":10945,"åĪĨåī²":10946,"æĪĲæľ¬":10947,"Ġæ¦Ĥ":10948,"Ġdim":10949,"è¡ĮåĪĹ":10950,"igner":10951,"topy":10952,"ĠæİĴ":10953,"å²©çŁ³":10954,"Ġcriteria":10955,"Ġlogarithmic":10956,"=(-":10957,"umann":10958,"Ĩæŀ¶":10959,"}}[":10960,"osing":10961,"èĤ¢":10962,"ç¬¬ä¸Ģæ¬¡ä¸ĸçķĮå¤§æĪĺ":10963,"Ġdeterministic":10964,"åĲ¦åĪĻ":10965,"Ġconservation":10966,"Ġoxygen":10967,"åľ¨åĨħ":10968,"Ġcompac":10969,"Ġimply":10970,"åı¤èĢģ":10971,"å®ĩå®ĻåŃ¦":10972,"æ±īå¯Ĩå°Ķé¡¿":10973,"ĠChandra":10974,"Ġperpendicular":10975,"Ġmeasuring":10976,"åĳ½åĲį":10977,"Leftrightarrow":10978,"SW":10979,"ones":10980,"ç»ıåİĨ":10981,"Ġanalyses":10982,"å»¶è¿Ł":10983,"æĽ¿æį¢":10984,"ono":10985,"åºĹ":10986,"éĽĨä½ĵ":10987,"çĭ±":10988,"Ġlanguage":10989,"ĠçĶµåŃĲ":10990,"igital":10991,"Ġune":10992,"Ġdefe":10993,"ilistic":10994,"ç§¯æŀģ":10995,"åįıä¼ļ":10996,"æľīæķĪçļĦ":10997,"Ġexpectation":10998,"Ce":10999,"dm":11000,"æĺ¯ä¸į":11001,"Ġdet":11002,"éĢļè´§":11003,"Ġhomology":11004,"Ġcolour":11005,"éĢīé¡¹":11006,"åĦ¿ç«¥":11007,"è¿ĳä¼¼åĢ¼":11008,"Ġmodification":11009,"Ġæııè¿°":11010,"Ġpartially":11011,"MP":11012,"px":11013,"||\\":11014,"Ġæľ¬æĸĩ":11015,"Ġ|^":11016,"Ġlens":11017,"æ´Ľä¼¦åħ¹":11018,"å®ĺæĸ¹":11019,"]+[":11020,"å¡«åħħ":11021,"xu":11022,"Ġ}^{\\":11023,"Ġä¸įåĲĮ":11024,"Ġsin":11025,"åŃ©":11026,"æł½":11027,"Ġissue":11028,"noli":11029,"{}_":11030,"Ġ)}":11031,"Ġå¯Ĩåº¦":11032,"çļĦä¸įåĲĮ":11033,"Ġcome":11034,"Ġextinction":11035,"ĠSky":11036,"forward":11037,")^{|":11038,"ĠæĪĳä»¬çłĶç©¶":11039,"çĬ¬":11040,"èĪį":11041,"Ġlittle":11042,"Ġshor":11043,"è¯ĹæŃĮ":11044,"Ġluminosities":11045,"Ġæ²³":11046,")'":11047,"impli":11048,"ĠæĪĲä¸º":11049,"çļĦåĲİ":11050,"çļĦç¨³å®ļ":11051,"çĶµè§Ĩ":11052,"lescop":11053,"å¯¹äºİä»»æĦı":11054,"Ġtrap":11055,"Ġari":11056,"Ġpromis":11057,"Ġrealization":11058,"æ··ä¹±":11059,"å·²çŁ¥çļĦ":11060,"Ġextreme":11061,"ĠæĥħåĨµ":11062,"nolimits":11063,"Ġä¼¼":11064,"Ġscre":11065,"çŃīåĲĮ":11066,"Ġaccess":11067,"Ġsurround":11068,"Ġsuppression":11069,"åĦĴ":11070,"ä»ªåĻ¨":11071,"Ġinvolved":11072,"Ġopposite":11073,"Ġhierarchi":11074,"Ġcubic":11075,"è®½":11076,"Ġunivers":11077,"åįģäºĶ":11078,"Ġcollected":11079,"è¯±å¯¼":11080,"Ġstronger":11081,"Ġä¾Ľ":11082,"Ġ\\(=":11083,"outh":11084,"nusu":11085,"Ġpost":11086,"äºĮéĺ¶":11087,"åĮħæĭ¬äºĨ":11088,"å¨ľ":11089,"Ġvanishing":11090,"Ġclosely":11091,"-|\\":11092,"]^{\\":11093,"çļĦç¢":11094,"})=(":11095,"æĿĥåĪ©":11096,"ç¡®å®ļäºĨ":11097,"æ£®æŀĹ":11098,"ç¼ºä¹ı":11099,"çĪµå£«":11100,"ĠGal":11101,"ducting":11102,"è·ĳ":11103,"Ġaffect":11104,"inity":11105,"çļĦåŁº":11106,"ane":11107,"ĠCasimir":11108,"Ġroot":11109,"è§Ħå¾ĭ":11110,"Mg":11111,"gge":11112,"Ġå±Ĥ":11113,"æĺ¯åı¯":11114,"æłĩå¿Ĺ":11115,"é¢Ħè®¡":11116,"Ġluminous":11117,"åĸľåī§":11118,"RT":11119,"muth":11120,"æĺ¯æľĢ":11121,"ĠHar":11122,"ĠDNA":11123,"é©¬å°Ķ":11124,"æĢ»çĿ£":11125,"å¼¯æĽ²":11126,"AL":11127,"Ġmathcal":11128,"Ġkin":11129,"Ġç¬¦":11130,"ĠKe":11131,"åĬłå·ŀ":11132,"åŃĺåľ¨ä¸Ģä¸ª":11133,"å¾ĭå¸Ī":11134,"Ġselfconsistent":11135,"Ġ-{":11136,"Ġæ¼Ķ":11137,"çķĮéĿ¢":11138,"å¤ªç©º":11139,"verage":11140,"çĳŀåħ¸":11141,"å®ıè§Ĥ":11142,"ĠåĪĨå¸ĥ":11143,"lab":11144,"ä½įç§»":11145,"ç±»æ¯Ķ":11146,"åľĨæŁ±":11147,"æİ¨å¹¿":11148,"æľªçŁ¥":11149,"Ġtrees":11150,"Ġpaths":11151,"IP":11152,"ira":11153,"Ġmove":11154,"ĠInte":11155,"çĭĹ":11156,"éĢıæĺİ":11157,"ĠRiemannian":11158,"Ġexamined":11159,"Ġæķ£":11160,"ham":11161,"Ġepoch":11162,"mped":11163,"ĠIm":11164,"ç®±":11165,"Ġçģ":11166,"Ġengine":11167,"å¾Īå¿«":11168,"åĪĿæŃ¥":11169,"æĸĩä»¶å¤¹":11170,"Ġvortices":11171,"Ġexcellent":11172,"Ġcovering":11173,"çļĦæµĭéĩı":11174,"=\\,\\":11175,"ä¸Ģä½į":11176,"æĸ¯ç§ĳ":11177,"Ġenables":11178,"èĥľåĪ©":11179,"Ġæ¡Ī":11180,"\",":11181,"ws":11182,"Ġprogen":11183,"ä¸Ĭåįĩ":11184,"Ġgain":11185,"æĹħæ¸¸":11186,"Ġatmosphere":11187,"Simons":11188,"]+\\":11189,"Ġholog":11190,"Ġrare":11191,"ç´«å¤ĸ":11192,"\\}}\\":11193,"nc":11194,"±³":11195,"çļĦåįĬ":11196,"ĠHo":11197,"ä¹ĭåŃĲ":11198,"æ®¿":11199,"Ġæ¨¡æĭŁ":11200,"çļĦç¬¬ä¸Ģä¸ª":11201,"Ġè¡¨æĺİ":11202,"ĠLu":11203,"æİªæĸ½":11204,"...,":11205,",\\,\\,\\,":11206,"Rie":11207,"zations":11208,"Ġæĸ¹ç¨ĭå¼ı":11209,"varsigma":11210,"ulti":11211,"åħĭèİ±":11212,"Ġhighest":11213,"_{-}":11214,"æĶ¶éĽĨ":11215,"Ġquasars":11216,"Ġlongitudinal":11217,"çļĦéĢŁåº¦":11218,"ĠGyr":11219,"èĩĤ":11220,"ä¸ĬéĿ¢":11221,"pair":11222,"Ġrepresents":11223,"å¼ķèµ·çļĦ":11224,"Ġsatisfying":11225,"çļĦçĿĢ":11226,"åīĳ":11227,"ĠOp":11228,"Ġcharges":11229,"Ġattractive":11230,"[{\\":11231,"Ġä¸Ķ":11232,"raphy":11233,"æ³Į":11234,"å°Ķå¹´":11235,"é«ĺäºİ":11236,"åįķçĭ¬":11237,"çļĦåħĥç´ł":11238,"Ġcas":11239,"Ġnull":11240,"ĠPre":11241,"åīĬ":11242,"Ġplate":11243,"),\\,":11244,"ç»ĦæĪĲéĥ¨åĪĨ":11245,"ĠæĶ¹":11246,"Ġresistivity":11247,"\".":11248,"BS":11249,"bd":11250,"ko":11251,"åľ°å½¢":11252,"éĥ¨éĹ¨":11253,"å¾Ĺä»¥":11254,"proton":11255,"ä¹Łåı¯":11256,"Ġadmit":11257,"ä¼¦æĸ¯":11258,"Ġdiffuse":11259,"æµĵåº¦":11260,"Ġvalidity":11261,"Ġwritten":11262,"rane":11263,"æ´Ĺ":11264,"thered":11265,"Ġneighbor":11266,"Ta":11267,"bro":11268,"Ġä¸»":11269,"åħ¶å®ŀ":11270,"çļĦç¾İåĽ½":11271,"ccent":11272,"çħ¤":11273,"Ġwidely":11274,"ĠçŁ©éĺµ":11275,"åĬªåĬĽ":11276,"Sa":11277,"TP":11278,"dA":11279,"ulation":11280,"}(|":11281,"reson":11282,"ä¸Ĭå¸Ŀ":11283,"å½±çīĩ":11284,"Ġpredicts":11285,"Ġrestricted":11286,"Ġauthor":11287,"Ġadvantage":11288,"km":11289,"ĠåŃĹ":11290,"Ġmilli":11291,"çłĶç©¶çļĦ":11292,"els":11293,"å¹´å¼Ģå§ĭ":11294,"Ġoptically":11295,"è¿ŀç»ŃçļĦ":11296,"è¡¨éĿ¢çļĦ":11297,"çĻ¾ä¸ĩ":11298,"çļĦæĬĢæľ¯":11299,"Ġsupernovae":11300,"æĳĦå½±":11301,"æįĨç»ĳ":11302,"äºļåİĨå±±":11303,"Ġmirr":11304,"æľīåĬ©äºİ":11305,"æ·±åº¦":11306,"éĽħåħ¸":11307,"ä¿ĥè¿Ľ":11308,"EE":11309,"Ġè¾¾":11310,"æĺ¯éĢļè¿ĩ":11311,"quasi":11312,"åĳĪçİ°":11313,"break":11314,"Ġpin":11315,"è¯¢":11316,")=[":11317,"æĪĳä»¬æĬ¥åĳĬ":11318,"åľ°è¡¨":11319,"Ġdiscri":11320,"å°ĨåĨĽ":11321,",\\\\&\\":11322,"èĳ¡èĲĦçīĻ":11323,"Ġinelastic":11324,"oltzmann":11325,"'\\)":11326,"^{{\\":11327,"æłĪ":11328,"äºĮåħĥ":11329,"å·´å°Ķ":11330,"Ġestimator":11331,"éĻĦè¿ĳçļĦ":11332,"Ġpositions":11333,"Ġåı·":11334,"åĴĮä¸Ģä¸ª":11335,"å®ļäºĨ":11336,"Ġdisplay":11337,"çī©ç§į":11338,"æ´¥":11339,"å½ĵçĦ¶":11340,"æŃ£æ¯Ķ":11341,"è°ĥåĪ¶":11342,"è¿ĩç¨ĭçļĦ":11343,"Ġ\\(\\{|":11344,"Ġseems":11345,"lescopes":11346,"fur":11347,"}-{\\":11348,"äº§çī©":11349,"ä¸ľåĮĹéĥ¨":11350,"ĠRecently":11351,"pmb":11352,"ĠåıĹ":11353,"rans":11354,"ä»·æł¼":11355,"é¥®":11356,"Ġlifetime":11357,"ku":11358,"aling":11359,"ĠWeyl":11360,"ĠTheory":11361,"æĭīå¤«":11362,"æķĻå¾Ĵ":11363,"yg":11364,"æĪĳä»¬èĥ½å¤Ł":11365,"Ġnearest":11366,"Ġmodular":11367,"ĠCompton":11368,"))\\,":11369,"éĦ":11370,"Ġmathbb":11371,"å¯º":11372,"Ġparity":11373,"Ġactions":11374,"Ġæĺ¯ä¸Ģä¸ª":11375,"CF":11376,"Ġ(|":11377,"mizing":11378,"ç¦»å¼Ģ":11379,"å®Įç¾İ":11380,"Ġoutside":11381,"everal":11382,"Ġdiffu":11383,"current":11384,"wavelength":11385,"Ġmultic":11386,")})=":11387,"ders":11388,"Ġ\\((-":11389,"^+,":11390,"):=(":11391,"ç¢±":11392,"è´¹ç±³":11393,"Ġfermionic":11394,"structures":11395,"smallmatrix":11396,"kk":11397,"}\\|^":11398,"sized":11399,")=&":11400,"luon":11401,"çļĦæĵįä½ľ":11402,"æĢģçļĦ":11403,"éĽĨç¾¤":11404,"Ġsupergravity":11405,"factor":11406,"ä¸ĸçºªçļĦ":11407,"^-_{":11408,"å²ģæĹ¶":11409,"variate":11410,"cross":11411,"Ġä¸»è¦ģ":11412,"çļĦè¿ĲåĬ¨":11413,"Ġcare":11414,"æĺ¯ä»İ":11415,"çļĦæ¯":11416,"éĽĮ":11417,"æŁĲä¸Ģ":11418,"åłª":11419,"Ġevaluation":11420,"Ġç½®":11421,"Ġdecoherence":11422,"Ġç»ĵ":11423,"tably":11424,"ç¼Ŀ":11425,"å¢ĵ":11426,"æ±Ĺ":11427,"warzs":11428,"Ġangles":11429,"Ġsynchrotron":11430,"ĠMilky":11431,"åªĴ":11432,"oidal":11433,"ucle":11434,"ä½ĵä¸Ń":11435,"å·¥äºº":11436,"uka":11437,"ä¸§":11438,"blem":11439,"åħ¬æĸ¤":11440,"è¯¥æ¨¡åŀĭ":11441,"xxx":11442,"iT":11443,"ĠåĲį":11444,"ĠæĭŁ":11445,"Ġpie":11446,"åĴĮéĿŀ":11447,"Ġunusu":11448,"icity":11449,"è¥¿åįĹéĥ¨":11450,"Ġfinitely":11451,"åı³è¾¹":11452,"çŁ¿çī©":11453,"Ġyear":11454,"Ġmorphology":11455,"{}{":11456,"triang":11457,"\\,=\\,":11458,"Ġ\\((-\\":11459,"Ġothers":11460,"Ġgenerators":11461,"æľīåħ³çļĦ":11462,"Ġexponents":11463,"physics":11464,"Ġanswer":11465,"Ġrigid":11466,"effe":11467,"çļĦæĿ¡ä»¶":11468,"such":11469,"é¢ł":11470,"åħīåħī":11471,"ç«ĭæĸ¹":11472,"å£¤":11473,"æµ·æĭĶ":11474,"æľįåĬ¡åĻ¨":11475,"Ġä½ľçĶ¨":11476,"ĠGeneral":11477,"Ġnonperturb":11478,"æ¼ł":11479,"å¸¦æĿ¥":11480,"queness":11481,"Ġsteady":11482,"çŁ³æ²¹":11483,")/(":11484,"Ġconfidence":11485,"PR":11486,"çļĦåīį":11487,"åĴĮé«ĺ":11488,"ç»´å°Ķ":11489,"Ġdirected":11490,"ĠSchro":11491,"åĪĨæĪĲ":11492,"éĻĪ":11493,"_+,":11494,"è§£åĨ³åĬŀæ³ķ":11495,"Ġlengths":11496,"ç°§":11497,"ä¼į":11498,"éģĵå¾·":11499,"Ġunified":11500,"åĪĽåĬŀ":11501,"ä¼¯çĪµ":11502,"é¸£":11503,"richlet":11504,"valued":11505,"TS":11506,"^-\\":11507,"cx":11508,"ĠåİŁ":11509,"ĠâĢľ":11510,"also":11511,"ĠTau":11512,"asy":11513,"Ġglobular":11514,"Ġdissipa":11515,"Ġbundles":11516,"Ġund":11517,"æĺ¯æĮĩ":11518,"çĥ¯":11519,"åĩłéĩĮ":11520,";\\;\\;\\;":11521,"æĿĤå¿Ĺ":11522,"Ġconfine":11523,"DD":11524,"dge":11525,"ines":11526,"äº¿":11527,"rie":11528,"Ġmach":11529,"ç¾½":11530,"rown":11531,"æł¼å¼ı":11532,"Ġproduces":11533,"èľĤ":11534,"Ġä¸ĬçļĦ":11535,"}\\!":11536,"ĠHigh":11537,"å¤ļå°ĳ":11538,"å¤©ç©º":11539,"åĲĦåľ°":11540,"è§ģäºİ":11541,"AU":11542,"LL":11543,"Ġee":11544,"å¾ĹåĩºçļĦ":11545,"ived":11546,"åįģå¹´":11547,"çŃĶæ¡Ī":11548,"ample":11549,"Ġæł·":11550,"tima":11551,"(\\|":11552,"ĠWay":11553,"Ġcoexis":11554,"ĠSM":11555,"negative":11556,"åĿĽ":11557,"Ġbinding":11558,"Ġbosonic":11559,"MBH":11560,"éĿłè¿ĳ":11561,"èī¯å¥½":11562,"ĠRaman":11563,"Ġextract":11564,"Ġå°±":11565,"ĠäºĴ":11566,"Ġconnections":11567,"çģ«å±±":11568,"çļĦåľ°æĸ¹":11569,"dh":11570,"Ġite":11571,"è¿Ļç±»":11572,"cade":11573,"æĿĤè´¨":11574,"åĲİæĿ¥çļĦ":11575,"ä¾Ŀèµĸäºİ":11576,"}~\\":11577,"Ġåĵį":11578,"Ġol":11579,"similar":11580,"loop":11581,"çĤ¼":11582,"æ³¢åĮħ":11583,"å¾ĹåĪ°çļĦ":11584,"ä»£æķ°çļĦ":11585,"Ġsensor":11586,"Ġstrategies":11587,"çļĦæŁĲäºĽ":11588,"TeV":11589,"xing":11590,"mecha":11591,"second":11592,"lot":11593,"æĢª":11594,"ä¸Ĭæľī":11595,"ĠæĪĳä»¬èĢĥèĻĳ":11596,"æİ¢è®¨":11597,"Ġsupported":11598,"ĠPer":11599,"ä¹ĭä¸º":11600,"æĸ°éĹ»":11601,"ç©ºéĹ´ä¸ŃçļĦ":11602,"ä¸ĸçºªæľ«":11603,"ä¹ĲåĻ¨":11604,"å£°æĺİ":11605,"az":11606,"ç½ļ":11607,"Ġheight":11608,"æĥħæĻ¯":11609,"ç¿»è¯ĳ":11610,"ç£¨":11611,",{":11612,"Ġå®ĥä»¬":11613,"Ġtha":11614,"è¯Ĭ":11615,"para":11616,"Ġtend":11617,"ç»ĵæŀľä¸İ":11618,"æ±¡":11619,"Ġregression":11620,"æĪĺåĲİ":11621,"ymmetries":11622,"è±ª":11623,"æĶ¾æĿ¾":11624,"Ġhybrid":11625,"Ġsteps":11626,"Ġburst":11627,"åŃ¤ç«ĭ":11628,"implies":11629,"Ġåħ³ç³»":11630,"ani":11631,"Ġuna":11632,"å¼ĢéĽĨ":11633,"èĥļ":11634,"çļĦæ¨¡æĭŁ":11635,"Ġconditional":11636,"Ġideas":11637,"rage":11638,"äºķ":11639,"Ġsemig":11640,"æµ·æ´ĭ":11641,"é²ģå£«":11642,"é»Ħèī²":11643,"åĴĮå¯¹":11644,"see":11645,"å¸¸çĶ¨":11646,"Ġstrings":11647,"çŃīæķĪ":11648,"ctrum":11649,"æĺ¾å¾®":11650,"Ġsubstitu":11651,"åŃĺåľ¨çļĦ":11652,"cyc":11653,"Hu":11654,"Ġæł¸":11655,"è¿Ļä¸İ":11656,"åŃĲç¾¤":11657,"ĠCor":11658,"ä»ĸå¯¹":11659,"ild":11660,"èĩªçĶ±åº¦":11661,"æľĪæĹ¥":11662,"å°Ŀ":11663,"è¥¿åįĹ":11664,"For":11665,"GRA":11666,"Po":11667,"Ġcup":11668,"åľ¨ä»ĸ":11669,"å®ļåĲĳ":11670,"æĸ¯å¹´":11671,"å¤ļå¹´":11672,"å®ļä¹īäºĨ":11673,"æĽ¿ä»£":11674,"åĢ¾æĸľ":11675,"Ġadaptive":11676,"eloop":11677,"Ġmod":11678,"Ġfits":11679,"Ġtwop":11680,"éĢĤçĶ¨":11681,"Ġshifts":11682,"èĻļæĭŁ":11683,"çļĦæ··åĲĪ":11684,"Bar":11685,"zer":11686,"Ġå¼º":11687,"éĺĲ":11688,"æľĢæľī":11689,"æĻ°":11690,"Ġgame":11691,"Ġplays":11692,"Ġways":11693,"ä¸ĸçķĮä¸Ĭ":11694,"CDM":11695,"æ²¿å²¸":11696,"liminary":11697,"Ġdeviation":11698,"Ġmatching":11699,"æīĢè°ĵçļĦ":11700,"solar":11701,"leading":11702,"Ġ=:":11703,"ĠWMAP":11704,"ĠSeveral":11705,"Ġhold":11706,"large":11707,"Ġçľ":11708,"åĬłæĭī":11709,"åĽĽä¸ĸ":11710,"Ġdiscrepan":11711,"Ġsynthe":11712,"è¯¸è¯Ńè¨Ģ":11713,"!}{":11714,"sign":11715,"æĺ¯æľī":11716,"åĩ¸":11717,"å·¡":11718,"ä¸¤èĢħ":11719,"æĮĩåĲĳ":11720,"çīĻåĪ©":11721,"Ġmodeled":11722,"èĪŀåı°":11723,"Ġeigenvalue":11724,"Ġbrigh":11725,"åı¯ä»¥æĺ¯":11726,"é¢Ĩåľ°":11727,"è¶ĬæĿ¥":11728,"ä¼ĺåĬ¿":11729,"å·¨å¤§çļĦ":11730,"æ¸ħæ¥ļ":11731,"Ġdeviations":11732,"éŃĶ":11733,"æĹ¨åľ¨":11734,"hard":11735,"Ġacting":11736,"Ġfru":11737,"))_{":11738,"å£®":11739,"Ġå±ķ":11740,"çļĦè´¨éĩı":11741,"}=(-":11742,"åıĳéĢģ":11743,"æŀģå¤§":11744,"äºĭåĬ¡":11745,"å´ĩæĭľ":11746,"ators":11747,"èİī":11748,"åĽŀé¡¾":11749,"æłĩåĩĨæ¨¡åŀĭ":11750,"è¶ĭåĲĮ":11751,"arante":11752,"BF":11753,"Wit":11754,"rl":11755,"Ġåıĸ":11756,"Ġparametri":11757,"Ġformer":11758,"åıĺåĮĸçļĦ":11759,"Ġpecu":11760,"Ġkinematic":11761,"Ġnanotu":11762,"åīªåĪĩ":11763,"NP":11764,"Ġtil":11765,"Ġbox":11766,"ä¸įéľĢè¦ģ":11767,"æĿ¥è®¡ç®Ĺ":11768,"Ġç±»åŀĭ":11769,"Ġstraight":11770,"åħ¸åŀĭçļĦ":11771,"Dirac":11772,"Ġinsulator":11773,"Ġput":11774,"})}.":11775,"å¤§èĩ´":11776,"çĽ¸éĤ»":11777,"åŃ¦åĴĮ":11778,"Ġcomposite":11779,"åıĳæĮ¥":11780,"åı¯ä»¥è¢«":11781,"ĠQSO":11782,"æ¯Ķçī¹":11783,"Ġadmits":11784,"ä¸Ķä»ħ":11785,"Ġswitching":11786,"Ġçºª":11787,"Ġ(),":11788,"energe":11789,"ç½²":11790,"Ġåľ¨æľ¬":11791,"å¤±åİ»":11792,"}}^{(":11793,"Ġ\\\\-":11794,"æľīè®¸å¤ļ":11795,"Ġcovariance":11796,"å½»":11797,"ç¡«":11798,"çĽ´èĩ³":11799,"ä¼łéĢĴ":11800,"hyper":11801,"æ´»è·ĥ":11802,"Ġanalogue":11803,"Ġaffected":11804,"åºĦ":11805,"ĠHalpha":11806,"æĸ¯åĴĮ":11807,"Ġtetra":11808,"Ġ[-":11809,"Ġsurvi":11810,"}]=\\":11811,"Ġmodule":11812,"Ġbranch":11813,"Ġargument":11814,"isk":11815,"Ġrecor":11816,"ĠType":11817,"ĠçĬ¶":11818,"ball":11819,"lk":11820,"osity":11821,"ĠPlanck":11822,"æģĲ":11823,"éĩĳèŀį":11824,"Ġshall":11825,"Ġgeometries":11826,"Ġnecessarily":11827,"Ġmergers":11828,"Ġholomorphic":11829,"bmod":11830,"iA":11831,"xe":11832,"||_{":11833,"Ġ,\\\\":11834,"rant":11835,")\\|_":11836,"å°¿":11837,"licon":11838,"Ġic":11839,"è¥¿åĮĹéĥ¨":11840,"Ġacoustic":11841,"Ġdamping":11842,"å¸¦çĶµ":11843,"æ£ķ":11844,"Ġfeasi":11845,"ä¸¹éº¦":11846,"Ġshocks":11847,"æ£ĢæµĭåĪ°":11848,"Ġatmospheric":11849,"defined":11850,"Ġbond":11851,"æľ±":11852,"ĠML":11853,"ĠæŁĲ":11854,"æĿ¥è¡¨ç¤º":11855,"ĠInter":11856,"velocity":11857,"Ġsolv":11858,"Ġbiological":11859,"æī®æ¼Ķ":11860,"41":11861,"dT":11862,"Ġç»ı":11863,"çļĦåıĳå±ķ":11864,"çļĦä½įç½®":11865,"Ġbegin":11866,"åģ¿":11867,"jective":11868,"Ġextensive":11869,"åįļçī©":11870,"åĲĽä¸»":11871,"ä¼ĹæīĢåĳ¨çŁ¥":11872,"Ġlu":11873,"have":11874,"Ġmet":11875,"ç¨£":11876,"omic":11877,"velope":11878,"ç¥ŀè¯Ŀ":11879,"onomy":11880,"çŁĽçĽ¾":11881,"Bu":11882,"é¬":11883,"ĠæľĢè¿ĳ":11884,"çļĦæ½ľ":11885,"ç³Ĭ":11886,"ĠDy":11887,"Ġindeed":11888,"Ġsuccessfully":11889,"Ġinferred":11890,"ä¸Ģéĥ¨åĪĨ":11891,"æĺ¯ä¸ª":11892,"ĠAnd":11893,"Ġzeta":11894,"Ġzone":11895,"èįĴ":11896,"å·®åĪ«":11897,"çľĭåĩº":11898,"Ġefficiently":11899,"){":11900,"inclu":11901,"Ġfle":11902,"ĠBH":11903,"è¿ĩæ»¤":11904,"æİ¢éĻ©":11905,"component":11906,"æł¡åĩĨ":11907,"Ġdiameter":11908,"Ġsearches":11909,"osephson":11910,"RI":11911,"her":11912,"Ġtext":11913,"Ġä¸ī":11914,"Ġfall":11915,"iso":11916,")}}{\\":11917,"æłª":11918,"ä¹ĭä¸ĭ":11919,"mbination":11920,"æĳ©æĵ¦":11921,"Ġinstance":11922,"Comp":11923,"ç«ŀäºī":11924,"Ġæ²¡æľī":11925,"Ġsymbol":11926,"å°Ĭ":11927,"Ġcovariant":11928,"ĠEle":11929,"ĠKerr":11930,"Ġlowmass":11931,"Ġintroduction":11932,"è¤Ĳèī²":11933,"Ġdefects":11934,"Ġconfinement":11935,"å·¥èīº":11936,"çº½çº¦å¸Ĥ":11937,"inkowski":11938,"çļĦæĮ¯åĬ¨":11939,"èĴĻçī¹åį¡æ´Ľ":11940,"ĠWilson":11941,"sky":11942,"ened":11943,"Ġplus":11944,"æĪĳä»¬è®¨è®º":11945,"Ġonset":11946,"Ġç¾İåĽ½":11947,"ç»´åĲī":11948,"æ°Ķä½ĵçļĦ":11949,"èĥ½éĩıçļĦ":11950,"kern":11951,"æĭľåįł":11952,"Ġuniformly":11953,"scalar":11954,"$}":11955,")_+":11956,"NE":11957,"tized":11958,"ĠClo":11959,"éĻµ":11960,"æ°¨":11961,"èĢĮæĪĲ":11962,"åĢŁ":11963,"æĶ¾å¼ĥ":11964,"Ġtang":11965,"ĠLett":11966,"èį¯çī©":11967,"Ġexponentially":11968,"shi":11969,"Ġoxi":11970,"äºĨä¸ĢäºĽ":11971,"ĠDu":11972,"Ġcomposed":11973,"Ġ\\|_":11974,"_*\\":11975,"æ¿Ģåıĳ":11976,"Ġemph":11977,"Ġextending":11978,"'),":11979,"Ho":11980,"my":11981,"ĠéĤ£ä¹Ī":11982,"Ġ&+":11983,"ĠTevatron":11984,"versity":11985,"ä»¥å¤ĸ":11986,"ĠIRA":11987,"å¹´ä¸º":11988,"æŃĩ":11989,"ĠMaxwell":11990,"çĤ®":11991,"ources":11992,"channel":11993,"å®ŀéªĮå®¤":11994,"æĪĺäºīä¸Ń":11995,"ç¼ĵæħ¢":11996,"ored":11997,"çļĦä½İ":11998,"mera":11999,",\\{":12000,"ç»³":12001,"å®¿":12002,"è¯ļ":12003,"Ġ&=&":12004,"æĶ¾å°Ħ":12005,"çļ®èĤ¤":12006,"Ġtreated":12007,"éĻĨåĨĽ":12008,"Ġenvironments":12009,"Ġcompounds":12010,"Cl":12011,"appe":12012,"fermi":12013,"Ġå½¢å¼ı":12014,"Ġåģĩè®¾":12015,"ĠST":12016,"çĶŁç´ł":12017,"åĬĽåĴĮ":12018,"å¾®æ³¢":12019,"åįĹåĮĹ":12020,"æ£ī":12021,"Ġdiffer":12022,"å®Įæķ´çļĦ":12023,"ç¦ģæŃ¢":12024,"ç¼łç»ķ":12025,"Ġrigorous":12026,"'}^":12027,"(.":12028,"åħ½":12029,"Ġinclin":12030,")\\|^":12031,"æı¡":12032,"è¾ĥé«ĺ":12033,"ditionally":12034,"Ġtail":12035,"è¡¨çİ°åĩº":12036,"Ġscience":12037,"OF":12038,"ortu":12039,"Ġeccent":12040,"\\,|\\,":12041,")))":12042,"åĨħåŃĺ":12043,"æ±ł":12044,"tivation":12045,"åŃĺåľ¨äºİ":12046,"åĽĽç»´":12047,"åį°åĪ·":12048,"Ġelliptical":12049,"èĬĿåĬł":12050,"Yau":12051,"Ġextent":12052,"ĠKondo":12053,"Ġmonit":12054,"èĢ¶ç¨£":12055,"ĠGRBs":12056,"--":12057,"Ke":12058,"çļĦåĪĨå¸ĥ":12059,"gathered":12060,"å¹´åīį":12061,"å¾®ç§¯åĪĨ":12062,"Ġ\\,\\,\\,":12063,"çļĦæ·±":12064,"coupled":12065,"gligi":12066,"warzschild":12067,"ract":12068,"Ġvic":12069,"è¾ĸ":12070,"}+{":12071,"Ġinterplay":12072,"Ġspinorbit":12073,"åİĭå¼º":12074,"åĪĨåĪ«æĺ¯":12075,"ĠæĶ¿":12076,"ä¸īè§Ĵå½¢":12077,",(\\":12078,";\\\\":12079,"PD":12080,"Ġä¹Ī":12081,"oly":12082,"lied":12083,"Ġcomb":12084,"çĶ¨ä»¥":12085,"mized":12086,"Ġmemb":12087,"çĽ¸è¿ŀ":12088,"lari":12089,"åĢ¡":12090,"è´¨å¿ĥ":12091,"\\|=\\":12092,"ijkl":12093,"Ġtranslation":12094,"Ġpotentially":12095,"Ġdriving":12096,"éĴĪå¯¹":12097,"è¾ħåĬ©":12098,"aa":12099,"çļĦæľĢå¤§":12100,"Ġdrop":12101,"})},":12102,"éĺĶ":12103,"Ġbuilding":12104,"Ġapplicable":12105,"'|":12106,"ĠåįĬ":12107,"Ġäº§çĶŁ":12108,"ä¸»é¢ĺ":12109,"odd":12110,"è®®éĻ¢":12111,"Ġorien":12112,"Ġusers":12113,"jm":12114,"Ġåħ°":12115,"mathring":12116,"çº¬":12117,"åĨĴ":12118,"core":12119,"é«ĺèĥ½":12120,"éĽĨæĪĲ":12121,"Ġtesting":12122,")[\\":12123,"çļĦç©ºéĹ´":12124,"determin":12125,"Ġdiffe":12126,"))+\\":12127,"çĽ¸åħ³æĢ§":12128,"å¥½åľ°":12129,"sphere":12130,"é¡¶éĥ¨":12131,"Ġfollowed":12132,"Ġimplement":12133,"ĠJaco":12134,"ĠBoseEinstein":12135,"Ġpolymer":12136,")*":12137,"It":12138,"åŃĻ":12139,"åı¯åıĺ":12140,"çļĦæ¤":12141,"åħ¶ä½Ļ":12142,"product":12143,"å·¥åİĤ":12144,"Ġ\\;.":12145,"Ġsignificance":12146,"å£°éŁ³":12147,"ç¨³å®ļæĢ§":12148,"Ġsoftware":12149,"åĮĪçīĻåĪ©":12150,"([\\":12151,"HM":12152,"Ġæľ¯":12153,"çļĦéķ¿":12154,"çļĦåĬŁèĥ½":12155,"çļĦæĸ¹åĲĳ":12156,"ists":12157,"å¯¹åģ¶":12158,"Ġperspe":12159,"å¾·å°Ķ":12160,"Ġvertical":12161,"æ»ļ":12162,"^{|":12163,"å¤§å¤ļ":12164,"ĠçŃ":12165,"Ġcause":12166,"å¾Īå°ĳ":12167,"éĢĢåĮĸ":12168,"Ġåħ¶ä»ĸ":12169,"Ġsound":12170,"Ġown":12171,"éĥ¨èĲ½":12172,"ä¸»æľº":12173,"æŃ¤åĲİ":12174,"è¿Ĳæ²³":12175,"shell":12176,"æĭīæł¼æľĹæĹ¥":12177,"rx":12178,")\\}.":12179,"Ġrepe":12180,"æĺŁä½ĵ":12181,"å®ĥä¸İ":12182,"Ġtwisted":12183,"èħ¿":12184,"æİĴéĻ¤":12185,"Ġintroducing":12186,"éĺ¶æ®µçļĦ":12187,"åįļå£«":12188,"Ġdecreasing":12189,"çļĦç£ģåľº":12190,"Ġcapture":12191,"Tu":12192,"xf":12193,"ales":12194,",\\;\\;":12195,"Ġdegene":12196,"æĸĩèīº":12197,"å¸ĥæľĹ":12198,"åĽ´ç»ķ":12199,"Ġcombining":12200,"åĢ¾åĲĳ":12201,"zimuth":12202,"çļĦåĩłä½ķ":12203,"mul":12204,"Ġ14":12205,"ĠMpc":12206,"è´´":12207,"æ³ķå®ĺ":12208,"Ġdisplace":12209,"Ġquoti":12210,"Ġgrains":12211,"æļĸ":12212,"Ġimprovement":12213,"]^{-":12214,"Ġly":12215,"Ġä½Ĩæĺ¯":12216,"tages":12217,"{\\|":12218,"ä¸ªæķ°":12219,"}_{{\\":12220,"ditive":12221,"ĠæĴ":12222,"æĿ¥çłĶç©¶":12223,"å¸¸éĩı":12224,"éĵħ":12225,"è°ĥåĴĮ":12226,":\\:":12227,"åĩ»è´¥":12228,"Ġæİ¨":12229,"éħ¸çĽĲ":12230,"åı¦ä¸Ģæĸ¹éĿ¢":12231,"Ġcyclic":12232,"Ġautoma":12233,"è·Łè¸ª":12234,"åĤħéĩĮ":12235,"-}":12236,"Per":12237,"ĠMic":12238,"éĥ¨éĺŁ":12239,"cribed":12240,"æĻ®åĭĴ":12241,"æģĴæĺŁå½¢æĪĲ":12242,"ç±»ä¼¼çļĦ":12243,"ĠSecond":12244,"è¶ĬæĿ¥è¶Ĭ":12245,"]}{":12246,"matter":12247,"çļĦç»Łç§°":12248,"é«ĺåİŁ":12249,"æŃ£åĪĻ":12250,"æķĻæİĪ":12251,"åį¡ç½Ĺ":12252,"è®°å¿Ĩ":12253,"æĸ¹éĿ¢çļĦ":12254,"Ġtrun":12255,"CFT":12256,"çĲĨåŃ¦":12257,"çļĦä¸Ģèĩ´":12258,"LAS":12259,"Ġdrift":12260,"çļĦç¡®":12261,"FS":12262,"racting":12263,"sibility":12264,"Ġdesi":12265,"ä½¿åħ¶":12266,"aking":12267,"åıĹå°ģä¸º":12268,"èĭ±è¯Ń":12269,"Ku":12270,"çļĦç»Łæ²»":12271,"éĺĪ":12272,"ĠRHIC":12273,"ĠOr":12274,"Ġpapers":12275,"åĨĻåĩº":12276,"Ġmedia":12277,"Es":12278,"LM":12279,"ath":12280,"çļĦæĸ¹":12281,"çļĦæ³¢":12282,"=\\{\\":12283,"åľ¨ä¸¤ä¸ª":12284,"Ġsetup":12285,"Ġ.)":12286,"nipu":12287,"ç¼ļ":12288,"boxtimes":12289,"Ġappearance":12290,"çļĦæ°ĳ":12291,"inted":12292,"æĪĳä»¬å°±":12293,"Ġdivi":12294,"Ġ[(":12295,"å·´è¥¿":12296,"Ġstream":12297,"Ġremaining":12298,"')=\\":12299,"meth":12300,"è¾ī":12301,"ä¸ĬéĻĲ":12302,"ä¸¤æ¬¡":12303,"Ġability":12304,"Ġsubstrate":12305,"æĽ´ä¸º":12306,"èĩ³ä»Ĭ":12307,"åħ¶ä¸ŃåĮħæĭ¬":12308,"é¡µéĿ¢":12309,"Ġconcepts":12310,"Ġcategories":12311,"ibb":12312,"Ġéĺµ":12313,"æµ´":12314,"åĲİæľŁ":12315,"ake":12316,"å¼ĤæĢ§":12317,"è§£éĩĬä¸º":12318,"ĠçŁ¥":12319,"Ġprobabilistic":12320,"Ġguarante":12321,"Ġåı£":12322,"ĠSP":12323,"çļĦæŁ":12324,"æĶ¹åĸĦ":12325,"ç±³äºļ":12326,"çļĦæ´»":12327,"Ġ\\;\\;\\;":12328,"sures":12329,"ĠEd":12330,"ided":12331,"åĪ¶æĪĲ":12332,"Ġtelescopes":12333,"åįĹéĿŀ":12334,"åĵ²åŃ¦å®¶":12335,"integra":12336,"çļĦç¼©":12337,"RF":12338,"Rs":12339,"gf":12340,"aring":12341,"dex":12342,"Ġwalk":12343,"bigsqcup":12344,"Ġweights":12345,"Ġallo":12346,"ä½ľæĪĺ":12347,"é¢Ī":12348,"éĤ®":12349,"ç§»å±ħ":12350,"æ¼Ķå¥ı":12351,"çŁ¢éĩıçļĦ":12352,"jx":12353,"pg":12354,"vals":12355,"}}^{-":12356,"æĸĲ":12357,"Ġur":12358,"å·¢":12359,"åĽ½æ°ĳ":12360,"ĠNumerical":12361,"çĶµéĺ»":12362,"è¡¨æł¼":12363,"åĲĮæĦı":12364,"Ġinterpo":12365,"auchy":12366,"å·¥ä½ľä¸Ń":12367,"Ġconstructing":12368,"å¹¿æ³ĽçļĦ":12369,"æŁıæŀĹ":12370,"ĠHubbard":12371,"kp":12372,"Ġå¸¦":12373,"Ġ\\>":12374,"çļĦä¸Ńå¿ĥ":12375,"ellu":12376,"resses":12377,"Ġfilling":12378,"illing":12379,"&=(":12380,"Ġotherwise":12381,"Ġconsistency":12382,"Ġproofs":12383,"é¹¿":12384,"å¸¸è§ģçļĦ":12385,"çļĦæııè¿°":12386,"Ġè¥¿":12387,"Ġå»º":12388,"sele":12389,"chron":12390,"Ġexcept":12391,"åħ¶ä¸ŃçļĦ":12392,"æķĻä¹ī":12393,"Ġinteri":12394,"æİ¥ä¸ĭæĿ¥":12395,"Ġmuon":12396,"æĽ²éĿ¢":12397,"æīĭæ®µ":12398,"çĮľ":12399,"ĠNeumann":12400,"MnO":12401,"boldmath":12402,"spaces":12403,"Ġscientific":12404,"Ġå¼Ģ":12405,"ĠéĢŁ":12406,"Ġå½±åĵį":12407,"Ġareas":12408,"vie":12409,"Ġç¢":12410,"è¦ģä¹Ī":12411,"çº¿ä¸Ĭ":12412,"ä¸¤è¾¹":12413,"æĺŁäºĳ":12414,"ç»Ħä»¶":12415,"Ġjunction":12416,"Ġnonuni":12417,"Ġspectro":12418,"ä¾Ŀæį®":12419,"SDSS":12420,"Mon":12421,"RE":12422,"TB":12423,"nj":12424,"}''":12425,"Ġfine":12426,"Ġdf":12427,"ç»ª":12428,"åĽĬ":12429,"åĪĨåĮĸ":12430,"åĲĮä½į":12431,"èĩªåıĳ":12432,"çķľ":12433,"åİŁçĤ¹":12434,"åĩĨå¤ĩ":12435,"åħ¼å®¹":12436,"å½Ĵä¸ĢåĮĸ":12437,"dig":12438,"Ġäº§":12439,"Ġä¹ĭéĹ´":12440,"æĪĳä»¬æľī":12441,"æĪĳä»¬å»ºè®®":12442,"è¢«è¿«":12443,"Ġendo":12444,"è´¨éĩıåĴĮ":12445,"æ¯ıä¸Ģä¸ª":12446,"Ġtraditional":12447,"Ġfractions":12448,"Ġultrac":12449,"Ġnonperturbative":12450,"Ġbot":12451,"ä¸Ńä¸ĸçºª":12452,"ĠHE":12453,"ĠHopf":12454,"çī¹çĤ¹":12455,"cript":12456,"åĽĽåįģ":12457,"ä¼°ç®Ĺ":12458,"åįıè°ĥ":12459,"å®«å»·":12460,"èĤĮèĤī":12461,"Cr":12462,"nq":12463,"çļĦéĩı":12464,"Ġprotein":12465,"ĠBi":12466,"ç¬¬ä¸ª":12467,"Ġrelate":12468,"çº³åħ¥":12469,"å¾Īå®¹æĺĵ":12470,"çıł":12471,"Ġtrajectories":12472,"orm":12473,"eline":12474,"æĢİ":12475,"parts":12476,"çĤī":12477,"æĥł":12478,"Ġsurprising":12479,"åĲ«ä¹ī":12480,"è§Ĩè§ī":12481,"çļĦæİ§åĪ¶":12482,"Ġwords":12483,"Ġsaturation":12484,"nos":12485,"Ġbig":12486,"æĸ¥":12487,"åĨķ":12488,"omorphisms":12489,"ç¼ħ":12490,",...":12491,"åıłåĬł":12492,"Ġillustrated":12493,"Ġsurrounding":12494,"}{{":12495,"ĠLya":12496,"Ġçķ":12497,"åħ³éĹŃ":12498,"micro":12499,"}|\\)":12500,"èĥĨ":12501,"æ¯ıä¸Ģ":12502,"èĸĦèĨľ":12503,"éĦĤ":12504,"æĭľåįłåºŃ":12505,"]\\\\":12506,"gi":12507,"ĠéĢŁåº¦":12508,"åĲĮçĲĨ":12509,"è¯¥åľ°åĮº":12510,"éĻĲåº¦":12511,"compact":12512,"åĶĲ":12513,"åĤ¨åŃĺ":12514,"æįķæįī":12515,"çļĦç¤¾ä¼ļ":12516,"çļĦæĶ¯æĮģ":12517,"çļĦå®ŀ":12518,"Ġpub":12519,"Ġranging":12520,"ĠnonGaussian":12521,"åĽ¾ä¹¦":12522,"æĴ°":12523,"Ġinitially":12524,"Ġvibra":12525,"æ§":12526,"Ġ}(\\":12527,"çļĦéĻĲåĪ¶":12528,"ana":12529,"ĠDes":12530,"åľ°ä¸Ń":12531,"going":12532,"ç©¿è¿ĩ":12533,"TA":12534,"rably":12535,"å¹¶è¡¨æĺİ":12536,"æĦıè¯Ĩ":12537,"Ġparametric":12538,"è¾ĥå°ı":12539,"æ±ĤåĴĮ":12540,"åįıå®ļ":12541,"ptons":12542,"driven":12543,"BE":12544,"BR":12545,"Jy":12546,"KS":12547,"Ġä»£æķ°":12548,"gas":12549,"çļĦæ®":12550,"cular":12551,"äºĶåįģ":12552,"Ġlongrange":12553,"æĶ¿æ²»äººçī©":12554,"Ġkinematics":12555,"Ġparabolic":12556,"Ġrunning":12557,"results":12558,"Ġhomotopy":12559,"aq":12560,"è¿Ħ":12561,"çĽ¸è¿ĳ":12562,"åĪ°ä¸Ģä¸ª":12563,"åĬłæĿĥ":12564,"è¾¹å½¢":12565,"ella":12566,"åįľ":12567,"è¿Ļå°±æĺ¯":12568,"Ġmotivated":12569,"Ġä¸ºäºĨ":12570,"çĽ¸å¯¹æĢ§":12571,"Ġcircle":12572,"çļĦæĶ¿æ²»":12573,"Ġqualitative":12574,"ä¼Łå¤§çļĦ":12575,"å°Ŀè¯ķ":12576,"åĤħéĩĮåı¶":12577,"Ġå½¢æĪĲ":12578,"Ġarm":12579,"Ġint":12580,"ĠdB":12581,"Ġrele":12582,"å¹¸":12583,"éĵ¸":12584,"éĴ»":12585,"åĨĻçļĦ":12586,"åĨĻä¸º":12587,"Ġreasonable":12588,"çĺ¤":12589,"Ġvisible":12590,"tA":12591,"maxi":12592,"ãĢĤï¼Į":12593,"Ġoffer":12594,"Ġwhy":12595,"Ġms":12596,"å¹´æ³ķåĽ½":12597,"æ°¯":12598,"æĪĺæĸĹ":12599,"Ġboundaries":12600,"é¡¶ç«¯":12601,"åįİçĽĽ":12602,"éĺ²æŃ¢":12603,"Ġç²¾":12604,"Ġprogress":12605,"sting":12606,"æĺŁçļĦ":12607,"Ġdots":12608,"æĶ¿æĿĥ":12609,"^+_{":12610,"æł¸åŃĲ":12611,"Ġsolitons":12612,"çĪ¶äº²":12613,"Ġstrain":12614,"èĬĿåĬłåĵ¥":12615,"gho":12616,"Ġçī¹æĢ§":12617,"Ġadop":12618,"Ġbas":12619,"Ġbeams":12620,"Ġfiber":12621,"åįĬçĲĥ":12622,"Ġfirstorder":12623,"ä¸ľåĮĹ":12624,"ä¼ĺåħĪ":12625,"Ġtrivial":12626,"æº¶è§£":12627,"Ġmatch":12628,"Ġmanner":12629,"Ġfaster":12630,"Ġstrictly":12631,"emission":12632,"general":12633,"|_\\":12634,"simal":12635,"å¯Ĵ":12636,"è¿Ļè¡¨æĺİ":12637,"åı¯æµĭ":12638,"åĬ¨èĦī":12639,"Ġligh":12640,"è¾ĥå¤§":12641,"åĬ¿åĬĽ":12642,"èĹ»":12643,"ĠWithin":12644,"Ġprinciples":12645,"Ġreliable":12646,"Ġremarkable":12647,"èĸĽå®ļè°Ķæĸ¹ç¨ĭ":12648,"hel":12649,"||^":12650,"ä¸įåı¯èĥ½":12651,"Ġçĭ¬":12652,"å¤ļæ¬¡":12653,"ä¹ĭå¤Ħ":12654,"Ġgau":12655,"åĮĹç¾İæ´²":12656,"Ġclassify":12657,"é£Łåĵģ":12658,"éĢĤå½ĵçļĦ":12659,"æĹħè¡Į":12660,"åĵ¥ä¼¦æ¯Ķäºļ":12661,"xrightarrow":12662,"|<\\":12663,"åĲŀ":12664,"^*-":12665,"umer":12666,"Ġsilicon":12667,"åīįéĿ¢":12668,"å¾®å°ı":12669,"èĭ±éĽĦ":12670,"Ġspacetimes":12671,"åĪļä½ĵ":12672,"classical":12673,"Ġèĩ³":12674,"ĠèĢĥèĻĳ":12675,"Ġwit":12676,"èĢĢ":12677,"éĽĢ":12678,"Ġuniqueness":12679,"Ġdoped":12680,"Ġcycles":12681,"çŃīç¦»åŃĲä½ĵ":12682,"cluster":12683,"æķ°åĪĹ":12684,"ĠIts":12685,"ressible":12686,"åĲİéĿ¢":12687,"åħīçº¿":12688,"))-\\":12689,"å¸ĥæĭī":12690,"ä½¿çĶ¨äºĨ":12691,"ç»ĨèĬĤ":12692,"æĳ©å°Ķ":12693,"çļĦçŁ³":12694,"Ġregularity":12695,"æĭĵå±ķ":12696,"è¶ĭåĬ¿":12697,"Ġintegers":12698,"jlim":12699,"^{{":12700,"åľ¨éĤ£éĩĮ":12701,"æīģ":12702,"å¸ĥé²ģ":12703,"åĽ¾çīĩ":12704,"åıįé¦Ī":12705,"Ġintersection":12706,"lecular":12707,"Ġmanybody":12708,"å·¨åŀĭ":12709,"boson":12710,"gligible":12711,"gx":12712,"Ġäº¤":12713,"åı¯çĶ¨":12714,"Ġcompr":12715,"soci":12716,"Ġlook":12717,"Ġtrigger":12718,"Ġske":12719,"åĴĮå¤§":12720,"lik":12721,"Ġvon":12722,"ĠSL":12723,"bigvee":12724,"Ġdisordered":12725,"Ġç±³":12726,"Ġchanging":12727,"èĤ¾":12728,"Ġ\\;.\\)":12729,"\\;,":12730,"ä»ħä»ħ":12731,"æŃĮæĽ²":12732,"è¯»èĢħ":12733,"Ġsituations":12734,"çļĦè·Ŀç¦»":12735,"çļĦæķ°åĢ¼":12736,"ancy":12737,"åĩºçĶŁäºİ":12738,"using":12739,"ä¸ĸçºªä¸Ń":12740,"ä¼°è®¡åĢ¼":12741,"Ġç²ĴåŃĲ":12742,"Ġcalibration":12743,"Ġair":12744,"å¹½":12745,"ä»¥åħ¶":12746,"Ġquantity":12747,"Ġdatab":12748,"åįĹæĸ¹":12749,"æķ°æį®åºĵ":12750,"äº§çĶŁäºĨ":12751,"åľĨåĳ¨":12752,"ç¿ģ":12753,"å®¡åĪ¤":12754,"Gu":12755,"wking":12756,"±ä¹Ĳ":12757,"Ġenerge":12758,"çļĦç»ĵ":12759,"çļĦå¥³":12760,"çļĦæķ°éĩı":12761,"ä¸Ģå¥Ĺ":12762,"^*=\\":12763,"è¢ĭ":12764,"const":12765,"ç»ıèĲ¥":12766,"Ġsubspace":12767,"ä¿®éģĵ":12768,"å¹³éĿ¢ä¸Ĭ":12769,"ĠSUSY":12770,"ĠçĦ¶èĢĮ":12771,"Ġquasar":12772,"violet":12773,"éĢļè´§èĨ¨èĥĢ":12774,"}\\;\\":12775,")\\}.\\)":12776,"nular":12777,"varkappa":12778,"ç§įæ¤į":12779,"^*.\\)":12780,"Ġsoliton":12781,"Ġprojected":12782,"Ġcommonly":12783,"å¹´æľĪæĹ¥":12784,"Bi":12785,"bounded":12786,"ĠåĬ¨æĢģ":12787,"}\\}.":12788,"}\\,\\,":12789,"ç§Ģ":12790,"éĽĩ":12791,"Ġfaint":12792,"å¦Ĥæŀľæĺ¯":12793,"otherwise":12794,"Ġvicinity":12795,"]]":12796,"åı¯éĿł":12797,"è½°":12798,"}}\\,\\":12799,"åħ¬æ°ĳ":12800,"åĨħåľ¨":12801,"åħĭæĭī":12802,"}],":12803,"Ġcontribute":12804,"iii":12805,"çĬ¹å¤ªäºº":12806,"Ġsummari":12807,"Ġsparse":12808,"crystal":12809,"').\\)":12810,"tv":12811,"ĠéĩıçļĦ":12812,"å¯¹é½Ĳ":12813,"Ġantic":12814,"èī²å½©":12815,"åŃĹèĬĤ":12816,"çº³ç²¹":12817,"æīĭæľ¯":12818,"å®ŀéªĮä¸Ń":12819,"èģļéĽĨ":12820,"pically":12821,"burg":12822,"çļĦæ¯ıä¸ª":12823,"Ġfragmentation":12824,"To":12825,"çļĦåħ¨":12826,"Ġeasy":12827,"Ġmm":12828,"æĪĲäºĨ":12829,"ĠRiver":12830,"Ġpowers":12831,"çĶµæŀģ":12832,"åĬłå¼º":12833,"Ġaccep":12834,"æĿŁç¼ļ":12835,"åºĵä¼¦":12836,"Ġcollection":12837,"Ġhelium":12838,"CE":12839,"pun":12840,"ĠåħĪ":12841,"çļĦçĶµåŃĲ":12842,"Ġdeformations":12843,"çĮ«":12844,"é¼»":12845,"')\\)":12846,"RO":12847,"çļĦæľīæķĪ":12848,"between":12849,"ĠMar":12850,"ä¸įåıĹ":12851,"Ġdifferenti":12852,"çĻĮ":12853,"ç®Ģè°Ĳ":12854,"æ±Ĥå¯¼":12855,"ynman":12856,"Ġprotocols":12857,"Ġroughly":12858,"Ġhuman":12859,"è®½åĪº":12860,"LX":12861,"sha":12862,"Ġclari":12863,"åĪĢ":12864,"calcu":12865,"åĴĮåľ¨":12866,"åı¯çĶ¨äºİ":12867,"åĲĳéĩıçļĦ":12868,"ult":12869,"æ¸©åº¦çļĦ":12870,"Ġthereby":12871,"fully":12872,"\\}^":12873,"ww":12874,"Ġ=\\,":12875,"hifted":12876,"æĺŁåĽ¢":12877,"exten":12878,"Ġhighenergy":12879,"äºĭä¸ļ":12880,"Ġsinglet":12881,"æī¹è¯Ħ":12882,"è¡įçĶŁçī©":12883,"Ġaggrega":12884,"Ġåĵģ":12885,"Ġè¡¨ç¤º":12886,"çļĦåŃĲ":12887,"}{}_{":12888,"Ġell":12889,"ĠMott":12890,"Ġdiscontinu":12891,"è±Ĩ":12892,"quential":12893,"ç¬¬äºĮæ¬¡":12894,"ç§ĺå¯Ĩ":12895,"}~~":12896,"Ġisomorphic":12897,"\\,{\\":12898,"ç¨¿":12899,"çķĮéĻĲ":12900,"çļĦä¸Ģç»Ħ":12901,"ĠRela":12902,"çļĦç´§":12903,"Ġinstrument":12904,"Ġresidual":12905,"=|\\":12906,"])\\":12907,"mx":12908,"Ġ^{(":12909,"metic":12910,"Ġiner":12911,"æ³µ":12912,"æĮª":12913,"Ġjunctions":12914,"åħ¬å¼Ģ":12915,"æłĩè®°":12916,"å¾®è§Ĥ":12917,"åĽŀå½Ĵ":12918,"åľ£ç»ı":12919,"æĪĳä»¬è¯ģæĺİäºĨ":12920,"ville":12921,"ĠBanach":12922,"bers":12923,"Ġact":12924,"Ġages":12925,"åĬłæ³ķ":12926,"Ġscat":12927,"ç»Ļå®ļçļĦ":12928,"ishing":12929,"Ġformulated":12930,"Ġqualitatively":12931,"Ġhierarchical":12932,"dF":12933,"Ġç»Ń":12934,"ĠæĺŁç³»":12935,"çļĦåı¯èĥ½æĢ§":12936,"åľ¨è¿ĻäºĽ":12937,"åľ¨æŁĲäºĽ":12938,"Ġmen":12939,"ä¸ŃæīĢ":12940,"è¯ŀ":12941,"Ġoneloop":12942,"çļĦçķĮ":12943,"^*+":12944,"case":12945,"å»ºæ¨¡":12946,"æ»´":12947,"è¿Ļç§įæĸ¹æ³ķ":12948,"ç¨³å®ļçļĦ":12949,"Ġindices":12950,"éŃĤ":12951,"Ġsubsequent":12952,"ĠObservatory":12953,"Ġexpanding":12954,"ovian":12955,"Mu":12956,"Res":12957,"TX":12958,"åĴĮS":12959,"ä¸Ńè¢«":12960,"peak":12961,"ĠMag":12962,"ä¸įè¶³":12963,"äººå·¥":12964,"ä¸Ģä¸ªæĸ°çļĦ":12965,"æľĢçĿĢåĲįçļĦ":12966,"æ°®":12967,"åī§æľ¬":12968,"åĭĴæĸ¯":12969,"ĠConsider":12970,"çļĦæ²³":12971,"èĬŃèķ¾èĪŀ":12972,"LD":12973,"Mark":12974,"tability":12975,"lean":12976,"ä¸ĢåĪĩ":12977,"Ġmanipu":12978,"Ġsums":12979,"ç»ĵå©ļ":12980,"Ġenvelope":12981,"è¾¾å°Ķ":12982,"å¿ħçĦ¶":12983,"quee":12984,"éĿĻçĶµ":12985,"Ġinterpret":12986,"Ġprobably":12987,"Ġvirtual":12988,"AD":12989,"dor":12990,"ye":12991,"Ġç§ĳ":12992,"Ġ-{\\":12993,"Ġproject":12994,"ĠBra":12995,"çļĦæį":12996,"è¡¨è¿°":12997,"å®ŀè¡Į":12998,"çĲĨè®ºåĴĮ":12999,"Ġcolors":13000,"çº¿æĢ§ç©ºéĹ´":13001,"åĲ«éĩı":13002,"åİĦç±³":13003,"+[":13004,"Lie":13005,"Ġboo":13006,"å¯¹æµģ":13007,"åŀĴ":13008,"Ġcalculus":13009,"èĲ¨æĸ¯":13010,"ĠSimilar":13011,"Ġaccurately":13012,"Ġemphasis":13013,"KB":13014,"Pb":13015,"pen":13016,"Ġ}\\)":13017,"çļĦä¸ī":13018,"meters":13019,"Ġdg":13020,"ĠRu":13021,"Ġparameteri":13022,"Ġtable":13023,"åıĽä¹±":13024,"Ġå¯¹ç§°":13025,"åºĩ":13026,"Ġmodelling":13027,"æĢ»åĴĮ":13028,"ĠDirichlet":13029,"Ġholographic":13030,"Ġä»»":13031,"ĠèĻĳ":13032,"cher":13033,"ĠCos":13034,"Ġfide":13035,"opti":13036,"å®ŀä¾ĭ":13037,"æį®è¯´":13038,"Ġeffectively":13039,"Ġstarforming":13040,"Ġindependently":13041,"Ġæ°ĳ":13042,"Ġcreation":13043,"Ġcoopera":13044,"triangleq":13045,"Bbb":13046,"Mar":13047,"br":13048,"çļĦè§Ĥæµĭ":13049,"lef":13050,"è¿Ļä¸¤ç§į":13051,"null":13052,"ä»ĸä¸İ":13053,"åĲĪéĩĳ":13054,"æ¬§åĩłéĩĮ":13055,"nstein":13056,"ç»Ŀç¼ĺ":13057,"ĠæĮģ":13058,"Ġpeculiar":13059,"Ġflexi":13060,")$":13061,"Bo":13062,"RR":13063,"\\#":13064,"xF":13065,"Ġä¸ļ":13066,"Ġera":13067,"æĺ¯æĹł":13068,"ä¼Ļ":13069,"}=[":13070,"çĶµåĬ¨":13071,"åı¯ä»¥æĬĬ":13072,"åĪ©æĸ¯":13073,"thern":13074,"dinger":13075,"ĠAssuming":13076,"evy":13077,"çİ¯å¢ĥä¸Ń":13078,"çļĦæĬķ":13079,"Ġagents":13080,"Ġpromising":13081,"Ġfrustra":13082,")}^{\\":13083,"Ġç§¯":13084,"erre":13085,"eller":13086,"Ġmeaning":13087,"å¢ĥåĨħ":13088,"Ġmissing":13089,"Ġergodic":13090,"Ġmirror":13091,"PE":13092,"Ġä¾ĭå¦Ĥ":13093,"ä½ĵéķ¿":13094,"yste":13095,"lowing":13096,"Ġnonrelativistic":13097,"Ġcorona":13098,"æ¶Ĥ":13099,"èĩ´åĬĽ":13100,"å¼ºå¤§":13101,"^{*}=":13102,")!}\\":13103,"TiO":13104,"çººç»ĩ":13105,"çļĦéĥ¨åĪĨ":13106,"ä¸Ģæ®µ":13107,"Ġmax":13108,"æĪĳä»¬è®¤ä¸º":13109,"number":13110,"ĠBell":13111,"ffer":13112,"å¤ļæł·":13113,"æ¶¯":13114,"æ¼Ĥ":13115,"äºīè®®":13116,"ä¼ĬæľĹ":13117,"åıªæľīåľ¨":13118,"åģ¶æŀģ":13119,"cous":13120,"ples":13121,"Ġhat":13122,"çļĦè¡Įä¸º":13123,"ange":13124,"Ġcone":13125,"å¯¹æĬĹ":13126,"cessible":13127,"å¾ĹåĩºäºĨ":13128,"åı¯ä»¥å¾ĹåĪ°":13129,"ĠJosephson":13130,"äºĮåıī":13131,"Ġgrain":13132,"ä¼łéĢģ":13133,"éĢīåıĸ":13134,"å®ŀéªĮæĢ§":13135,"\\;,\\)":13136,"Ġæ¨¡å¼ı":13137,"Ġsystematically":13138,"artree":13139,"Ġcounting":13140,"åįİçĽĽé¡¿":13141,"kf":13142,"rhd":13143,"Ġè®®":13144,"Ġincomp":13145,"lone":13146,"ç§°ä¹ĭä¸º":13147,"æ±¤":13148,"Ġgeneralizes":13149,"æīĵè´¥":13150,"Ġbranes":13151,"çªĹåı£":13152,"AdS":13153,"apo":13154,"Ġinduce":13155,"æĪĲä¸Ģä¸ª":13156,"Ġpreliminary":13157,"éĶĲ":13158,"åı¤æĸ¯":13159,"Ġetc":13160,"triangleright":13161,"èµ¤éģĵ":13162,"Ġunusual":13163,"qp":13164,"sho":13165,"ĠéĻĲåĪ¶":13166,"Ġ\\|^":13167,"mula":13168,"ĠSpeci":13169,"å¤§èĩ£":13170,"æŃ¤åľ°":13171,"å½ĵä¸Ķä»ħ":13172,"ä»»æĦıçļĦ":13173,"åıĳçĶŁåľ¨":13174,"åħ´å¥ĭ":13175,"éĿ¢ç§¯å¹³æĸ¹åħ¬éĩĮ":13176,"Ġvanishes":13177,"FF":13178,"|+\\":13179,"Ġè¿ĲåĬ¨":13180,"ä¸ºä¸Ģä¸ª":13181,"æŁĶ":13182,"å°±æľī":13183,"ç¼Ģ":13184,"}|{\\":13185,"åľŁå£¤":13186,"åºĵä»ĳ":13187,"æ¯Ķè¾ĥäºĨ":13188,"æ³¨æĦıåĪ°":13189,"é»Ħéĩĳ":13190,"é©±åĬ¨çļĦ":13191,"èģĶç³»èµ·æĿ¥":13192,"Ġwindow":13193,"MI":13194,"TC":13195,"|^{-\\":13196,"çļĨ":13197,"^{\\,":13198,"Ġseg":13199,"çĤ¹åĴĮ":13200,"Ġabst":13201,"elike":13202,"US":13203,"ĠçĽ¸åħ³":13204,"æĽ²çº¿çļĦ":13205,"Ġdistortion":13206,"Ġ)\\)":13207,"çļĦæ¬¡":13208,"^\\#":13209,"mensu":13210,"åĪ¶å®ļ":13211,"ç¡®å®ŀ":13212,"jet":13213,"^{*}_{":13214,"çĵ¶":13215,"Ġfusion":13216,"ĠMeth":13217,"models":13218,"Ġfacili":13219,"FW":13220,"Ts":13221,"Ġ~~~~":13222,"Ġepi":13223,"}}}.":13224,"Ġalignment":13225,"åıĳçĶµ":13226,"Ġll":13227,"åĨħæł¸":13228,"æ¸Ĺ":13229,"æķĻå£«":13230,"è®¾æĸ½":13231,"çĿĢç§°":13232,"æĮĩéĴĪ":13233,"åĳ½é¢ĺ":13234,"ä¼łç»ŁçļĦ":13235,"ĠNewton":13236,"Ġopportu":13237,"èµ·æºĲäºİ":13238,"è©¹å§Ĩæĸ¯":13239,"dra":13240,"Ġåħ±":13241,"Ġä¸ĢäºĽ":13242,"çļĦéĩį":13243,"cales":13244,"Ġmaser":13245,"äººæīĢ":13246,"Ġdistant":13247,"æ³°åĭĴ":13248,"Ġç¡®å®ļ":13249,"Ġaxial":13250,"Ġemitted":13251,"dH":13252,"iH":13253,"Ġobe":13254,"åľ¨å¤§":13255,"ä¸ŃåŃĺåľ¨":13256,"Ġexception":13257,"}{\\|":13258,"æľĢéĩįè¦ģçļĦ":13259,"Ġnewly":13260,"harmonic":13261,"çİĭå®¤":13262,"Ġconclusion":13263,"GM":13264,"kt":13265,"}*":13266,"Ġ).\\)":13267,"ĠæĿ¡ä»¶":13268,"çļĦå¯Ĩåº¦":13269,"Ġassemb":13270,"Ġstatus":13271,"phonon":13272,"'',":13273,"ĠExperi":13274,"eness":13275,"Ġbla":13276,"è¿Ļæĺ¯ä¸Ģä¸ª":13277,"ĠFu":13278,"}}{|":13279,"å¾·æĭī":13280,"Ġhighresolution":13281,")|_":13282,"çĸı":13283,"Ġfactorization":13284,"è¡Ģæ¶²":13285,"Ġexplored":13286,"Ġthermodynamics":13287,"Ġmarginal":13288,"Ġæµ·":13289,"urs":13290,"varLambda":13291,"çļĦæ¬§":13292,"))}\\":13293,"Ġperco":13294,"cription":13295,"ç¼ĸç¨ĭ":13296,"ç½Ĺé©¬å¸ĿåĽ½":13297,"ĠRicci":13298,"ellular":13299,"Ġè¯Ń":13300,"ĠåĽ´":13301,"Ġ\\(+":13302,"çļĦæĹ¶":13303,"Ġitera":13304,"æĿ¨":13305,"åĽ½çļĦ":13306,"ä»ĸè¢«":13307,"ĠNon":13308,"åĪ¶çº¦":13309,"éĩĮéĿ¢":13310,"ç¬¬åĽĽ":13311,"Ġcoronal":13312,"Ġinclusion":13313,"Ġcarrier":13314,"boration":13315,"ĠGauss":13316,"Ġdissipative":13317,"gle":13318,"tg":13319,"Ġinv":13320,"åĲ¹":13321,"è¡Ĺ":13322,"cession":13323,"}\\,(":13324,"lines":13325,"éļĲèĹı":13326,"åĲĮä½įç´ł":13327,"çļĦèĩª":13328,"çļĦæĺŁç³»":13329,"ricity":13330,"ä¸Ģå¯¹":13331,"pected":13332,"çļĦæºĲ":13333,"å¥ł":13334,"Ġè¿Ļæĺ¯":13335,"Ġcounterpart":13336,"Ġresistance":13337,"Ka":13338,"Ġä»»ä½ķ":13339,"deca":13340,"mathtt":13341,"Ġretur":13342,"ä¸ºé£Ł":13343,"Ġmomenta":13344,"ä¸»å¸Ń":13345,"æ»¨":13346,"åį¡æĭī":13347,"çĭ¬çī¹çļĦ":13348,"åĪĩåĲĳéĩı":13349,"^{+}":13350,"ĠæĶ¶":13351,"Ġ(.),":13352,"çĳŀå£«":13353,"JX":13354,"hb":13355,"ĠæķĪ":13356,"orting":13357,"ä¸ĢçĻ¾":13358,"}}},":13359,"ĠSystem":13360,"è´¾":13361,"Ġlabora":13362,"theless":13363,")|.\\)":13364,"Ġdetermines":13365,"ä¸Ģèĩ´æĢ§":13366,"çĵ¦å°Ķ":13367,"Ġquantify":13368,"çļĦæĮ¯å¹ħ":13369,"PM":13370,"ĠåĮºåŁŁ":13371,"ä»Ļ":13372,"Ġconst":13373,"ĠMA":13374,"åıĳåħī":13375,"ä¸¤æĿ¡":13376,"optical":13377,"åºĶåĬĽ":13378,"æľŁæľĽ":13379,"Ġgraphi":13380,"åĮĹæĸ¹":13381,"Ġcalculating":13382,"æĬĢå·§":13383,"omial":13384,"èĴĻåı¤":13385,"Ġarith":13386,"Fock":13387,"Klein":13388,"dY":13389,"Ġcus":13390,"å¾¡":13391,"éĻª":13392,"æĿ¥è§£éĩĬ":13393,"ç¨ł":13394,"ĠKu":13395,"è´¨çĤ¹çļĦ":13396,"\\{-":13397,"å¾·åįİ":13398,"ä¸ľè¥¿":13399,"ä¸ĢèĪ¬çļĦ":13400,"systems":13401,"Ġverify":13402,"ora":13403,"ĠSm":13404,"ĠStr":13405,"\\\\-":13406,"æµģåĩº":13407,"å¼ķè¿Ľ":13408,"Ġferromagne":13409,"æ¯ķä¸ļ":13410,"æ¨ªåĲĳ":13411,"æī«æıı":13412,"Ġinterior":13413,"çļĦæľīéĻĲ":13414,"rehen":13415,"Ġwal":13416,"Ġelimin":13417,"-\\!":13418,"ctro":13419,"ĠAx":13420,"ĠSwift":13421,"\\|(":13422,"ä¹Łä¸į":13423,"ĠæĪĳä»¬ä¸º":13424,"è¯¥æĸ¹æ³ķ":13425,"æĦıå¿Ĺ":13426,"è¿ŀéĢļ":13427,"}]_{":13428,"Ġanalyse":13429,"hdots":13430,"Ġè®©":13431,"hom":13432,"ĠChe":13433,"å®ĥåľ¨":13434,"æľºä¼ļ":13435,"potent":13436,"Ġæķ°åŃĹ":13437,"Ġmonop":13438,"Ġchrom":13439,"Ġinversion":13440,"åĳ¼åĲ¸":13441,"Ġsocial":13442,"é¬¼":13443,"FM":13444,"{}_{":13445,"ĠéĢł":13446,"Ġè§Ĥæµĭ":13447,"Ġazimuth":13448,"Ġ&(":13449,"çļĦæ£":13450,"ĠDue":13451,"Ġæĵįä½ľ":13452,"ĠæĪĳä»¬ä»İ":13453,"çº¦æľī":13454,"å½¢å¼ıçļĦ":13455,"åĽ½å®¶åħ¬åĽŃ":13456,"æ´¾çļĦ":13457,"ephe":13458,"').":13459,"Ġfriction":13460,"Ġdefect":13461,"abilities":13462,"åŃ¦ä¸Ń":13463,"åħīéĢŁ":13464,"åħĭäºº":13465,"nderson":13466,"çº¦ä¸º":13467,"Ġbifur":13468,"å¦Ļ":13469,"Ġinfinitely":13470,"Ġquadru":13471,"Ġpulsars":13472,"Ġsemiconductor":13473,"ukawa":13474,";\\,":13475,"ade":13476,"bor":13477,"pul":13478,"Ġè¿ĻéĩĮ":13479,"massive":13480,"çļĦåİŁ":13481,"äº¥":13482,"åľ°ä¸ĭ":13483,"Ġpoor":13484,")),\\":13485,"æĪĸåħ¶ä»ĸ":13486,"Ġtermin":13487,"Ġanalyzing":13488,"}^*\\":13489,"çļĦå¤§åŀĭ":13490,"èĦ±ç¦»":13491,"æ°¢åİŁåŃĲ":13492,"Ġæ¸©åº¦":13493,"Ġç¼ĸ":13494,"ĠChernSimons":13495,"![":13496,"AO":13497,"HT":13498,"jmath":13499,"Ġå¾ģ":13500,"ä»Ķ":13501,"Ġts":13502,"Ġbon":13503,"çĽĹ":13504,"åĲĪéĢĤ":13505,"proper":13506,"å¸ĥæĸ¯":13507,"æł¼æŀĹ":13508,"topes":13509,"finement":13510,"Ġæ²»":13511,"Ġdenote":13512,"'+\\":13513,"ctable":13514,"ĠMHD":13515,"ĠTheir":13516,"elling":13517,"æ³ķåĪĻ":13518,"å¤ļéĿ¢":13519,"ç§°ä½ľ":13520,"ç¡®ä¿Ŀ":13521,"èĬ³":13522,"å®Įå¤ĩ":13523,"å£°æ³¢":13524,"é¢ĦæµĭçļĦ":13525,"}^*(":13526,"Ġtension":13527,"Ġç¼©":13528,"ĠCollider":13529,"Ġarchite":13530,"çļĦéķ¿åº¦":13531,"Ġread":13532,"æľīçĲĨ":13533,"charge":13534,"åĮł":13535,"ĠSa":13536,"dsor":13537,"standard":13538,"Ġtends":13539,"æĭīçī¹":13540,"æµģçļĦ":13541,"æĶ¾åľ¨":13542,"Ġcomputations":13543,"éħįæĸ¹":13544,"Ġphysically":13545,"Ġmagnitudes":13546,"Ġæ··":13547,"\\}^{":13548,"glow":13549,"Ġä¾ĭ":13550,"Ġå°ĳ":13551,"Ġcli":13552,"æĭĨ":13553,"ä»£çĲĨ":13554,"Ġshapes":13555,"çĽ´åĪ°å¹´":13556,"æŃ¦åĻ¨":13557,"world":13558,"Ġgeodesic":13559,"tives":13560,"sides":13561,"ĠAT":13562,")!}{":13563,"è®ºæĸĩä¸Ń":13564,"Ġwalls":13565,"DNA":13566,"zw":13567,"Ġconduction":13568,"çİī":13569,"tope":13570,"å¾®ç²Ĵ":13571,"Ġvisual":13572,"SNR":13573,"FeAsO":13574,"Mc":13575,"posed":13576,"¿Ĵ":13577,"Ġåĳĺ":13578,"Ġwh":13579,"æµ¸":13580,"dire":13581,"é¢ģ":13582,"ĠVari":13583,"å½ĵä½ľ":13584,"Ġoptics":13585,"ä¿ĿéĻ©":13586,"æİ¨ç¿»":13587,"EV":13588,"pn":13589,"Ġben":13590,"ä¸Ĭä¸ĭ":13591,"åĲİè¢«":13592,"Ġç¥ŀ":13593,"åĮĸçī©":13594,"éĥ¨ä»¶":13595,"åŀĭçļĦ":13596,"charac":13597,"æķ£æķ£":13598,"å·´åĭĴ":13599,"æĻ®é²ģå£«":13600,"äºīè®º":13601,"åħĥç´łåĢ¼":13602,"copic":13603,"princi":13604,"Ġaccelerated":13605,"IMP":13606,"polarized":13607,"'_\\":13608,"Abelian":13609,"Yang":13610,"çļĦè¯Ŀ":13611,"Ġow":13612,"åĲĥ":13613,"è¿ĻæĦıåĳ³çĿĢ":13614,"inear":13615,"ä¸įå¹³çŃī":13616,"neighb":13617,"Ġnet":13618,"å¹¶ä¸įæĺ¯":13619,"trol":13620,"å°ĺåŁĥ":13621,"åĺ´":13622,"åįļçī©é¦Ĩ":13623,"\\!\\!\\":13624,"çĶľ":13625,"ĠAb":13626,"çļĦçŃ":13627,"å¸¸å¸¸":13628,"Ġuncon":13629,"æĽ´å¤§":13630,"è®¤è¯Ĩ":13631,"äºĶä¸ª":13632,"åįķä½įåĪ¶":13633,"Ġyiel":13634,"Ġcommutative":13635,"Ġfocusing":13636,"Ġmarket":13637,"æ¯«ç±³":13638,"Br":13639,"ina":13640,"ä¸Ńåĩºçİ°":13641,"vier":13642,"æĸ¯æīĺ":13643,"åħ¬çĲĨ":13644,"åīįèĢħ":13645,"Ġfluids":13646,"Ġestimators":13647,"éĢļå¸¸æĺ¯":13648,"å¤įæĿĤåº¦":13649,"Ġinstabilities":13650,"å¹´åľ¨ä½į":13651,"åıĺå¼ĤæĢ§":13652,"Ġinsight":13653,"å°ļæľª":13654,"åĨłåĨĽ":13655,".(":13656,"nb":13657,"Ġnil":13658,"ĠBu":13659,"Ġstages":13660,"å»Ĭ":13661,"å·¥ä¼ļ":13662,"æ´Ľåħĭ":13663,"æ¶ĪéĻ¤":13664,"Ġpropagating":13665,"Ġcapable":13666,"Ġwidths":13667,"Ġwrite":13668,"Ġleq":13669,"ä¸Ģéĺ¶":13670,"licities":13671,"æĹģ":13672,"ãĢģãĢĤ":13673,"æĦŁåħ´è¶£":13674,"çıį":13675,"Ġcrossing":13676,"HV":13677,"NI":13678,"kh":13679,"Ġåĥı":13680,"inz":13681,"Ġinduces":13682,")=&\\":13683,"ĠCen":13684,"å¯¼çĶµ":13685,"éĵº":13686,"å¿ĥèĦı":13687,"ĠBecause":13688,"Ġoccup":13689,"ually":13690,"å®ļç§¯åĪĨ":13691,"mstellar":13692,"å¯¹ç§°çļĦ":13693,"æ´»æĢ§":13694,"æĳĩ":13695,"Ġassociation":13696,"ä¹ĺç§¯":13697,"Ġtimescale":13698,"lators":13699,"Ġarbitra":13700,"Ġrecombination":13701,"Ġinspi":13702,"minimal":13703,"ä¿®éģĵéĻ¢":13704,",+\\":13705,"Ġä»İèĢĮ":13706,"Ġ~~~":13707,"Ġparent":13708,"Ġdeci":13709,"çĽĨ":13710,"çĲĨæĢ§":13711,"Ġarri":13712,"Ġvalence":13713,"æııç»ĺ":13714,"Ġformulae":13715,"present":13716,"è´¢æĶ¿":13717,"åī©ä½Ļ":13718,"Ġdecision":13719,"çļĦç«ĭ":13720,"quares":13721,"]\\,":13722,"rtimes":13723,"scu":13724,"ĠèĻ½çĦ¶":13725,"çļĦåľ£":13726,"åĬ¨èį¡":13727,"å°Ķçī¹":13728,"è®¡æķ°":13729,"æĸĩæľ¬":13730,"è½¬åĲĳ":13731,"Ġlarg":13732,"é²¸":13733,"ç¼©å°ı":13734,"æľĢå¤§åĢ¼":13735,"ĠæĬĬ":13736,"Ġtargets":13737,"Ġhorizontal":13738,"tificial":13739,"çļĦæĳ©":13740,"Ġuniversality":13741,"viewed":13742,"Hilbert":13743,"ĠåĬŁèĥ½":13744,"çļĦåĨħå®¹":13745,"^{+\\":13746,"Ġci":13747,"ĠHer":13748,"å®ļä½į":13749,"å½¢è±¡":13750,"æıĲç¤º":13751,"Ġdynamically":13752,"ĠæĶ¯":13753,"çļĦç¨ĭåºı":13754,"FP":13755,"ªģ":13756,"_{<":13757,"lets":13758,"åĪĨç»Ħ":13759,"è¦ģç´ł":13760,"èĩªèº«":13761,"ctral":13762,"åĪĹè¡¨":13763,")].":13764,"Ġduration":13765,"}^{*}\\":13766,"lined":13767,"æ³Ľåĩ½":13768,"ĠMost":13769,"æ£®åł¡":13770,"Ġquasiparticle":13771,"Ġoriented":13772,"Ġsubstantially":13773,"å½ĵä¸Ķä»ħå½ĵ":13774,"Let":13775,"Os":13776,"Ġæĸ¹ç¨ĭ":13777,"Ġfab":13778,"æĭ±":13779,"æĭĸ":13780,"å¹¶æ²¡æľī":13781,"æĮĸ":13782,"å¾·éĩĮ":13783,"åľ°åĮºçļĦ":13784,"ĠéĹ´çļĦ":13785,"kq":13786,"pseudo":13787,"ĠæĿ¡":13788,"Ġè±¡":13789,"ä¸Ńå¾®":13790,"äºĨè®¸å¤ļ":13791,"çĶŁçļĦ":13792,"å¹¶éĿŀ":13793,"å¹¶åħ¥":13794,"è¯¥åŁİ":13795,"åĻ¨å®ĺ":13796,"åıĸæ¶Ī":13797,"çĭĤ":13798,"Ġunits":13799,"æĺ¾ç¤ºåĩº":13800,"Ġcoming":13801,"Ġä¸ĢèĪ¬":13802,"èģļåĲĪçī©":13803,"é¸¡":13804,"'-\\":13805,"Ġå¯¼èĩ´":13806,"}))\\":13807,"Ġisos":13808,"Ġdeformed":13809,"æĪĲæŃ£æ¯Ķ":13810,"Ġcompli":13811,"å¤ļéĩį":13812,"å®ĺåĳĺ":13813,"åħŃä¸ª":13814,"èīºæľ¯å®¶":13815,"Ġbaryons":13816,"åľ°ä¸Ńæµ·":13817,"Ġtot":13818,"stat":13819,"}].":13820,"mically":13821,"000":13822,"aylor":13823,"Ġgrowing":13824,"Ġæ´»":13825,"éĺĪåĢ¼":13826,"))\\\\":13827,"Ber":13828,"ĠæĢ»":13829,"_{[\\":13830,"tioned":13831,"å¹´èİ·":13832,"cir":13833,"ogen":13834,"çĲĥä½ĵ":13835,"Ġscan":13836,"ordon":13837,"ç½Ĺé©¬äºº":13838,"é»İæĽ¼":13839,"èľ¡":13840,"èĦĬæŁ±":13841,"MNew":13842,"Ġrecogni":13843,"Ġç®Ĺæ³ķ":13844,"Ġ\\(=\\":13845,"Ġinstant":13846,"hoton":13847,"}_{[":13848,"æŀļ":13849,"åľ°å¹³":13850,"ç§įåŃĲ":13851,"Ġknot":13852,"Ġdefining":13853,"åĨľæ°ĳ":13854,"Ġbackgrounds":13855,"complex":13856,"'}=":13857,"](\\":13858,"had":13859,"due":13860,"string":13861,")].\\)":13862,"æģĴå®ļ":13863,"æĻ¶æł¼":13864,"å¼ķåĬĽæ³¢":13865,"çİĽä¸½":13866,"åģľæŃ¢":13867,"Ġattributed":13868,"72":13869,"frame":13870,"Ġä¹ĭéĹ´çļĦ":13871,"tia":13872,"lest":13873,"Ġice":13874,"ĠCD":13875,"ĠCR":13876,"ĠHII":13877,"))|":13878,"Ġnonde":13879,"èĭ±æĸĩ":13880,"ä¹ĲåĽ¢":13881,"Ġ\\\\&+":13882,"puts":13883,"Ġcounterparts":13884,"åģ¥åº·":13885,"Ġsqrt":13886,"Ġdiscrimin":13887,"Ġadsor":13888,"mulated":13889,"cto":13890,"Ġorbi":13891,"èĢĮè¢«":13892,"åİŁä¸º":13893,"æł¼æĸ¯":13894,"iden":13895,"éħ¶":13896,"Ġdefini":13897,"Ġferro":13898,"çļĦçĿĢä½ľ":13899,"has":13900,"æĺ¯éĿŀ":13901,"åĪĨæ³Į":13902,"ä½ľåĩº":13903,"é«ĺæ¸©":13904,"Ġobserving":13905,"å¸¦å®½":13906,"çıĢ":13907,"å¨ģå°Ķæĸ¯":13908,"å¼±çļĦ":13909,"ĠçŁ³":13910,"Ġreproduced":13911,"Ġmajority":13912,"èŀįåĲĪ":13913,"çļĦæ¯Ķè¾ĥ":13914,"ores":13915,"ĠéľĢè¦ģ":13916,"Ġalone":13917,"milli":13918,"ĠEqu":13919,"åı¯ä»¥å°Ĩ":13920,"éĻĲäºİ":13921,"æ³¨éĩĬ":13922,"å¥ĩå¼Ĥ":13923,"ä¸ĵä¸ļ":13924,"å°ıè¯´å®¶":13925,"\\},\\\\":13926,"ĠéĽ¶":13927,"Ġrelies":13928,"ford":13929,"çİ°ä¸º":13930,"{(}":13931,"Ġversions":13932,")]^":13933,"Ġknots":13934,"Ġgoes":13935,"Ġnonlinearity":13936,"Ġachiev":13937,"çĬ¹å¤ªæķĻ":13938,"èĤĸåĥı":13939,"Ġremnant":13940,"Ġkinds":13941,"åľ¨å¹´ä»£":13942,"Ġranges":13943,"çĶŁæ¶¯":13944,"è¥¿æł¼":13945,"è£¸":13946,"ä¿¡å¾Ĵ":13947,"éļıæĹ¶éĹ´":13948,"æ¢ģ":13949,"æŃ»äºİ":13950,"æĪĲåĬŁåľ°":13951,"Ġdemonstrates":13952,"çģŃç»Ŀ":13953,"Ġthought":13954,"çļĦæĽ²çº¿":13955,"å¦»åŃĲ":13956,"Ġincident":13957,"BD":13958,"XX":13959,"]},":13960,"çļĦè¿ĩç¨ĭ":13961,"related":13962,"æĿī":13963,"æĪĲçĨŁ":13964,"Ġ|_{":13965,"æľ¬è´¨":13966,"ductive":13967,"Ġuntil":13968,"åī§ä½ľå®¶":13969,"Ġclassified":13970,"\\;.":13971,"structed":13972,"æ¿Ĵ":13973,"Ġå®ļä¹ī":13974,"çļĦä¿¡æģ¯":13975,"çĶ³":13976,"Ġ13":13977,"è¡Įèµ°":13978,"åĲİåľ¨":13979,"ç»ĵæŀľçļĦ":13980,"Ġsubgroups":13981,"''\\":13982,"å§ĭç»Ī":13983,"æĺ¾ç¤ºäºĨ":13984,"Ġoutburst":13985,"åĤ¬":13986,"Ġviewed":13987,"Ġç¬¬äºĮ":13988,"Ġheterogene":13989,"Ġfidelity":13990,"Ag":13991,"oper":13992,"uk":13993,"redshift":13994,"åľ¨ä½İ":13995,"version":13996,"æľīçĶ¨":13997,"å¹´äººåı£çº¦":13998,"ĠXM":13999,"çļĦçł":14000,"çī¹å®ļçļĦ":14001,"åĪ¶åĵģ":14002,"å¹³åĿ¦":14003,"æŃ¤ç±»":14004,"å§»":14005,"éĢļè¿ĩä½¿çĶ¨":14006,"Ġsimulate":14007,"ç¥ŀç§ĺ":14008,"è§£åĨ³äºĨ":14009,"ĠSub":14010,"Ġ(.).":14011,"Ġæ±Ĥ":14012,"Ġposterior":14013,"è¿Ħä»Ĭ":14014,"')}":14015,"'}{\\":14016,"Poisson":14017,"actor":14018,"}{}^{":14019,"Ġgrid":14020,"æľīäºĨ":14021,"æĸ¯æĭīå¤«":14022,"}=\\{\\":14023,"ç³»ç»Łä¸ŃçļĦ":14024,"Ġlies":14025,"ç¬¬ä¸Ģéĥ¨":14026,"emph":14027,"Biggr":14028,"èģĶåĲĪåĽ½":14029,"diffusion":14030,"Lo":14031,"No":14032,"nat":14033,"power":14034,"ç§ĭ":14035,"+\\,":14036,"Ġdeal":14037,"éĩıä¸º":14038,"Ġcomes":14039,"ending":14040,"åŃ¦è¯´":14041,"coherent":14042,"nable":14043,"åĵº":14044,"ĠKK":14045,"åĨħæĪĺ":14046,"åĩ½æķ°åľ¨":14047,"è®¾ç«ĭ":14048,"åĻ¨åĴĮ":14049,"æŀģæŀģ":14050,"Ġscatter":14051,"åĪĨå¸ĥäºİ":14052,"isher":14053,"Ġ:\\":14054,"é¥²":14055,"ĠSchwarzschild":14056,"MNewton":14057,"[(\\":14058,"acu":14059,"ths":14060,"æ³ī":14061,"æ²ī":14062,"Ġquar":14063,"ç©ºæł¼":14064,"ĠJpsi":14065,"Ġencoun":14066,"æŁ¥çľĭ":14067,"äºĴçĽ¸":14068,"åįĬå¯¼ä½ĵ":14069,"éĴ¥":14070,"æľªå®ĮæĪĲ":14071,"compu":14072,"romatic":14073,"Ġreproduces":14074,"photo":14075,"Ġcondensation":14076,"Ġactually":14077,"CB":14078,"Ġéĺ¶æ®µ":14079,"Ġæĸ°çļĦ":14080,"çļĦæłĩåĩĨ":14081,"ä½Ĳ":14082,"ĠHST":14083,"near":14084,"Ġstack":14085,"Ġsemis":14086,"å¹¶ä¸İ":14087,"ossible":14088,"ä½Ĩä»ĸ":14089,"åĽ¾æĽ¼":14090,"Ġvalida":14091,"éŁ©":14092,"æ°ĶåĢĻ":14093,"Ġsecondorder":14094,"nergy":14095,"è¯¸å¦Ĥ":14096,"å¼ºçĥĪçļĦ":14097,"Ġwinds":14098,"nh":14099,"ux":14100,"ĠåİŁåŃĲ":14101,"tie":14102,"Ġresemb":14103,"åºĨ":14104,"ĠHz":14105,"Ġkappa":14106,"Ġnever":14107,"å¥İ":14108,"Ġobtaining":14109,"ç±³å°Ķ":14110,"åĵ¥å¾·":14111,"çļĦæİ¥":14112,"çļĦç½ĳç»ľ":14113,"éģµå¾ª":14114,"CMB":14115,"cb":14116,"}})=":14117,"magn":14118,"çļĦä»»ä½ķ":14119,"Ġsquee":14120,"åľ¨éĿŀ":14121,"è¿Ļå°±":14122,"éĹ´è·Ŀ":14123,"å¤ļçļĦ":14124,"but":14125,"è¯¥åĽ½":14126,"çİĩé¢Ĩ":14127,"ç¥ŀåľ£":14128,"Ġtimescales":14129,"Ġbuild":14130,"BT":14131,"]-\\":14132,"åľ¨ä¸į":14133,"Ġonce":14134,"ĠBoltzmann":14135,"ĠPhy":14136,"pass":14137,"èĪĴ":14138,"è¿Ļä¸ªéĹ®é¢ĺ":14139,"ä¹ĲéĺŁ":14140,"æĸ½åĬł":14141,"speci":14142,"å½©èī²":14143,"å±ıéļľ":14144,".}\\":14145,"02":14146,"RW":14147,"ked":14148,"encies":14149,"Ġfb":14150,"elves":14151,"ĠMulti":14152,"Ġstatem":14153,"åŃ¦åĲį":14154,"åŃ¦ç§ĳ":14155,"æ¸Ķ":14156,"Ġenable":14157,"äº¤äºĴ":14158,"åŃ¦å®¶åĴĮ":14159,"ç²¾ç¡®çļĦ":14160,"Longleftrightarrow":14161,"Ġdegeneracy":14162,"nf":14163,"ĠdV":14164,"æ³Ħ":14165,"ppler":14166,"tually":14167,"åĩºåıĳ":14168,"Ġflare":14169,"çļĦçĪ±":14170,"æĮĳæĪĺ":14171,"Stokes":14172,"æľīæīĢ":14173,"ĠMany":14174,"ĠNbody":14175,"å®ŀåľ°":14176,"æĭīæĻ®":14177,"Ġgaps":14178,"Ġroom":14179,")],":14180,"å¸Įå°Ķ":14181,"Ġgenerates":14182,"è¥¿åħĥä¸ĸçºª":14183,"Ġdeterminant":14184,"æĤī":14185,"éļĶç¦»":14186,"Ġbuilt":14187,"Ġrepresenting":14188,"=}\\":14189,"even":14190,"fert":14191,"|}{|":14192,"çļĦè§Ĵ":14193,"istor":14194,"æĪĳä»¬åĪ©çĶ¨":14195,"ĠMO":14196,"è°¨":14197,"Ġdate":14198,"Ġlie":14199,"gredi":14200,"æĦŁåºĶ":14201,"Ġrelevance":14202,"abiYau":14203,"åĲ»åĲĪ":14204,"Ġunex":14205,"QC":14206,"æĺ¯ä»¥":14207,"çĶ¨éĢĶ":14208,"è¿Ļä¸¤":14209,"ĠHy":14210,"çļĦæļĹ":14211,"ĠDark":14212,"Ġç¨³å®ļ":14213,"æ³¢å£«":14214,"åİŁæľ¬":14215,"åħĭç½Ĺ":14216,"Ġ32":14217,"stars":14218,")]\\)":14219,"æľªèĥ½":14220,"åįłæį®":14221,"è¿ŀæİ¥çļĦ":14222,"é¸Ń":14223,"Ġbulge":14224,"Ġhistor":14225,"é¸Łç±»":14226,"Ġgoverned":14227,"Ġambient":14228,"Ġwireless":14229,"ghout":14230,"Ġpercolation":14231,"'}}":14232,"Gra":14233,"Ġbases":14234,"rities":14235,"Ġxi":14236,")}_\\":14237,"Ġasymmetries":14238,"åĬłåĪ©":14239,"å·¦è¾¹":14240,"Ġfitted":14241,"+}\\":14242,"VO":14243,"cover":14244,"imed":14245,"zen":14246,"Ġexotic":14247,"toleading":14248,"ĠCr":14249,"ç³»ä¸Ń":14250,"æĮĤ":14251,"rance":14252,"æıĲçĲ´":14253,"Ġspheres":14254,"çĲĨè®ºä¸Ĭ":14255,"strong":14256,"weak":14257,"æ²Ļæ¼ł":14258,"ĠExp":14259,"Ġcircumstellar":14260,"æľ¬å¾ģæĢģ":14261,"incare":14262,"!\\)":14263,"gluon":14264,"Ġå·´":14265,"Ġrever":14266,"Ġsequential":14267,"åĬłå·¥":14268,"production":14269,"åĽ¾æ¡Ī":14270,"æ·ĭ":14271,"å½¢å¼ıä¸»ä¹ī":14272,"æ¨¡å¼ıçļĦ":14273,"Ġsimplified":14274,"æĮªå¨ģ":14275,"<|":14276,"zo":14277,"these":14278,"_{\\{\\":14279,"äºĨä»ĸ":14280,"æŃ§":14281,"ĠMinkowski":14282,"ä½ľçī©":14283,"çĽ¸ä¿¡":14284,"Ġdilu":14285,"ĠçĮ":14286,"Ġcompression":14287,"åħīçİ¯":14288,"Ġface":14289,"äº¤éĢļ":14290,"Ġoverlap":14291,"åĲĦèĩª":14292,"value":14293,"span":14294,"Ġexplains":14295,"Ġstrengths":14296,"èĪªç©º":14297,"FE":14298,"GW":14299,"Ia":14300,"plus":14301,"thins":14302,"çļĦç®Ģåįķ":14303,"fractive":14304,"åĴĮç¾İåĽ½":14305,"åı¯è¾¾":14306,"é¢ĩ":14307,"ĠNP":14308,"}+(\\":14309,"åŁºåľ°":14310,"used":14311,"çº¦å¹´":14312,"{(}\\":14313,"æł¹æľ¬":14314,"Ġunita":14315,"æĶ¾å¤§":14316,"å®īæİĴ":14317,"Ġmanifes":14318,"Ġrequirements":14319,"æł½åŁ¹":14320,"æĸĩèīºå¤įåħ´":14321,"TV":14322,"Ġå±ŀ":14323,"tivities":14324,"Ġnumer":14325,"ä¸įä¸Ģå®ļ":14326,"cian":14327,"åĩºæĿ¥çļĦ":14328,"æİ¥çĿĢ":14329,"Ġdynamo":14330,"æ£ĭ":14331,"æ¯ıæ¬¡":14332,"é£İæĻ¯":14333,"èĵĦ":14334,"çļĦæ¡Ĩæŀ¶":14335,"Or":14336,"Zn":14337,"drical":14338,"Ġrev":14339,"}}^\\":14340,"æĪĳä»¬éľĢè¦ģ":14341,"æİĺ":14342,"roughout":14343,"Ġnonnegative":14344,"è®¾ä¸º":14345,"çľł":14346,"èĤĿ":14347,"æĭŁè®®":14348,"æĶ¶ç¼©":14349,"ç¡®å®ļçļĦ":14350,"Ġä¸Ģèĩ´":14351,"}\\|_":14352,"Ġquantized":14353,"æ¿Ģç´ł":14354,"Ġionized":14355,"Ġviscous":14356,"Ġextremal":14357,"{.":14358,"é¤Ĳ":14359,"Ļ¾":14360,"Ġanten":14361,"ĠMHz":14362,"ĠBur":14363,"è¾Ł":14364,"ĠçľŁ":14365,"Ġcomprehen":14366,"å¹¶ä½¿çĶ¨":14367,"å¹³ç§»":14368,"ĠæĪĳä»¬å±ķç¤ºäºĨ":14369,"Ġvaries":14370,"èĩ³åħ³":14371,"å®īå¾·":14372,"Ġ\\(\\{{\\":14373,"Ġcircuit":14374,"Ġsynthesis":14375,");\\)":14376,"Ġcondensates":14377,"Ray":14378,"Sha":14379,"}\\},":14380,"Ġpromin":14381,"nus":14382,"åı¯ä»¥è¯ģæĺİ":14383,"åĢ¼ä¸º":14384,"Ġspac":14385,"æĬĬå®ĥ":14386,"åºĶçĶ¨åĪ°":14387,"åĻªå£°":14388,"Ġactual":14389,"Ġattempt":14390,"action":14391,"åįĴ":14392,"ä¸įåĪ°":14393,"ä½ľäºĨ":14394,"Ġç¾İ":14395,"ĠOri":14396,"Ġgraded":14397,"Ġadditive":14398,"åĲİæĿ¥æĪĲä¸º":14399,")&=(":14400,"è¡¨è¾¾æĸ¹å¼ı":14401,"è°·çī©":14402,"Ġdivergence":14403,"associ":14404,"Ġscreening":14405,"Af":14406,"Ġagrees":14407,"çļĦåĽĽ":14408,"ä¸Ģè¯į":14409,"åĴĮæĹł":14410,"Ġstart":14411,"Ġlist":14412,"Ġintervals":14413,"æķ°æį®çļĦ":14414,"single":14415,"çļĦæĬĹ":14416,"Ġoffers":14417,"åħĭæĸ¯éŁ¦":14418,"å¼łéĩıç§¯":14419,"ç°ĩ":14420,"æĸĩçĮ®ä¸Ń":14421,"Ġbalance":14422,"punov":14423,"hn":14424,"rons":14425,"ĠèĪ¬":14426,"Ġsli":14427,"roben":14428,"}}|\\":14429,"éĩıåĴĮ":14430,"æłı":14431,"è¿Ľå±ķ":14432,"Ġcancel":14433,"åĻ¨ä¸Ń":14434,"åĪĻæľī":14435,"åı£åĳ³":14436,"çģ¾":14437,"_-,":14438,"Biggl":14439,"Ġafterglow":14440,"ĠSNR":14441,"];":14442,"Ġï¼Ľ":14443,"ollar":14444,"ĠWigner":14445,"åľ°éľĩ":14446,"åĩºä¸Ģä¸ª":14447,"æ¬²":14448,"å¾®æī°":14449,"ç½Ĺå¾·":14450,"Ġunde":14451,"å·®åĪĨ":14452,"ikx":14453,"é£ŁçĶ¨":14454,"^{+}(":14455,"nkov":14456,"èĴ¸æ±½":14457,"nucleon":14458,"åĢĻéĢīäºº":14459,"çļĦæ°Ķä½ĵ":14460,"Ġlaboratory":14461,"LBI":14462,"Sc":14463,"Ġè®¨è®º":14464,"Ġå·²ç»ı":14465,"ãĢĤ(":14466,"ĠCH":14467,"ĠCauchy":14468,"ĠMu":14469,"åľ°çĤ¹":14470,"ĠEach":14471,"åĲĮæĢģ":14472,"))}{\\":14473,":\\;":14474,"Ġcreate":14475,"Ġ...,":14476,"Ġdiscrepancy":14477,"èĩ´åĬĽäºİ":14478,"PQ":14479,"TD":14480,"Ġå®ĩå®Ļ":14481,"æĺ¯çĶ±äºİ":14482,"ato":14483,"Ġrisk":14484,"ä¹ĭåĴĮ":14485,"tening":14486,"odal":14487,"çłĤ":14488,"é¦ĸçĽ¸":14489,"Ġminor":14490,"Ġsimplest":14491,"çļĦæĶ¾":14492,"åĶ¯ä¸ĢçļĦ":14493,"åıĻè¿°":14494,"çŀ¬æĹ¶":14495,"itedimensional":14496,"Rh":14497,"}{=}":14498,"Ġingredi":14499,"stri":14500,"æľºçļĦ":14501,"å¯ĨçļĦ":14502,"brated":14503,"çİ¯ç»ķ":14504,"åĭĺ":14505,"Ġæİ¢æµĭ":14506,"Ġconserved":14507,"theoretic":14508,"ĠSpecifically":14509,"thinspace":14510,"FA":14511,"Phys":14512,"rig":14513,"Ġæķ´":14514,"ĠæĹ¥":14515,"Ġ={\\":14516,"Ġnegligible":14517,"Ġqua":14518,"å¹¶çĶ¨":14519,"taining":14520,"æŃ£æķ´æķ°":14521,"éĵĿ":14522,"åĨĽå®ĺ":14523,"éĴĻ":14524,"é²į":14525,"Ġflavour":14526,"æ¸©åº¦ä¸ĭ":14527,"æł·æľ¬ä¸Ń":14528,"Ġconsideration":14529,"åľ°éĿ¢çĬ¶æĢģ":14530,"Ġspread":14531,"ä»»åĳ½ä¸º":14532,"Ġperspective":14533,"MHD":14534,"Tho":14535,"zq":14536,"çļĦå¹³åĿĩ":14537,"çļĦé¡ºåºı":14538,"cke":14539,"åı¯ä»¥ä½¿çĶ¨":14540,"constant":14541,"dington":14542,"åħ¨ä¸ĸçķĮ":14543,"æ¶µ":14544,"éĴ©":14545,"æĺŁç³»ä¸Ń":14546,"åĵĪä½Ľ":14547,"çĵ·":14548,"Ġmostly":14549,"Ġdefinite":14550,"Ġç´¢":14551,"',\\)":14552,"Har":14553,"Sh":14554,"iding":14555,"|}{\\":14556,"Ġå®Ļ":14557,"ĠæłĩåĩĨ":14558,"ä»ĵ":14559,"ginary":14560,"çĽ¸åĮ¹éħį":14561,"åĬĽçŁ©":14562,"è§£æĶ¾":14563,"å±Ĥæ¬¡":14564,"åĬŁèĥ½çļĦ":14565,"èĭıä¸¹":14566,"ç£ģåľºçļĦ":14567,"Ġfourth":14568,"dynamic":14569,"Ġconvection":14570,"'|^":14571,"Cal":14572,"{,":14573,"åĹ":14574,"Ġå¾Ħ":14575,"vectors":14576,"Ġprotons":14577,"ä»¥ä¸ĬçļĦ":14578,"ĠHence":14579,"æĪĲéķ¿":14580,"çļĦç¾¤":14581,"Ġfinally":14582,"\\{|":14583,"æĢ»ç»ĵ":14584,"]\\!":14585,"è§£éĩĬäºĨ":14586,"Ġevolving":14587,"Pu":14588,"Vol":14589,"iB":14590,"}\\;\\;":14591,"åĴĮM":14592,"æľīçķĮ":14593,"bigwedge":14594,"ä¸įç¡®å®ļæĢ§":14595,"åįķè°ĥ":14596,"å¯¼çº¿":14597,"å°±è¯»":14598,"èĢħåĴĮ":14599,"gravi":14600,"Ġcomplexes":14601,"Ġweaker":14602,"è¡¡éĩı":14603,"éļ¾ä»¥":14604,"eyfert":14605,"åĬ³å·¥":14606,"éŃģ":14607,"ä»¿å°Ħ":14608,"resistance":14609,"Planck":14610,"Ġ\\},\\)":14611,"Ġap":14612,"Ġ&-":14613,"Ġbit":14614,"heet":14615,"è¿ĽæĶ»":14616,"ä»£æĽ¿":14617,"Ġ\\(({\\":14618,"è§Ĥå¿µ":14619,"}|_{\\":14620,"Ġgames":14621,"_+}":14622,"distribution":14623,"Ġcentre":14624,"Ġcontained":14625,"Ġmodifications":14626,"çİ»èī²":14627,"Ġanalogy":14628,"å°ºåº¦ä¸Ĭ":14629,"ĠNewtonian":14630,"æķıæĦŁåº¦":14631,"è¯ĬæĸŃ":14632,"Ġultracold":14633,"Ġbis":14634,"ä¸ŃæĸŃ":14635,"loan":14636,"Ġmark":14637,"ĠSt":14638,"Ġhund":14639,"Ġyr":14640,"åĮĸåĴĮ":14641,"åħīçļĦ":14642,"Ġaccessible":14643,"_{-}(":14644,"ç¾¤ä½ĵ":14645,"åıĮæĽ²":14646,"åĪĽå§ĭ":14647,"æİ¨æµĭ":14648,"52":14649,"ats":14650,"})/":14651,"Ġmig":14652,"æľīåĪ©":14653,"è¿ĻæĹ¶":14654,"Ġmoder":14655,"éĩĮçļĦ":14656,"ç»ĵæŀľæĺ¯":14657,"ä¼łå¯¼":14658,"Ġcolli":14659,"çļĦæĶ¶":14660,"DEs":14661,"Ġsatisfied":14662,"Ġbodies":14663,"ä¼ģåĽ¾":14664,"Ġreceiver":14665,"dominated":14666,"Ġbottom":14667,"iw":14668,"ĠéĻħ":14669,"Ġcut":14670,"Ġdic":14671,"ç»µ":14672,"Ġdeb":14673,"ĠAc":14674,"è´¦":14675,"é¢Ĥ":14676,"æŁ¥æī¾":14677,"éĴł":14678,"Ġsimilarity":14679,"åĮħåĲ«äºĨ":14680,"èģĮåĬ¡":14681,"çļĦçŁŃ":14682,"åĮĢéĢŁ":14683,"Ġrobustness":14684,"é³ŀ":14685,"åĸ·æ°Ķå¼ı":14686,"Bon":14687,"sr":14688,"xq":14689,"éī":14690,"ĠéĢļå¸¸":14691,"Ġç»ĦåĲĪ":14692,"rab":14693,"çļĦåħ³éĶ®":14694,"Ġecli":14695,"Ġ\\\\(":14696,"Ġproven":14697,"æĪĳä»¬å·²ç»ı":14698,"duals":14699,"çļĦç¾İ":14700,"}}\\;":14701,"Ġcontin":14702,"é¦ĸèĦĳ":14703,"ä¿®å»º":14704,"éĵ¾è¡¨":14705,"Ġdiagnos":14706,"Ġdecoding":14707,"éī´":14708,"*}\\":14709,"vv":14710,"{}\\":14711,"|,\\)":14712,"ĠåŁºæľ¬":14713,"Ġreviewed":14714,"çī²":14715,"Ġproducing":14716,"\\|=\\|":14717,"Ġleptons":14718,"ç»´çļĦ":14719,"gest":14720,"æ¡ĥ":14721,"èĢĥå¯Ł":14722,"çĽ¸äºĴä½ľçĶ¨çļĦ":14723,"Ġprocedures":14724,"Ġcauses":14725,"Ġearlytype":14726,"åĲ¯åıĳ":14727,"ĠLyman":14728,"æĺ¾å¾®éķľ":14729,"'}(\\":14730,"DP":14731,"Ġ}^":14732,"tere":14733,"åľ¨ä¸İ":14734,"ä¸ºæŃ¤":14735,"Ġdeduce":14736,"ä»¥ä¸º":14737,"ĠMS":14738,"^*_\\":14739,"ĠKo":14740,"ĠæĪĳä»¬å°Ĩ":14741,"Ġdespite":14742,"åĽŀçŃĶ":14743,"åı¸ä»¤":14744,"åĲ¸å¼ķåĬĽ":14745,"Ġgrows":14746,"Ġinvolve":14747,"Ko":14748,"symmetry":14749,"Ġä¸ĸ":14750,"ä¸Ļ":14751,"rely":14752,"ĠAA":14753,"ĠSigma":14754,"ĠGu":14755,"åħĭæ£®":14756,"çİĩçļĦ":14757,"åħ·ä½ĵçļĦ":14758,"}||":14759,"æĦıåĽ¾":14760,"Ġarrays":14761,"èģĶç»ľ":14762,"çİ¯å½¢":14763,"å¥¥å°Ķ":14764,"Ġformulate":14765,"Ġparadig":14766,"Ġarbitrarily":14767,
[...]
